<unk>	0
<s>	0
</s>	0
<pad>	0
<0x00>	0
<0x01>	0
<0x02>	0
<0x03>	0
<0x04>	0
<0x05>	0
<0x06>	0
<0x07>	0
<0x08>	0
<0x09>	0
<0x0A>	0
<0x0B>	0
<0x0C>	0
<0x0D>	0
<0x0E>	0
<0x0F>	0
<0x10>	0
<0x11>	0
<0x12>	0
<0x13>	0
<0x14>	0
<0x15>	0
<0x16>	0
<0x17>	0
<0x18>	0
<0x19>	0
<0x1A>	0
<0x1B>	0
<0x1C>	0
<0x1D>	0
<0x1E>	0
<0x1F>	0
<0x20>	0
<0x21>	0
<0x22>	0
<0x23>	0
<0x24>	0
<0x25>	0
<0x26>	0
<0x27>	0
<0x28>	0
<0x29>	0
<0x2A>	0
<0x2B>	0
<0x2C>	0
<0x2D>	0
<0x2E>	0
<0x2F>	0
<0x30>	0
<0x31>	0
<0x32>	0
<0x33>	0
<0x34>	0
<0x35>	0
<0x36>	0
<0x37>	0
<0x38>	0
<0x39>	0
<0x3A>	0
<0x3B>	0
<0x3C>	0
<0x3D>	0
<0x3E>	0
<0x3F>	0
<0x40>	0
<0x41>	0
<0x42>	0
<0x43>	0
<0x44>	0
<0x45>	0
<0x46>	0
<0x47>	0
<0x48>	0
<0x49>	0
<0x4A>	0
<0x4B>	0
<0x4C>	0
<0x4D>	0
<0x4E>	0
<0x4F>	0
<0x50>	0
<0x51>	0
<0x52>	0
<0x53>	0
<0x54>	0
<0x55>	0
<0x56>	0
<0x57>	0
<0x58>	0
<0x59>	0
<0x5A>	0
<0x5B>	0
<0x5C>	0
<0x5D>	0
<0x5E>	0
<0x5F>	0
<0x60>	0
<0x61>	0
<0x62>	0
<0x63>	0
<0x64>	0
<0x65>	0
<0x66>	0
<0x67>	0
<0x68>	0
<0x69>	0
<0x6A>	0
<0x6B>	0
<0x6C>	0
<0x6D>	0
<0x6E>	0
<0x6F>	0
<0x70>	0
<0x71>	0
<0x72>	0
<0x73>	0
<0x74>	0
<0x75>	0
<0x76>	0
<0x77>	0
<0x78>	0
<0x79>	0
<0x7A>	0
<0x7B>	0
<0x7C>	0
<0x7D>	0
<0x7E>	0
<0x7F>	0
<0x80>	0
<0x81>	0
<0x82>	0
<0x83>	0
<0x84>	0
<0x85>	0
<0x86>	0
<0x87>	0
<0x88>	0
<0x89>	0
<0x8A>	0
<0x8B>	0
<0x8C>	0
<0x8D>	0
<0x8E>	0
<0x8F>	0
<0x90>	0
<0x91>	0
<0x92>	0
<0x93>	0
<0x94>	0
<0x95>	0
<0x96>	0
<0x97>	0
<0x98>	0
<0x99>	0
<0x9A>	0
<0x9B>	0
<0x9C>	0
<0x9D>	0
<0x9E>	0
<0x9F>	0
<0xA0>	0
<0xA1>	0
<0xA2>	0
<0xA3>	0
<0xA4>	0
<0xA5>	0
<0xA6>	0
<0xA7>	0
<0xA8>	0
<0xA9>	0
<0xAA>	0
<0xAB>	0
<0xAC>	0
<0xAD>	0
<0xAE>	0
<0xAF>	0
<0xB0>	0
<0xB1>	0
<0xB2>	0
<0xB3>	0
<0xB4>	0
<0xB5>	0
<0xB6>	0
<0xB7>	0
<0xB8>	0
<0xB9>	0
<0xBA>	0
<0xBB>	0
<0xBC>	0
<0xBD>	0
<0xBE>	0
<0xBF>	0
<0xC0>	0
<0xC1>	0
<0xC2>	0
<0xC3>	0
<0xC4>	0
<0xC5>	0
<0xC6>	0
<0xC7>	0
<0xC8>	0
<0xC9>	0
<0xCA>	0
<0xCB>	0
<0xCC>	0
<0xCD>	0
<0xCE>	0
<0xCF>	0
<0xD0>	0
<0xD1>	0
<0xD2>	0
<0xD3>	0
<0xD4>	0
<0xD5>	0
<0xD6>	0
<0xD7>	0
<0xD8>	0
<0xD9>	0
<0xDA>	0
<0xDB>	0
<0xDC>	0
<0xDD>	0
<0xDE>	0
<0xDF>	0
<0xE0>	0
<0xE1>	0
<0xE2>	0
<0xE3>	0
<0xE4>	0
<0xE5>	0
<0xE6>	0
<0xE7>	0
<0xE8>	0
<0xE9>	0
<0xEA>	0
<0xEB>	0
<0xEC>	0
<0xED>	0
<0xEE>	0
<0xEF>	0
<0xF0>	0
<0xF1>	0
<0xF2>	0
<0xF3>	0
<0xF4>	0
<0xF5>	0
<0xF6>	0
<0xF7>	0
<0xF8>	0
<0xF9>	0
<0xFA>	0
<0xFB>	0
<0xFC>	0
<0xFD>	0
<0xFE>	0
<0xFF>	0
▁t	-0
he	-1
▁a	-2
in	-3
▁the	-4
er	-5
on	-6
▁,	-7
re	-8
▁s	-9
ed	-10
▁w	-11
▁o	-12
nd	-13
at	-14
▁.	-15
or	-16
en	-17
▁c	-18
it	-19
▁f	-20
is	-21
es	-22
ar	-23
▁b	-24
▁of	-25
an	-26
▁in	-27
al	-28
ing	-29
▁p	-30
as	-31
▁and	-32
▁to	-33
ic	-34
ro	-35
▁m	-36
▁d	-37
▁h	-38
ion	-39
le	-40
ou	-41
▁re	-42
▁T	-43
il	-44
▁S	-45
ent	-46
▁"	-47
▁1	-48
▁th	-49
▁A	-50
st	-51
▁l	-52
el	-53
▁@	-54
▁C	-55
▁e	-56
▁=	-57
om	-58
am	-59
▁n	-60
ad	-61
ac	-62
▁was	-63
▁M	-64
▁on	-65
ec	-66
ly	-67
▁'	-68
▁B	-69
ur	-70
et	-71
id	-72
▁g	-73
ol	-74
im	-75
-@	-76
▁@-@	-77
▁for	-78
ir	-79
ig	-80
iv	-81
ot	-82
ter	-83
ut	-84
▁The	-85
▁I	-86
▁as	-87
▁H	-88
us	-89
ow	-90
ith	-91
ay	-92
▁st	-93
▁2	-94
▁he	-95
ver	-96
ation	-97
▁P	-98
▁with	-99
▁be	-100
▁that	-101
ce	-102
▁R	-103
un	-104
em	-105
▁D	-106
▁wh	-107
▁by	-108
ch	-109
▁al	-110
th	-111
▁)	-112
▁(	-113
▁W	-114
▁F	-115
▁is	-116
ul	-117
▁con	-118
▁at	-119
ers	-120
ct	-121
▁L	-122
▁G	-123
ain	-124
and	-125
▁an	-126
▁19	-127
▁N	-128
os	-129
▁it	-130
her	-131
rom	-132
ag	-133
av	-134
um	-135
est	-136
00	-137
▁J	-138
▁his	-139
▁r	-140
▁E	-141
ri	-142
od	-143
▁from	-144
ist	-145
▁com	-146
ap	-147
▁pro	-148
▁v	-149
op	-150
if	-151
ore	-152
ill	-153
ld	-154
▁O	-155
up	-156
ere	-157
ew	-158
res	-159
igh	-160
ies	-161
▁de	-162
art	-163
ber	-164
ard	-165
ort	-166
▁se	-167
▁were	-168
ich	-169
ate	-170
ak	-171
all	-172
ab	-173
ant	-174
ud	-175
oc	-176
▁ex	-177
ong	-178
qu	-179
▁or	-180
▁ch	-181
gh	-182
ear	-183
ated	-184
▁pl	-185
▁sh	-186
ess	-187
ity	-188
ip	-189
ive	-190
ame	-191
▁K	-192
▁had	-193
ect	-194
▁In	-195
ack	-196
▁U	-197
our	-198
▁su	-199
red	-200
ast	-201
se	-202
▁which	-203
▁k	-204
▁St	-205
ment	-206
▁le	-207
ge	-208
und	-209
▁are	-210
ov	-211
ian	-212
ial	-213
▁not	-214
▁sp	-215
ell	-216
ost	-217
▁y	-218
ight	-219
▁tr	-220
ord	-221
ust	-222
ary	-223
ia	-224
ther	-225
rit	-226
pt	-227
ine	-228
▁3	-229
oun	-230
ical	-231
ave	-232
pp	-233
▁un	-234
▁Ch	-235
▁200	-236
cc	-237
▁inc	-238
fter	-239
ould	-240
▁but	-241
irst	-242
ish	-243
ous	-244
te	-245
ions	-246
so	-247
▁comp	-248
ff	-249
▁20	-250
ide	-251
▁ro	-252
▁whe	-253
ure	-254
▁V	-255
▁ar	-256
▁cont	-257
ra	-258
ub	-259
▁;	-260
▁first	-261
ign	-262
▁cl	-263
wo	-264
▁her	-265
ie	-266
▁its	-267
▁their	-268
ue	-269
og	-270
▁–	-271
orm	-272
ass	-273
ork	-274
▁int	-275
▁res	-276
▁:	-277
ok	-278
ater	-279
▁also	-280
▁ab	-281
▁ad	-282
ome	-283
ond	-284
out	-285
age	-286
▁He	-287
ry	-288
mer	-289
ire	-290
hed	-291
▁us	-292
du	-293
The	-294
ime	-295
low	-296
ru	-297
▁per	-298
▁4	-299
per	-300
ans	-301
▁who	-302
▁one	-303
▁have	-304
▁sc	-305
▁5	-306
pl	-307
ally	-308
own	-309
ile	-310
ance	-311
▁rec	-312
ted	-313
▁18	-314
.@	-315
▁@.@	-316
▁two	-317
ition	-318
ugh	-319
ree	-320
ence	-321
uring	-322
▁Th	-323
port	-324
▁been	-325
▁part	-326
▁bec	-327
ts	-328
▁has	-329
ice	-330
iz	-331
▁ag	-332
▁app	-333
,@	-334
▁@,@	-335
ough	-336
▁201	-337
▁en	-338
▁j	-339
▁dis	-340
lud	-341
▁over	-342
▁this	-343
▁ser	-344
ory	-345
▁year	-346
ely	-347
ations	-348
are	-349
ember	-350
ction	-351
ound	-352
ke	-353
▁off	-354
▁after	-355
▁up	-356
ach	-357
▁play	-358
▁des	-359
land	-360
ace	-361
over	-362
▁Al	-363
ark	-364
ric	-365
▁out	-366
▁they	-367
▁te	-368
ade	-369
▁It	-370
▁other	-371
act	-372
▁man	-373
ib	-374
▁im	-375
ult	-376
▁includ	-377
ress	-378
ced	-379
ail	-380
urn	-381
wn	-382
▁would	-383
ens	-384
▁Y	-385
ind	-386
▁time	-387
▁into	-388
man	-389
▁pre	-390
ang	-391
one	-392
ward	-393
ep	-394
▁him	-395
▁we	-396
oin	-397
we	-398
ite	-399
ates	-400
▁she	-401
▁Un	-402
▁6	-403
les	-404
ren	-405
▁ev	-406
able	-407
▁att	-408
ased	-409
ilm	-410
ited	-411
end	-412
amp	-413
ever	-414
ied	-415
ase	-416
▁comm	-417
ors	-418
▁inter	-419
rough	-420
ount	-421
oy	-422
ne	-423
form	-424
ons	-425
▁all	-426
▁more	-427
▁work	-428
ood	-429
ces	-430
▁7	-431
ered	-432
old	-433
aw	-434
ings	-435
vel	-436
ild	-437
▁new	-438
▁sec	-439
▁bet	-440
▁Ar	-441
ick	-442
ose	-443
▁when	-444
▁film	-445
inal	-446
ve	-447
▁fe	-448
ents	-449
ious	-450
ake	-451
way	-452
aus	-453
fer	-454
att	-455
reat	-456
ft	-457
▁cons	-458
iss	-459
round	-460
▁8	-461
▁rem	-462
gan	-463
rib	-464
rop	-465
ved	-466
▁An	-467
▁Mar	-468
ason	-469
▁dec	-470
▁during	-471
▁und	-472
orth	-473
ubl	-474
▁again	-475
hip	-476
▁most	-477
▁game	-478
▁pr	-479
▁9	-480
▁them	-481
▁only	-482
oth	-483
ween	-484
▁199	-485
▁ear	-486
ix	-487
ollow	-488
▁than	-489
ath	-490
▁sup	-491
▁ne	-492
ational	-493
fore	-494
▁about	-495
▁produ	-496
ob	-497
▁cent	-498
ss	-499
tern	-500
▁ret	-501
▁char	-502
▁song	-503
▁can	-504
▁New	-505
▁Se	-506
outh	-507
ug	-508
▁between	-509
▁later	-510
▁rele	-511
▁under	-512
▁kn	-513
▁three	-514
ict	-515
▁col	-516
▁act	-517
ton	-518
iew	-519
▁00	-520
aid	-521
ron	-522
▁through	-523
als	-524
hn	-525
▁qu	-526
orld	-527
▁num	-528
ook	-529
▁so	-530
▁acc	-531
▁me	-532
▁rel	-533
▁while	-534
▁end	-535
▁En	-536
meric	-537
In	-538
ank	-539
lect	-540
▁fl	-541
▁Americ	-542
ters	-543
▁pos	-544
ral	-545
ock	-546
▁sub	-547
ning	-548
▁ass	-549
▁Le	-550
ular	-551
ating	-552
▁where	-553
▁ver	-554
▁day	-555
▁reg	-556
▁second	-557
▁bu	-558
ener	-559
▁made	-560
ames	-561
ision	-562
ived	-563
ck	-564
▁pe	-565
▁record	-566
▁def	-567
bum	-568
▁Re	-569
▁four	-570
▁gro	-571
▁Com	-572
▁follow	-573
▁season	-574
▁000	-575
▁form	-576
▁some	-577
▁ep	-578
▁such	-579
son	-580
ished	-581
▁am	-582
▁mov	-583
ool	-584
▁before	-585
ained	-586
▁mus	-587
▁writ	-588
▁there	-589
hes	-590
ph	-591
▁spec	-592
ics	-593
ike	-594
▁years	-595
▁team	-596
▁10	-597
iel	-598
▁sy	-599
io	-600
ode	-601
▁/	-602
ident	-603
ual	-604
▁lar	-605
▁Sp	-606
▁album	-607
▁On	-608
▁ind	-609
owever	-610
ily	-611
▁Jo	-612
▁used	-613
▁ent	-614
▁gr	-615
hen	-616
▁call	-617
▁sur	-618
ific	-619
▁high	-620
▁ac	-621
▁publ	-622
ury	-623
▁being	-624
▁This	-625
▁epis	-626
▁then	-627
ll	-628
orn	-629
velop	-630
▁do	-631
▁loc	-632
ten	-633
▁exp	-634
ife	-635
▁against	-636
▁inv	-637
▁17	-638
aj	-639
other	-640
ris	-641
▁pres	-642
▁bl	-643
▁Sh	-644
anc	-645
▁number	-646
▁show	-647
▁charac	-648
ane	-649
▁sever	-650
▁0	-651
▁add	-652
▁set	-653
▁co	-654
ince	-655
▁became	-656
▁rece	-657
ject	-658
ause	-659
ale	-660
▁lead	-661
▁perform	-662
▁Brit	-663
▁including	-664
▁br	-665
▁sing	-666
ars	-667
▁no	-668
ather	-669
▁—	-670
erm	-671
▁found	-672
▁well	-673
ines	-674
ek	-675
▁United	-676
▁rep	-677
▁At	-678
▁mon	-679
▁pol	-680
air	-681
▁back	-682
▁both	-683
▁series	-684
▁cap	-685
▁As	-686
▁15	-687
▁198	-688
ober	-689
▁12	-690
▁ship	-691
ier	-692
ower	-693
ement	-694
ired	-695
ures	-696
▁Sc	-697
its	-698
▁main	-699
ivers	-700
▁194	-701
ert	-702
▁min	-703
pen	-704
ley	-705
overn	-706
▁did	-707
iet	-708
▁go	-709
der	-710
▁cre	-711
elf	-712
▁develop	-713
▁imp	-714
led	-715
ram	-716
ities	-717
▁long	-718
▁met	-719
▁She	-720
ik	-721
iver	-722
ised	-723
any	-724
▁Eng	-725
ven	-726
olog	-727
▁Con	-728
ting	-729
ared	-730
▁mill	-731
ird	-732
▁em	-733
▁air	-734
ful	-735
uch	-736
▁mat	-737
▁episode	-738
tend	-739
az	-740
irect	-741
▁said	-742
▁stud	-743
▁many	-744
▁bro	-745
ann	-746
ute	-747
▁dep	-748
▁could	-749
ative	-750
▁orig	-751
▁car	-752
▁contin	-753
▁war	-754
▁several	-755
▁16	-756
though	-757
▁dif	-758
▁John	-759
▁inst	-760
▁pop	-761
▁American	-762
ash	-763
ouse	-764
ield	-765
▁known	-766
emb	-767
ise	-768
▁197	-769
▁Ind	-770
ty	-771
ually	-772
▁conc	-773
til	-774
▁196	-775
▁Wh	-776
▁Cl	-777
▁11	-778
iam	-779
view	-780
▁Aust	-781
ins	-782
erson	-783
▁ob	-784
ued	-785
▁return	-786
▁began	-787
▁sm	-788
▁any	-789
▁comple	-790
▁design	-791
▁War	-792
▁Br	-793
▁desc	-794
▁sign	-795
ople	-796
chool	-797
ross	-798
ange	-799
▁est	-800
my	-801
aking	-802
ccess	-803
▁trans	-804
▁prov	-805
hy	-806
▁feat	-807
oot	-808
▁inf	-809
▁run	-810
▁early	-811
ah	-812
ern	-813
▁art	-814
▁music	-815
▁own	-816
▁dist	-817
▁near	-818
▁released	-819
▁Fr	-820
ided	-821
▁until	-822
rap	-823
▁called	-824
ized	-825
ism	-826
▁eff	-827
▁After	-828
imes	-829
▁resp	-830
▁De	-831
▁bel	-832
▁pass	-833
une	-834
ured	-835
stem	-836
▁fin	-837
ially	-838
▁Bl	-839
ists	-840
▁down	-841
▁US	-842
ution	-843
▁Col	-844
▁May	-845
▁disc	-846
▁crit	-847
ments	-848
osed	-849
▁direct	-850
▁gener	-851
▁Z	-852
▁Be	-853
▁along	-854
xt	-855
▁ins	-856
▁million	-857
▁prev	-858
erman	-859
▁group	-860
▁offic	-861
▁British	-862
▁fam	-863
enn	-864
▁these	-865
▁13	-866
ajor	-867
ium	-868
▁mod	-869
ull	-870
▁may	-871
ax	-872
▁$	-873
▁open	-874
cept	-875
▁mil	-876
▁poin	-877
els	-878
ains	-879
▁land	-880
eb	-881
▁sim	-882
gest	-883
▁hist	-884
▁govern	-885
ger	-886
▁Aug	-887
▁Sept	-888
▁success	-889
▁str	-890
erv	-891
▁September	-892
▁August	-893
▁States	-894
▁oper	-895
▁count	-896
▁attack	-897
uc	-898
ible	-899
▁same	-900
▁gu	-901
▁use	-902
wards	-903
▁describ	-904
▁people	-905
ets	-906
▁World	-907
▁character	-908
aced	-909
amed	-910
▁because	-911
ink	-912
▁Ap	-913
▁Ad	-914
aining	-915
▁like	-916
yp	-917
▁serv	-918
▁14	-919
▁around	-920
▁though	-921
▁start	-922
aving	-923
▁ed	-924
▁Ju	-925
▁km	-926
▁win	-927
▁195	-928
▁const	-929
▁took	-930
▁occ	-931
ues	-932
ruct	-933
▁batt	-934
▁Is	-935
ner	-936
▁Oct	-937
▁support	-938
ove	-939
ped	-940
▁Austral	-941
▁following	-942
▁six	-943
▁dr	-944
▁north	-945
▁German	-946
▁ele	-947
▁Nov	-948
▁193	-949
▁system	-950
▁appear	-951
▁final	-952
▁received	-953
▁class	-954
ey	-955
uss	-956
▁All	-957
▁Pl	-958
▁October	-959
▁consid	-960
▁prom	-961
▁head	-962
ives	-963
▁ann	-964
▁Q	-965
ants	-966
▁Tr	-967
ility	-968
▁state	-969
▁ever	-970
▁build	-971
▁191	-972
ene	-973
▁However	-974
▁each	-975
▁Car	-976
▁Dec	-977
ically	-978
▁For	-979
▁five	-980
ling	-981
▁adv	-982
▁ext	-983
anu	-984
▁century	-985
▁aut	-986
▁area	-987
ret	-988
▁var	-989
▁will	-990
▁York	-991
▁small	-992
▁Pro	-993
ately	-994
▁bo	-995
▁partic	-996
▁life	-997
gin	-998
iving	-999
▁report	-1000
get	-1001
▁]	-1002
▁They	-1003
ored	-1004
tle	-1005
oss	-1006
ording	-1007
▁North	-1008
▁June	-1009
ril	-1010
▁city	-1011
▁[	-1012
▁contro	-1013
▁major	-1014
▁week	-1015
▁public	-1016
ians	-1017
▁mar	-1018
▁%	-1019
ission	-1020
▁July	-1021
▁conf	-1022
▁band	-1023
ection	-1024
▁ref	-1025
▁November	-1026
▁King	-1027
med	-1028
urch	-1029
▁rest	-1030
▁world	-1031
▁since	-1032
inc	-1033
▁med	-1034
▁single	-1035
ina	-1036
raft	-1037
esp	-1038
▁April	-1039
por	-1040
▁Comm	-1041
lish	-1042
▁det	-1043
▁just	-1044
ried	-1045
▁March	-1046
▁last	-1047
ected	-1048
omet	-1049
hest	-1050
▁Me	-1051
ural	-1052
ional	-1053
▁turn	-1054
▁Har	-1055
aim	-1056
ively	-1057
▁allow	-1058
▁hel	-1059
ilt	-1060
▁Will	-1061
ient	-1062
▁arr	-1063
▁30	-1064
▁po	-1065
▁left	-1066
ague	-1067
▁large	-1068
▁Can	-1069
▁line	-1070
▁differ	-1071
idge	-1072
▁Pr	-1073
▁care	-1074
cl	-1075
▁south	-1076
ales	-1077
ified	-1078
rist	-1079
▁book	-1080
▁vers	-1081
▁Ed	-1082
▁school	-1083
empt	-1084
▁South	-1085
..	-1086
▁third	-1087
▁December	-1088
avy	-1089
▁Gr	-1090
▁sl	-1091
ble	-1092
▁incre	-1093
▁Mc	-1094
ats	-1095
▁month	-1096
▁due	-1097
▁appro	-1098
ined	-1099
▁played	-1100
▁Bro	-1101
▁much	-1102
▁event	-1103
rote	-1104
▁another	-1105
▁if	-1106
▁25	-1107
anuary	-1108
▁included	-1109
▁what	-1110
▁January	-1111
▁192	-1112
▁based	-1113
▁place	-1114
eng	-1115
▁Ge	-1116
▁short	-1117
aged	-1118
row	-1119
by	-1120
▁government	-1121
▁II	-1122
▁expl	-1123
ograp	-1124
▁person	-1125
▁wrote	-1126
▁track	-1127
ony	-1128
ball	-1129
▁camp	-1130
▁old	-1131
▁tit	-1132
ney	-1133
▁name	-1134
apan	-1135
▁Or	-1136
▁death	-1137
▁bre	-1138
ently	-1139
▁port	-1140
alf	-1141
▁ph	-1142
ages	-1143
▁elect	-1144
▁won	-1145
ple	-1146
ience	-1147
▁child	-1148
▁Eu	-1149
▁Japan	-1150
▁lit	-1151
▁prot	-1152
▁Ph	-1153
▁kill	-1154
▁...	-1155
▁eng	-1156
▁story	-1157
▁prog	-1158
ideo	-1159
▁power	-1160
oad	-1161
▁review	-1162
ody	-1163
▁By	-1164
▁vis	-1165
▁home	-1166
ital	-1167
▁led	-1168
▁described	-1169
▁previous	-1170
▁requ	-1171
▁cour	-1172
▁family	-1173
▁gun	-1174
oman	-1175
▁way	-1176
ott	-1177
▁named	-1178
▁right	-1179
▁now	-1180
urther	-1181
▁dem	-1182
▁even	-1183
iven	-1184
▁make	-1185
iod	-1186
▁men	-1187
embers	-1188
ilar	-1189
▁Te	-1190
▁leg	-1191
ged	-1192
iversity	-1193
▁attempt	-1194
ister	-1195
reen	-1196
▁best	-1197
ention	-1198
ont	-1199
itions	-1200
omin	-1201
▁repl	-1202
ivision	-1203
▁opp	-1204
▁games	-1205
cy	-1206
▁100	-1207
rench	-1208
aff	-1209
ached	-1210
▁Mus	-1211
▁term	-1212
▁command	-1213
▁top	-1214
ior	-1215
▁hand	-1216
▁poss	-1217
ival	-1218
▁belie	-1219
▁very	-1220
▁dam	-1221
▁those	-1222
ness	-1223
ebru	-1224
mp	-1225
sh	-1226
ebruary	-1227
▁iss	-1228
▁still	-1229
▁February	-1230
▁Gu	-1231
▁organ	-1232
▁Europ	-1233
▁next	-1234
▁species	-1235
▁effect	-1236
▁view	-1237
riend	-1238
ances	-1239
self	-1240
▁par	-1241
▁capt	-1242
lu	-1243
aken	-1244
▁original	-1245
oci	-1246
ps	-1247
ature	-1248
▁spe	-1249
ences	-1250
▁National	-1251
▁water	-1252
▁addition	-1253
▁join	-1254
ox	-1255
ched	-1256
▁Christ	-1257
▁list	-1258
ery	-1259
▁period	-1260
▁within	-1261
▁Europe	-1262
▁members	-1263
▁mark	-1264
hor	-1265
▁built	-1266
▁held	-1267
▁And	-1268
▁deb	-1269
▁exper	-1270
▁His	-1271
▁release	-1272
▁although	-1273
▁late	-1274
▁former	-1275
▁French	-1276
▁great	-1277
▁match	-1278
▁2010	-1279
▁Fl	-1280
rew	-1281
alk	-1282
lev	-1283
▁sold	-1284
▁dest	-1285
augh	-1286
uted	-1287
▁cur	-1288
▁video	-1289
tended	-1290
line	-1291
▁caus	-1292
▁storm	-1293
▁We	-1294
ented	-1295
ring	-1296
ards	-1297
▁cover	-1298
▁init	-1299
▁role	-1300
ropical	-1301
▁21	-1302
▁came	-1303
▁estab	-1304
▁av	-1305
▁days	-1306
▁tri	-1307
▁result	-1308
af	-1309
▁Bar	-1310
▁mid	-1311
▁West	-1312
ption	-1313
▁stand	-1314
▁real	-1315
▁polit	-1316
ulation	-1317
▁Par	-1318
ech	-1319
ides	-1320
▁however	-1321
ler	-1322
▁When	-1323
hel	-1324
itary	-1325
au	-1326
oon	-1327
▁cr	-1328
▁my	-1329
▁2008	-1330
▁prop	-1331
▁few	-1332
▁town	-1333
aster	-1334
▁William	-1335
▁wind	-1336
▁2009	-1337
ense	-1338
▁you	-1339
▁side	-1340
ead	-1341
▁tw	-1342
▁continued	-1343
akes	-1344
▁often	-1345
atic	-1346
na	-1347
ham	-1348
▁24	-1349
▁equ	-1350
▁local	-1351
▁X	-1352
▁sk	-1353
tal	-1354
omb	-1355
▁post	-1356
▁among	-1357
▁Min	-1358
▁similar	-1359
▁say	-1360
▁2011	-1361
ruction	-1362
side	-1363
▁claim	-1364
▁hum	-1365
elt	-1366
estern	-1367
gy	-1368
▁Am	-1369
▁&	-1370
omen	-1371
ator	-1372
▁Man	-1373
reet	-1374
▁Air	-1375
br	-1376
▁different	-1377
▁Geor	-1378
ract	-1379
▁sug	-1380
▁England	-1381
read	-1382
let	-1383
▁beh	-1384
▁del	-1385
▁further	-1386
▁typ	-1387
ying	-1388
ese	-1389
▁sent	-1390
▁level	-1391
ves	-1392
▁considered	-1393
▁take	-1394
▁During	-1395
▁law	-1396
ology	-1397
▁fre	-1398
▁Char	-1399
ops	-1400
▁career	-1401
▁Her	-1402
▁22	-1403
eter	-1404
par	-1405
▁2007	-1406
ots	-1407
▁Mich	-1408
▁production	-1409
rodu	-1410
esc	-1411
urs	-1412
▁half	-1413
▁Ear	-1414
uck	-1415
ices	-1416
▁having	-1417
On	-1418
ampions	-1419
▁City	-1420
ms	-1421
app	-1422
▁Park	-1423
ung	-1424
▁moved	-1425
▁east	-1426
▁road	-1427
▁No	-1428
▁mag	-1429
▁ant	-1430
▁English	-1431
yl	-1432
▁without	-1433
▁every	-1434
▁west	-1435
me	-1436
▁There	-1437
ering	-1438
▁cor	-1439
▁appe	-1440
▁player	-1441
▁become	-1442
▁position	-1443
▁plan	-1444
sp	-1445
▁history	-1446
▁Dav	-1447
▁version	-1448
▁conv	-1449
▁Rec	-1450
▁2012	-1451
ondon	-1452
bo	-1453
ront	-1454
▁Cent	-1455
▁cast	-1456
▁influ	-1457
▁Count	-1458
▁el	-1459
▁house	-1460
vers	-1461
▁sound	-1462
▁El	-1463
ford	-1464
▁commun	-1465
▁Co	-1466
ones	-1467
▁London	-1468
▁fore	-1469
yle	-1470
▁suggest	-1471
▁club	-1472
ize	-1473
▁Ang	-1474
▁23	-1475
▁strong	-1476
▁invol	-1477
irc	-1478
▁written	-1479
ches	-1480
atter	-1481
▁Batt	-1482
▁190	-1483
▁less	-1484
▁bas	-1485
▁stat	-1486
▁announ	-1487
aul	-1488
utes	-1489
▁Cal	-1490
▁foot	-1491
▁order	-1492
ape	-1493
▁refer	-1494
▁River	-1495
iety	-1496
rest	-1497
▁prof	-1498
▁point	-1499
craft	-1500
▁given	-1501
sequ	-1502
▁aff	-1503
▁tem	-1504
▁low	-1505
▁trad	-1506
▁hig	-1507
▁Canad	-1508
▁want	-1509
▁gave	-1510
▁rad	-1511
iqu	-1512
▁ke	-1513
▁University	-1514
rent	-1515
▁far	-1516
▁import	-1517
▁never	-1518
▁tro	-1519
ald	-1520
▁chang	-1521
▁defe	-1522
ailed	-1523
▁pat	-1524
▁returned	-1525
ories	-1526
▁soc	-1527
▁repres	-1528
▁total	-1529
▁One	-1530
▁vict	-1531
▁fact	-1532
▁good	-1533
▁control	-1534
▁company	-1535
▁country	-1536
▁went	-1537
▁comb	-1538
▁fire	-1539
▁friend	-1540
cess	-1541
aly	-1542
▁Gener	-1543
▁published	-1544
roy	-1545
▁hour	-1546
ison	-1547
▁produced	-1548
ges	-1549
levision	-1550
▁find	-1551
▁reported	-1552
aun	-1553
▁High	-1554
▁origin	-1555
isc	-1556
▁youn	-1557
ably	-1558
▁lost	-1559
▁stated	-1560
aign	-1561
▁common	-1562
▁Pol	-1563
▁program	-1564
▁2006	-1565
ille	-1566
▁particular	-1567
▁light	-1568
ai	-1569
▁ord	-1570
con	-1571
▁adm	-1572
err	-1573
▁include	-1574
ington	-1575
ccording	-1576
echn	-1577
urric	-1578
▁compet	-1579
▁recorded	-1580
used	-1581
▁building	-1582
▁press	-1583
hing	-1584
gr	-1585
ief	-1586
▁need	-1587
▁project	-1588
▁forces	-1589
▁bus	-1590
yn	-1591
▁nort	-1592
▁ships	-1593
▁should	-1594
▁using	-1595
▁eight	-1596
▁interest	-1597
▁performance	-1598
aren	-1599
▁service	-1600
▁popular	-1601
▁ide	-1602
ploy	-1603
▁times	-1604
▁27	-1605
iment	-1606
raw	-1607
▁50	-1608
▁making	-1609
▁Sm	-1610
▁28	-1611
▁Ex	-1612
▁aircraft	-1613
▁ten	-1614
▁himself	-1615
oyal	-1616
▁author	-1617
▁father	-1618
▁military	-1619
tain	-1620
▁fun	-1621
iness	-1622
▁2013	-1623
osp	-1624
▁battle	-1625
▁anim	-1626
ampionship	-1627
lear	-1628
▁sit	-1629
ned	-1630
▁songs	-1631
▁lim	-1632
▁somet	-1633
atch	-1634
▁fr	-1635
▁read	-1636
outher	-1637
ae	-1638
▁Australia	-1639
▁critic	-1640
ensive	-1641
▁development	-1642
play	-1643
ither	-1644
ords	-1645
▁how	-1646
▁Sw	-1647
▁Sec	-1648
▁Af	-1649
▁Ass	-1650
alth	-1651
▁sw	-1652
itive	-1653
quad	-1654
olution	-1655
▁40	-1656
▁These	-1657
outhern	-1658
▁Ab	-1659
eder	-1660
ef	-1661
ases	-1662
▁gl	-1663
▁Jack	-1664
▁cross	-1665
▁Pres	-1666
▁26	-1667
▁189	-1668
▁ground	-1669
▁ft	-1670
cer	-1671
▁remained	-1672
▁star	-1673
astern	-1674
▁General	-1675
acy	-1676
▁characters	-1677
oll	-1678
▁State	-1679
▁Army	-1680
▁national	-1681
▁Cor	-1682
▁get	-1683
▁ste	-1684
▁months	-1685
▁suff	-1686
▁present	-1687
▁died	-1688
rick	-1689
▁gen	-1690
▁developed	-1691
ries	-1692
▁title	-1693
ublic	-1694
work	-1695
▁sum	-1696
▁chart	-1697
dom	-1698
▁campaign	-1699
urricane	-1700
▁Ne	-1701
▁Sy	-1702
▁force	-1703
▁children	-1704
ument	-1705
fic	-1706
▁introdu	-1707
ream	-1708
ration	-1709
▁Dr	-1710
▁League	-1711
bs	-1712
▁tour	-1713
▁promot	-1714
ency	-1715
▁James	-1716
itted	-1717
eth	-1718
▁signific	-1719
▁across	-1720
lands	-1721
isted	-1722
▁son	-1723
▁away	-1724
ression	-1725
▁relations	-1726
▁Comp	-1727
ael	-1728
▁red	-1729
hern	-1730
▁obs	-1731
▁Although	-1732
▁official	-1733
▁histor	-1734
▁field	-1735
▁fav	-1736
▁pra	-1737
▁Division	-1738
▁felt	-1739
aur	-1740
lege	-1741
▁America	-1742
▁Bo	-1743
▁noted	-1744
▁With	-1745
▁fac	-1746
most	-1747
▁night	-1748
▁announced	-1749
▁reached	-1750
ks	-1751
▁intern	-1752
▁created	-1753
▁Gl	-1754
▁areas	-1755
▁destroy	-1756
▁County	-1757
▁television	-1758
▁station	-1759
ole	-1760
▁Russ	-1761
alt	-1762
▁che	-1763
▁coun	-1764
▁successful	-1765
ressed	-1766
▁Road	-1767
▁rock	-1768
▁2005	-1769
▁Japanese	-1770
imately	-1771
▁arm	-1772
vent	-1773
▁various	-1774
▁’	-1775
▁val	-1776
▁Street	-1777
▁political	-1778
▁seen	-1779
reg	-1780
▁followed	-1781
omp	-1782
▁Rep	-1783
▁aver	-1784
▁too	-1785
▁bar	-1786
▁rank	-1787
▁trav	-1788
lin	-1789
▁performed	-1790
iting	-1791
ising	-1792
▁cult	-1793
▁served	-1794
▁players	-1795
cast	-1796
iber	-1797
▁cond	-1798
▁full	-1799
▁2014	-1800
▁rev	-1801
▁begin	-1802
▁prim	-1803
▁29	-1804
ope	-1805
▁Sim	-1806
▁black	-1807
ality	-1808
duct	-1809
elling	-1810
▁fle	-1811
▁earl	-1812
▁put	-1813
▁circ	-1814
abor	-1815
▁Mor	-1816
▁While	-1817
field	-1818
▁cost	-1819
idence	-1820
▁East	-1821
▁Sup	-1822
▁sol	-1823
▁process	-1824
▁see	-1825
▁style	-1826
▁Mad	-1827
▁look	-1828
▁test	-1829
ization	-1830
▁div	-1831
▁seven	-1832
▁enc	-1833
▁killed	-1834
▁aud	-1835
ays	-1836
▁Mon	-1837
▁help	-1838
▁Ste	-1839
rict	-1840
lished	-1841
▁let	-1842
▁throughout	-1843
▁Reg	-1844
▁vol	-1845
▁taken	-1846
▁tropical	-1847
▁able	-1848
▁fight	-1849
▁discover	-1850
▁non	-1851
▁agre	-1852
▁little	-1853
ertain	-1854
ecut	-1855
▁wid	-1856
▁cy	-1857
▁becom	-1858
▁significant	-1859
▁age	-1860
▁fem	-1861
ett	-1862
▁meet	-1863
bor	-1864
▁ident	-1865
▁hit	-1866
▁According	-1867
ination	-1868
▁George	-1869
▁special	-1870
▁techn	-1871
ways	-1872
▁Rober	-1873
▁writing	-1874
▁er	-1875
oice	-1876
▁struct	-1877
▁Phil	-1878
▁established	-1879
▁Bill	-1880
▁thought	-1881
irl	-1882
▁broad	-1883
▁cop	-1884
▁body	-1885
enced	-1886
▁front	-1887
▁mm	-1888
▁appeared	-1889
▁Hen	-1890
▁Ser	-1891
▁does	-1892
▁entire	-1893
epend	-1894
▁coast	-1895
▁!	-1896
▁miles	-1897
▁points	-1898
cil	-1899
▁coll	-1900
▁award	-1901
aval	-1902
▁Australian	-1903
▁impro	-1904
▁route	-1905
▁member	-1906
▁decl	-1907
ought	-1908
ground	-1909
▁women	-1910
▁activ	-1911
▁range	-1912
odes	-1913
▁caused	-1914
▁started	-1915
▁decided	-1916
ript	-1917
urg	-1918
ivil	-1919
▁Em	-1920
▁features	-1921
lected	-1922
▁general	-1923
▁pain	-1924
▁eventually	-1925
▁Act	-1926
day	-1927
here	-1928
▁Part	-1929
▁Afric	-1930
less	-1931
omm	-1932
aves	-1933
hys	-1934
iers	-1935
ming	-1936
iron	-1937
conom	-1938
▁You	-1939
▁race	-1940
ators	-1941
iec	-1942
▁vot	-1943
ask	-1944
ana	-1945
▁grow	-1946
▁manag	-1947
▁arch	-1948
▁feet	-1949
ster	-1950
idd	-1951
ogn	-1952
▁Med	-1953
gether	-1954
▁together	-1955
▁added	-1956
rison	-1957
▁hold	-1958
▁Royal	-1959
▁cut	-1960
ius	-1961
▁once	-1962
ivid	-1963
▁white	-1964
▁David	-1965
▁House	-1966
▁formed	-1967
▁Rich	-1968
ample	-1969
▁tre	-1970
▁located	-1971
itar	-1972
▁188	-1973
▁nov	-1974
▁stri	-1975
▁arg	-1976
reek	-1977
▁conn	-1978
▁modern	-1979
▁instead	-1980
rought	-1981
bert	-1982
hic	-1983
▁round	-1984
emy	-1985
men	-1986
▁esc	-1987
orts	-1988
umb	-1989
aces	-1990
▁important	-1991
▁mix	-1992
▁ball	-1993
ades	-1994
▁crew	-1995
▁pri	-1996
▁saw	-1997
▁Pe	-1998
urb	-1999
▁action	-2000
▁completed	-2001
cing	-2002
▁31	-2003
▁redu	-2004
head	-2005
sc	-2006
▁Per	-2007
▁playing	-2008
ray	-2009
ects	-2010
oney	-2011
off	-2012
▁Qu	-2013
▁My	-2014
ament	-2015
▁insp	-2016
▁Indian	-2017
▁population	-2018
▁2004	-2019
▁mater	-2020
▁invest	-2021
▁base	-2022
▁Intern	-2023
▁surv	-2024
▁Sch	-2025
ells	-2026
▁mot	-2027
▁voc	-2028
▁rather	-2029
▁occur	-2030
▁ask	-2031
▁Hist	-2032
▁opened	-2033
▁Black	-2034
▁stage	-2035
▁behind	-2036
▁others	-2037
ush	-2038
▁fall	-2039
▁guns	-2040
▁186	-2041
cent	-2042
▁brother	-2043
ceed	-2044
asing	-2045
▁ren	-2046
▁comment	-2047
▁lik	-2048
igned	-2049
ements	-2050
▁fif	-2051
▁site	-2052
▁works	-2053
▁live	-2054
▁loss	-2055
stit	-2056
▁worked	-2057
▁bomb	-2058
ficult	-2059
▁2015	-2060
aps	-2061
▁heavy	-2062
▁France	-2063
▁miss	-2064
int	-2065
▁ra	-2066
▁pred	-2067
▁lack	-2068
▁subsequ	-2069
▁party	-2070
medi	-2071
▁proble	-2072
▁difficult	-2073
▁close	-2074
lection	-2075
wood	-2076
▁To	-2077
▁construction	-2078
nder	-2079
▁know	-2080
▁relationship	-2081
▁School	-2082
▁weeks	-2083
▁host	-2084
gg	-2085
▁originally	-2086
▁separ	-2087
▁upon	-2088
▁associ	-2089
▁pract	-2090
▁leading	-2091
▁appoin	-2092
▁vill	-2093
▁almost	-2094
▁young	-2095
▁peak	-2096
▁damage	-2097
ara	-2098
▁inj	-2099
arch	-2100
▁Michael	-2101
istic	-2102
▁Wash	-2103
▁born	-2104
▁scored	-2105
▁fourth	-2106
▁inform	-2107
anch	-2108
osition	-2109
▁reve	-2110
▁provided	-2111
▁mer	-2112
▁case	-2113
▁clos	-2114
▁engine	-2115
▁goal	-2116
ata	-2117
▁creat	-2118
▁reb	-2119
▁accept	-2120
lic	-2121
▁mor	-2122
▁Nor	-2123
▁2000	-2124
▁scene	-2125
▁Battle	-2126
▁mi	-2127
▁San	-2128
board	-2129
▁human	-2130
▁dev	-2131
▁brought	-2132
▁Ham	-2133
ellow	-2134
▁free	-2135
▁individ	-2136
unk	-2137
uk	-2138
▁500	-2139
angu	-2140
▁Port	-2141
▁featured	-2142
▁Best	-2143
▁mother	-2144
▁187	-2145
▁least	-2146
▁allowed	-2147
▁working	-2148
▁king	-2149
▁laun	-2150
▁resul	-2151
▁average	-2152
ological	-2153
▁towards	-2154
▁wanted	-2155
▁Music	-2156
▁tradition	-2157
▁indust	-2158
▁region	-2159
▁business	-2160
After	-2161
▁Henry	-2162
ened	-2163
▁Cour	-2164
to	-2165
▁troops	-2166
▁placed	-2167
azine	-2168
ule	-2169
▁Star	-2170
▁quick	-2171
▁either	-2172
▁office	-2173
▁critics	-2174
▁respect	-2175
▁President	-2176
▁avail	-2177
▁ve	-2178
antic	-2179
▁Ale	-2180
▁reach	-2181
▁Vir	-2182
▁mult	-2183
▁example	-2184
▁profess	-2185
▁runs	-2186
▁Red	-2187
▁material	-2188
▁hon	-2189
▁recogn	-2190
▁econom	-2191
▁Washington	-2192
▁wife	-2193
ula	-2194
▁Que	-2195
be	-2196
iff	-2197
aut	-2198
arm	-2199
▁estim	-2200
earch	-2201
▁army	-2202
▁foc	-2203
▁neg	-2204
▁Rou	-2205
espite	-2206
oid	-2207
chie	-2208
ential	-2209
iol	-2210
▁sex	-2211
rey	-2212
▁sour	-2213
▁Other	-2214
▁generally	-2215
ength	-2216
▁joined	-2217
▁ce	-2218
▁2003	-2219
▁mass	-2220
▁rail	-2221
▁Hol	-2222
quadron	-2223
▁proper	-2224
▁dou	-2225
ama	-2226
▁current	-2227
▁Paul	-2228
ills	-2229
▁Play	-2230
ica	-2231
ino	-2232
▁Gro	-2233
▁events	-2234
▁Cap	-2235
▁represent	-2236
▁Mil	-2237
▁believed	-2238
ving	-2239
ourn	-2240
▁Cup	-2241
▁Robert	-2242
▁particip	-2243
ollowing	-2244
▁ter	-2245
▁fig	-2246
enes	-2247
▁Angel	-2248
▁Cro	-2249
▁Bel	-2250
▁Hall	-2251
▁victory	-2252
▁replaced	-2253
uff	-2254
▁designed	-2255
▁mph	-2256
artment	-2257
▁rul	-2258
▁35	-2259
▁soon	-2260
▁nomin	-2261
itch	-2262
iction	-2263
▁island	-2264
ee	-2265
▁Ag	-2266
itte	-2267
▁fund	-2268
▁Game	-2269
▁hours	-2270
oor	-2271
▁employ	-2272
ky	-2273
xic	-2274
▁Great	-2275
▁president	-2276
▁z	-2277
erous	-2278
▁involved	-2279
▁Thom	-2280
oms	-2281
▁surf	-2282
go	-2283
▁finished	-2284
▁stru	-2285
aled	-2286
itor	-2287
▁European	-2288
ification	-2289
merc	-2290
uel	-2291
▁Championship	-2292
inist	-2293
asion	-2294
▁break	-2295
west	-2296
▁Mary	-2297
▁saying	-2298
fall	-2299
▁First	-2300
aper	-2301
▁court	-2302
▁hor	-2303
▁Lou	-2304
▁shot	-2305
▁opening	-2306
▁threat	-2307
▁score	-2308
▁regular	-2309
ago	-2310
emor	-2311
key	-2312
▁director	-2313
▁length	-2314
▁desp	-2315
▁indic	-2316
▁conduct	-2317
▁largest	-2318
▁contrib	-2319
▁Roman	-2320
▁possible	-2321
ecutive	-2322
▁highway	-2323
▁unc	-2324
▁minutes	-2325
▁southern	-2326
▁dro	-2327
ville	-2328
BC	-2329
arn	-2330
▁exc	-2331
▁highest	-2332
▁ly	-2333
▁ill	-2334
▁remov	-2335
ishing	-2336
▁earlier	-2337
of	-2338
▁initially	-2339
ander	-2340
▁hom	-2341
▁available	-2342
▁particularly	-2343
▁percent	-2344
antry	-2345
anned	-2346
▁training	-2347
ude	-2348
▁sequ	-2349
leg	-2350
now	-2351
▁hard	-2352
▁2001	-2353
cher	-2354
▁forced	-2355
co	-2356
▁exist	-2357
▁must	-2358
▁Atl	-2359
▁Mart	-2360
ply	-2361
▁Je	-2362
▁Republic	-2363
▁grad	-2364
inn	-2365
▁contr	-2366
ights	-2367
ze	-2368
hib	-2369
▁park	-2370
▁Navy	-2371
▁Some	-2372
▁Scott	-2373
iding	-2374
▁La	-2375
▁Ke	-2376
▁ended	-2377
▁Kingdom	-2378
▁respons	-2379
anish	-2380
▁Route	-2381
asy	-2382
▁quar	-2383
ography	-2384
▁turned	-2385
rian	-2386
ateg	-2387
▁social	-2388
ipp	-2389
oul	-2390
▁wall	-2391
uture	-2392
▁studio	-2393
▁Val	-2394
iforn	-2395
▁change	-2396
▁langu	-2397
▁Mal	-2398
▁Sing	-2399
▁Don	-2400
▁passed	-2401
▁praised	-2402
ems	-2403
▁hy	-2404
▁increased	-2405
▁piec	-2406
▁object	-2407
▁priv	-2408
▁bill	-2409
▁hurricane	-2410
▁educ	-2411
▁regard	-2412
▁northern	-2413
atural	-2414
heast	-2415
▁Met	-2416
▁International	-2417
▁keep	-2418
▁central	-2419
▁Dep	-2420
iation	-2421
▁phys	-2422
▁Wil	-2423
▁novel	-2424
▁2002	-2425
▁relig	-2426
▁Church	-2427
▁appearance	-2428
▁units	-2429
▁speed	-2430
ership	-2431
▁Charles	-2432
▁super	-2433
▁past	-2434
▁Canada	-2435
▁Mac	-2436
▁church	-2437
▁Mag	-2438
▁stop	-2439
▁immedi	-2440
▁Californ	-2441
▁Virgin	-2442
ended	-2443
anks	-2444
▁Off	-2445
oring	-2446
ocr	-2447
▁ordered	-2448
▁meas	-2449
▁sym	-2450
▁Thomas	-2451
▁White	-2452
▁disp	-2453
▁treat	-2454
aughter	-2455
uter	-2456
ios	-2457
▁taking	-2458
▁But	-2459
ference	-2460
ittee	-2461
▁love	-2462
▁independ	-2463
▁signed	-2464
▁Brown	-2465
sel	-2466
▁move	-2467
▁quest	-2468
anding	-2469
▁Bay	-2470
▁Sen	-2471
▁achie	-2472
ston	-2473
ilities	-2474
▁better	-2475
etwork	-2476
▁Rock	-2477
▁California	-2478
rem	-2479
val	-2480
den	-2481
aker	-2482
▁Res	-2483
pped	-2484
▁pers	-2485
▁McC	-2486
▁Union	-2487
amb	-2488
arily	-2489
ecess	-2490
apt	-2491
▁winds	-2492
▁commerc	-2493
▁Ber	-2494
▁positive	-2495
▁enough	-2496
agon	-2497
▁inn	-2498
▁Island	-2499
▁wat	-2500
ique	-2501
▁according	-2502
▁spent	-2503
ears	-2504
▁hous	-2505
▁Smith	-2506
▁going	-2507
rup	-2508
rated	-2509
▁Court	-2510
▁above	-2511
▁Pal	-2512
▁outside	-2513
elled	-2514
▁slow	-2515
▁ap	-2516
nel	-2517
ump	-2518
▁films	-2519
▁pot	-2520
▁Govern	-2521
tr	-2522
▁feel	-2523
ume	-2524
▁told	-2525
▁football	-2526
▁previously	-2527
ids	-2528
▁recording	-2529
▁states	-2530
▁clear	-2531
quare	-2532
▁Two	-2533
▁mean	-2534
▁Award	-2535
▁nine	-2536
uation	-2537
▁God	-2538
▁1990	-2539
▁failed	-2540
▁subject	-2541
▁assist	-2542
▁Alex	-2543
▁come	-2544
▁Richard	-2545
▁Ir	-2546
usion	-2547
▁Associ	-2548
▁required	-2549
▁Company	-2550
▁pur	-2551
▁elements	-2552
▁Sl	-2553
▁Cong	-2554
▁prob	-2555
osing	-2556
reng	-2557
com	-2558
alion	-2559
▁60	-2560
▁ey	-2561
onst	-2562
edy	-2563
▁reviews	-2564
▁interview	-2565
▁cru	-2566
▁Vict	-2567
▁lower	-2568
▁parts	-2569
for	-2570
▁itself	-2571
atin	-2572
▁45	-2573
▁think	-2574
▁pay	-2575
▁directed	-2576
ida	-2577
oph	-2578
▁India	-2579
▁Mo	-2580
▁nar	-2581
▁abs	-2582
▁Germany	-2583
▁despite	-2584
itz	-2585
▁sil	-2586
▁flow	-2587
▁cred	-2588
▁esp	-2589
▁Sam	-2590
▁contract	-2591
hem	-2592
▁debut	-2593
▁phot	-2594
ands	-2595
▁rain	-2596
ibility	-2597
▁185	-2598
▁Times	-2599
erved	-2600
▁Christian	-2601
ready	-2602
▁access	-2603
isl	-2604
▁beginning	-2605
▁groups	-2606
oke	-2607
het	-2608
▁viol	-2609
onna	-2610
▁College	-2611
▁section	-2612
As	-2613
amer	-2614
▁beg	-2615
▁whose	-2616
asons	-2617
▁claimed	-2618
▁Stud	-2619
ows	-2620
hester	-2621
▁asked	-2622
▁Cr	-2623
oviet	-2624
▁international	-2625
▁lines	-2626
▁transfer	-2627
hile	-2628
▁rap	-2629
nes	-2630
▁UK	-2631
▁cou	-2632
▁streng	-2633
▁give	-2634
▁Ac	-2635
▁Jos	-2636
▁screen	-2637
onse	-2638
▁Gold	-2639
airs	-2640
rief	-2641
▁additional	-2642
aint	-2643
▁future	-2644
ability	-2645
▁league	-2646
▁Western	-2647
▁whom	-2648
▁Mer	-2649
▁Soviet	-2650
▁key	-2651
▁Hill	-2652
▁Peter	-2653
eal	-2654
▁poor	-2655
▁gold	-2656
ma	-2657
berg	-2658
▁Art	-2659
▁Mark	-2660
▁Awards	-2661
acted	-2662
▁Mexic	-2663
▁introduced	-2664
▁bi	-2665
▁travel	-2666
▁fort	-2667
▁op	-2668
lying	-2669
▁prem	-2670
▁evidence	-2671
▁sea	-2672
▁Despite	-2673
▁idea	-2674
▁quickly	-2675
ki	-2676
igan	-2677
▁don	-2678
▁Cast	-2679
ania	-2680
▁already	-2681
▁center	-2682
▁bridge	-2683
▁Tom	-2684
▁frequ	-2685
▁NY	-2686
▁Force	-2687
▁election	-2688
▁product	-2689
▁occup	-2690
▁Dan	-2691
▁except	-2692
▁Pat	-2693
▁deal	-2694
atory	-2695
▁1970	-2696
usp	-2697
ecially	-2698
▁That	-2699
▁pil	-2700
▁Dem	-2701
▁usually	-2702
▁arrived	-2703
mar	-2704
▁musical	-2705
▁western	-2706
anded	-2707
irth	-2708
▁pen	-2709
▁radio	-2710
▁block	-2711
▁1980	-2712
eum	-2713
liam	-2714
▁civil	-2715
▁Do	-2716
▁Coun	-2717
aring	-2718
▁32	-2719
▁Soc	-2720
ergy	-2721
ully	-2722
▁cal	-2723
▁female	-2724
▁sometimes	-2725
▁Britain	-2726
▁study	-2727
▁Grand	-2728
▁cycl	-2729
▁response	-2730
back	-2731
▁food	-2732
▁money	-2733
▁decision	-2734
▁magazine	-2735
▁especially	-2736
▁Frank	-2737
ship	-2738
▁issue	-2739
▁env	-2740
liament	-2741
▁Film	-2742
▁surface	-2743
ites	-2744
▁flood	-2745
▁might	-2746
▁lab	-2747
▁liter	-2748
▁carried	-2749
▁shows	-2750
▁guitar	-2751
▁community	-2752
▁Hot	-2753
▁Day	-2754
▁estimated	-2755
▁Pac	-2756
▁construct	-2757
▁remain	-2758
unt	-2759
▁remaining	-2760
▁eastern	-2761
▁minor	-2762
▁defeated	-2763
eck	-2764
▁determ	-2765
▁Chic	-2766
▁approx	-2767
▁larger	-2768
inent	-2769
▁becoming	-2770
▁Ben	-2771
ession	-2772
▁1999	-2773
aries	-2774
▁Victor	-2775
▁complete	-2776
▁police	-2777
▁wood	-2778
▁suggested	-2779
porary	-2780
▁media	-2781
▁pressure	-2782
▁entered	-2783
▁shoot	-2784
▁teams	-2785
▁commercial	-2786
▁latter	-2787
▁lyric	-2788
▁market	-2789
▁consider	-2790
▁students	-2791
▁doc	-2792
erve	-2793
▁surround	-2794
ift	-2795
▁investig	-2796
▁brief	-2797
asc	-2798
▁concern	-2799
▁personal	-2800
bour	-2801
▁Rob	-2802
▁36	-2803
▁lo	-2804
ulf	-2805
▁certain	-2806
▁prison	-2807
▁discuss	-2808
▁Los	-2809
▁80	-2810
inct	-2811
▁Mount	-2812
▁effects	-2813
▁acqu	-2814
ena	-2815
▁complet	-2816
▁appointed	-2817
▁Virginia	-2818
▁bur	-2819
▁episodes	-2820
▁hop	-2821
▁summer	-2822
ederal	-2823
▁prior	-2824
gen	-2825
alled	-2826
acing	-2827
incip	-2828
▁Franc	-2829
change	-2830
▁der	-2831
▁staff	-2832
enth	-2833
▁size	-2834
▁emer	-2835
▁changes	-2836
ises	-2837
▁commission	-2838
▁sat	-2839
anced	-2840
▁winning	-2841
lymp	-2842
▁limited	-2843
▁tar	-2844
▁Mill	-2845
▁scenes	-2846
▁From	-2847
imate	-2848
▁fleet	-2849
▁leaving	-2850
▁destroyed	-2851
▁river	-2852
ulated	-2853
▁Tex	-2854
▁Second	-2855
sy	-2856
▁Olymp	-2857
▁draw	-2858
pris	-2859
▁Inf	-2860
▁Club	-2861
▁self	-2862
▁rights	-2863
▁Bur	-2864
▁den	-2865
▁writer	-2866
▁provide	-2867
ournal	-2868
igade	-2869
idents	-2870
▁polic	-2871
▁fail	-2872
▁Flor	-2873
ires	-2874
▁date	-2875
▁Fle	-2876
vey	-2877
▁territ	-2878
▁proposed	-2879
ension	-2880
▁influence	-2881
▁Spanish	-2882
▁girl	-2883
▁trib	-2884
▁Jackson	-2885
▁overall	-2886
▁Party	-2887
▁arrang	-2888
▁Louis	-2889
ests	-2890
▁transport	-2891
▁structure	-2892
NA	-2893
▁Ev	-2894
ties	-2895
yr	-2896
▁75	-2897
iser	-2898
▁tax	-2899
▁equip	-2900
su	-2901
tt	-2902
▁1960	-2903
▁184	-2904
▁division	-2905
▁kil	-2906
▁script	-2907
inese	-2908
iral	-2909
▁agreed	-2910
▁300	-2911
AF	-2912
▁room	-2913
▁Association	-2914
▁intended	-2915
▁running	-2916
▁anti	-2917
▁type	-2918
II	-2919
▁jud	-2920
▁bow	-2921
▁daughter	-2922
▁broadcast	-2923
▁nearly	-2924
▁purch	-2925
▁supported	-2926
ending	-2927
▁big	-2928
▁research	-2929
▁deep	-2930
▁wide	-2931
▁establish	-2932
▁helped	-2933
imum	-2934
atives	-2935
▁married	-2936
▁Chicago	-2937
▁movement	-2938
▁awarded	-2939
▁Im	-2940
aded	-2941
▁Council	-2942
lo	-2943
▁lay	-2944
▁Later	-2945
▁multip	-2946
St	-2947
rd	-2948
ores	-2949
▁1998	-2950
▁create	-2951
▁favor	-2952
▁display	-2953
▁intens	-2954
▁Just	-2955
atively	-2956
▁Green	-2957
▁Chinese	-2958
ex	-2959
iles	-2960
▁di	-2961
▁bird	-2962
▁dark	-2963
▁susp	-2964
ha	-2965
▁diss	-2966
▁stars	-2967
teen	-2968
▁Adm	-2969
ga	-2970
que	-2971
▁longer	-2972
▁language	-2973
▁higher	-2974
sen	-2975
▁planned	-2976
▁compared	-2977
▁captured	-2978
▁increasing	-2979
dle	-2980
▁fans	-2981
▁Du	-2982
▁stay	-2983
▁course	-2984
▁conclud	-2985
▁changed	-2986
selves	-2987
▁experience	-2988
▁approximately	-2989
▁related	-2990
▁If	-2991
▁done	-2992
▁feature	-2993
▁fifth	-2994
▁cat	-2995
▁Song	-2996
▁living	-2997
omer	-2998
▁themselves	-2999
tained	-3000
ounds	-3001
ronic	-3002
▁producer	-3003
enty	-3004
bers	-3005
▁temper	-3006
▁tracks	-3007
▁mostly	-3008
▁Edward	-3009
▁space	-3010
▁Kore	-3011
▁History	-3012
▁Early	-3013
▁withd	-3014
isions	-3015
▁Emp	-3016
abit	-3017
burg	-3018
▁Pacific	-3019
▁thus	-3020
▁Enter	-3021
▁Oper	-3022
▁70	-3023
▁Ital	-3024
▁Up	-3025
▁woman	-3026
▁33	-3027
▁operations	-3028
▁Over	-3029
▁remains	-3030
▁Billboard	-3031
▁Ro	-3032
▁dead	-3033
Th	-3034
▁paren	-3035
▁-	-3036
olic	-3037
▁bring	-3038
▁quarter	-3039
▁our	-3040
▁natural	-3041
▁Serv	-3042
thing	-3043
umn	-3044
▁whether	-3045
▁weap	-3046
▁imm	-3047
▁probably	-3048
▁soldiers	-3049
▁dram	-3050
▁concept	-3051
andon	-3052
che	-3053
▁copies	-3054
imin	-3055
▁ult	-3056
▁buildings	-3057
▁leader	-3058
▁extended	-3059
▁syn	-3060
▁voice	-3061
▁face	-3062
▁lyrics	-3063
▁forward	-3064
can	-3065
▁depart	-3066
▁boy	-3067
oint	-3068
▁complex	-3069
▁board	-3070
▁react	-3071
▁Atlantic	-3072
▁issued	-3073
▁battles	-3074
▁chall	-3075
riage	-3076
iant	-3077
▁really	-3078
▁countries	-3079
▁heav	-3080
iring	-3081
▁1997	-3082
▁suffered	-3083
vin	-3084
ospital	-3085
▁cm	-3086
▁goals	-3087
Al	-3088
▁includes	-3089
▁Scot	-3090
▁immediately	-3091
raz	-3092
▁Johnson	-3093
▁attend	-3094
ams	-3095
ien	-3096
▁deg	-3097
▁Lake	-3098
▁breed	-3099
▁mixed	-3100
▁manager	-3101
▁private	-3102
▁Sal	-3103
▁capital	-3104
ny	-3105
▁Kh	-3106
▁officers	-3107
▁Congress	-3108
▁likely	-3109
▁Mont	-3110
▁Cont	-3111
hood	-3112
▁emb	-3113
▁Love	-3114
▁distrib	-3115
▁Sun	-3116
▁37	-3117
lebr	-3118
▁Florida	-3119
▁cann	-3120
eph	-3121
▁removed	-3122
uth	-3123
During	-3124
▁initial	-3125
▁increase	-3126
▁plant	-3127
▁Jew	-3128
▁mach	-3129
▁Lit	-3130
▁Back	-3131
venue	-3132
▁health	-3133
▁subsequently	-3134
▁leave	-3135
▁plans	-3136
▁always	-3137
uz	-3138
ibr	-3139
▁focus	-3140
▁services	-3141
▁network	-3142
▁status	-3143
hold	-3144
▁via	-3145
▁coin	-3146
ections	-3147
urt	-3148
▁compan	-3149
▁location	-3150
▁visit	-3151
▁Most	-3152
▁mount	-3153
▁Final	-3154
bury	-3155
order	-3156
▁problems	-3157
rial	-3158
▁offered	-3159
▁Queen	-3160
▁Town	-3161
▁Sea	-3162
▁Inter	-3163
▁instr	-3164
▁flag	-3165
▁terms	-3166
▁Fort	-3167
▁model	-3168
▁Texas	-3169
▁norm	-3170
▁China	-3171
ctor	-3172
▁approach	-3173
▁Big	-3174
aily	-3175
▁App	-3176
▁colon	-3177
▁village	-3178
▁Dist	-3179
▁something	-3180
▁administ	-3181
▁tons	-3182
▁carry	-3183
ging	-3184
ounted	-3185
▁fell	-3186
▁Following	-3187
▁mur	-3188
▁majority	-3189
ironment	-3190
ria	-3191
▁professional	-3192
▁tow	-3193
▁Old	-3194
▁Earth	-3195
At	-3196
▁183	-3197
ously	-3198
▁meth	-3199
▁tor	-3200
adium	-3201
ari	-3202
▁got	-3203
ograph	-3204
▁cause	-3205
▁Africa	-3206
ili	-3207
▁consist	-3208
uries	-3209
▁Lord	-3210
▁damaged	-3211
▁inters	-3212
▁meeting	-3213
well	-3214
stant	-3215
▁appears	-3216
▁Law	-3217
▁Rail	-3218
▁job	-3219
▁confir	-3220
▁counter	-3221
▁minute	-3222
etic	-3223
aches	-3224
▁adop	-3225
▁Camp	-3226
▁Canadian	-3227
▁ranked	-3228
rol	-3229
▁ran	-3230
▁Mr	-3231
▁Jim	-3232
▁composed	-3233
▁individual	-3234
▁revealed	-3235
ys	-3236
▁Squadron	-3237
▁Center	-3238
▁attacks	-3239
▁flight	-3240
itect	-3241
▁Pri	-3242
▁sch	-3243
reater	-3244
▁plot	-3245
▁raised	-3246
▁discovered	-3247
▁Tour	-3248
▁Kn	-3249
ware	-3250
▁Tor	-3251
▁financ	-3252
▁respectively	-3253
▁makes	-3254
umed	-3255
ify	-3256
▁Boy	-3257
▁Russian	-3258
ij	-3259
▁numerous	-3260
oes	-3261
▁associated	-3262
▁Trans	-3263
▁Its	-3264
▁takes	-3265
▁Angeles	-3266
▁altern	-3267
reak	-3268
▁How	-3269
▁inspired	-3270
▁needed	-3271
▁domin	-3272
aging	-3273
▁lived	-3274
▁1995	-3275
mon	-3276
▁III	-3277
▁Highway	-3278
olk	-3279
▁launched	-3280
▁yet	-3281
▁anc	-3282
▁Wood	-3283
▁nature	-3284
▁90	-3285
lor	-3286
▁Carol	-3287
ription	-3288
▁occurred	-3289
▁contains	-3290
▁Pet	-3291
▁Tur	-3292
▁Central	-3293
▁vehic	-3294
▁Kent	-3295
▁coach	-3296
▁shown	-3297
▁cand	-3298
▁bene	-3299
estival	-3300
▁attempted	-3301
ails	-3302
▁attacked	-3303
▁pow	-3304
▁moving	-3305
uments	-3306
▁conditions	-3307
fact	-3308
▁upper	-3309
uals	-3310
ault	-3311
▁amb	-3312
▁sales	-3313
▁dig	-3314
▁accomp	-3315
ective	-3316
▁collect	-3317
joy	-3318
▁DV	-3319
▁Year	-3320
arian	-3321
▁issues	-3322
de	-3323
itt	-3324
aught	-3325
▁birth	-3326
down	-3327
gely	-3328
▁2016	-3329
▁whole	-3330
▁information	-3331
▁1950	-3332
▁exam	-3333
▁slight	-3334
▁yards	-3335
▁34	-3336
▁TV	-3337
▁Martin	-3338
▁1996	-3339
▁referred	-3340
▁box	-3341
urity	-3342
▁critical	-3343
▁mom	-3344
uing	-3345
▁38	-3346
▁Empire	-3347
▁numbers	-3348
▁finally	-3349
▁incor	-3350
▁smaller	-3351
oe	-3352
▁Bow	-3353
▁elected	-3354
▁selected	-3355
cean	-3356
▁resulted	-3357
▁defeat	-3358
reme	-3359
▁Mur	-3360
▁Group	-3361
▁scient	-3362
▁grant	-3363
▁portray	-3364
vert	-3365
▁Ant	-3366
▁active	-3367
rie	-3368
▁qual	-3369
▁singer	-3370
win	-3371
▁sen	-3372
▁bad	-3373
▁princip	-3374
▁Rh	-3375
▁standard	-3376
▁celebr	-3377
▁mission	-3378
▁industry	-3379
▁sal	-3380
▁secret	-3381
uated	-3382
iest	-3383
▁largely	-3384
▁grand	-3385
▁operation	-3386
▁Ol	-3387
ortun	-3388
▁Rev	-3389
▁pit	-3390
imb	-3391
enant	-3392
itation	-3393
▁assigned	-3394
▁link	-3395
▁cer	-3396
▁Miss	-3397
▁ens	-3398
▁earned	-3399
▁Sir	-3400
▁analy	-3401
▁saf	-3402
▁1994	-3403
▁legisl	-3404
▁commented	-3405
▁thr	-3406
▁expected	-3407
▁ang	-3408
▁Italian	-3409
▁male	-3410
▁Mel	-3411
▁prec	-3412
▁Corps	-3413
ste	-3414
ken	-3415
itude	-3416
▁roy	-3417
▁audience	-3418
▁listed	-3419
lled	-3420
▁Bet	-3421
▁covered	-3422
▁artic	-3423
izing	-3424
▁unable	-3425
▁purp	-3426
▁sched	-3427
▁DVD	-3428
▁traditional	-3429
▁education	-3430
▁trade	-3431
irection	-3432
▁friends	-3433
▁i	-3434
▁artist	-3435
▁newsp	-3436
▁double	-3437
▁heart	-3438
▁refused	-3439
▁closed	-3440
▁Both	-3441
▁sem	-3442
▁underst	-3443
▁attention	-3444
▁recover	-3445
▁method	-3446
▁primary	-3447
ounts	-3448
▁request	-3449
▁sister	-3450
aine	-3451
▁prevent	-3452
▁Str	-3453
▁kind	-3454
▁talk	-3455
ogue	-3456
▁Rad	-3457
onic	-3458
▁reason	-3459
▁Viet	-3460
ighter	-3461
▁letter	-3462
▁officer	-3463
▁below	-3464
▁contem	-3465
▁enjoy	-3466
▁Penn	-3467
▁Not	-3468
▁1940	-3469
oly	-3470
▁ability	-3471
▁depression	-3472
▁meant	-3473
▁Super	-3474
kin	-3475
▁declared	-3476
▁performances	-3477
▁plat	-3478
hips	-3479
ples	-3480
▁walk	-3481
erry	-3482
▁Des	-3483
▁giving	-3484
oud	-3485
undred	-3486
▁word	-3487
▁fighting	-3488
▁Wales	-3489
isher	-3490
▁blood	-3491
▁commander	-3492
▁religious	-3493
▁books	-3494
▁compl	-3495
use	-3496
tered	-3497
▁theat	-3498
ider	-3499
▁Cam	-3500
▁middle	-3501
▁sett	-3502
▁180	-3503
▁rate	-3504
▁Many	-3505
▁max	-3506
▁hot	-3507
▁records	-3508
▁Michigan	-3509
iled	-3510
▁Del	-3511
▁49	-3512
▁matches	-3513
▁names	-3514
▁Cath	-3515
▁constit	-3516
▁produce	-3517
▁question	-3518
aped	-3519
▁Democr	-3520
▁Nort	-3521
▁competition	-3522
▁Out	-3523
antasy	-3524
▁serious	-3525
▁centre	-3526
▁unit	-3527
▁vocals	-3528
utch	-3529
▁Gar	-3530
▁disapp	-3531
everal	-3532
bridge	-3533
odies	-3534
▁mention	-3535
▁Minister	-3536
▁Zeal	-3537
▁Test	-3538
iences	-3539
road	-3540
▁account	-3541
ounded	-3542
▁touch	-3543
▁abandon	-3544
▁Acad	-3545
▁rapid	-3546
icted	-3547
▁energy	-3548
shire	-3549
▁necess	-3550
▁Mass	-3551
ady	-3552
▁Dis	-3553
▁1992	-3554
ector	-3555
▁kilomet	-3556
icient	-3557
quar	-3558
ims	-3559
▁dra	-3560
ervation	-3561
▁constructed	-3562
▁traff	-3563
▁Team	-3564
irt	-3565
▁dut	-3566
ening	-3567
ona	-3568
▁theme	-3569
rug	-3570
▁ris	-3571
echan	-3572
▁Care	-3573
▁royal	-3574
▁nearby	-3575
▁highly	-3576
ishop	-3577
▁pick	-3578
▁Zealand	-3579
▁separate	-3580
▁train	-3581
oses	-3582
▁har	-3583
▁continue	-3584
▁41	-3585
edic	-3586
▁chief	-3587
▁Midd	-3588
▁effort	-3589
▁presented	-3590
ares	-3591
▁combat	-3592
rier	-3593
▁prep	-3594
▁drum	-3595
▁positions	-3596
▁Cle	-3597
▁reduced	-3598
▁annual	-3599
▁controvers	-3600
▁cas	-3601
▁directly	-3602
▁Mexico	-3603
ansion	-3604
ieut	-3605
▁levels	-3606
▁tur	-3607
sis	-3608
▁means	-3609
▁African	-3610
ibly	-3611
▁notes	-3612
▁attended	-3613
▁400	-3614
▁1930	-3615
▁neigh	-3616
▁Lu	-3617
▁tried	-3618
▁practice	-3619
▁sevent	-3620
▁forest	-3621
▁compos	-3622
▁Ox	-3623
emorial	-3624
▁cle	-3625
ether	-3626
▁edition	-3627
▁Time	-3628
anes	-3629
▁Long	-3630
▁Fore	-3631
▁twenty	-3632
▁Step	-3633
▁fast	-3634
▁Under	-3635
▁accepted	-3636
▁nuc	-3637
▁Er	-3638
vement	-3639
ette	-3640
▁stating	-3641
▁metal	-3642
oper	-3643
▁architect	-3644
▁watch	-3645
▁movie	-3646
oo	-3647
▁text	-3648
▁Fox	-3649
▁Chart	-3650
cel	-3651
▁repe	-3652
▁candid	-3653
rical	-3654
▁concert	-3655
▁1991	-3656
▁advance	-3657
▁1993	-3658
track	-3659
stitute	-3660
▁rein	-3661
acher	-3662
osen	-3663
▁Haw	-3664
▁pair	-3665
▁Arch	-3666
ado	-3667
▁Bu	-3668
▁direction	-3669
▁179	-3670
▁seem	-3671
▁schools	-3672
ersey	-3673
▁legal	-3674
▁dism	-3675
▁reject	-3676
▁Cons	-3677
ping	-3678
▁rare	-3679
lict	-3680
▁55	-3681
▁Another	-3682
ani	-3683
light	-3684
▁Pre	-3685
aver	-3686
▁Sum	-3687
▁marriage	-3688
▁thick	-3689
▁Wal	-3690
wide	-3691
▁recomm	-3692
▁oil	-3693
▁horse	-3694
illery	-3695
eway	-3696
▁managed	-3697
▁asp	-3698
▁efforts	-3699
▁college	-3700
▁Department	-3701
▁Major	-3702
▁Scotland	-3703
▁purs	-3704
icip	-3705
▁ending	-3706
▁resulting	-3707
▁avoid	-3708
ieutenant	-3709
▁More	-3710
▁Wall	-3711
▁wing	-3712
utions	-3713
▁Greek	-3714
▁showed	-3715
▁dropped	-3716
▁responsible	-3717
▁inside	-3718
▁nation	-3719
inem	-3720
▁kept	-3721
▁cases	-3722
▁Jones	-3723
▁environment	-3724
aph	-3725
▁Infantry	-3726
irit	-3727
▁cust	-3728
▁182	-3729
▁culture	-3730
▁meaning	-3731
▁cyclone	-3732
band	-3733
house	-3734
▁Madonna	-3735
▁begins	-3736
▁incorpor	-3737
illed	-3738
▁variety	-3739
▁morning	-3740
▁rat	-3741
uit	-3742
ceeded	-3743
MS	-3744
▁houses	-3745
▁cerem	-3746
awn	-3747
▁forms	-3748
isation	-3749
▁Arab	-3750
▁dom	-3751
▁championship	-3752
▁39	-3753
▁words	-3754
▁Chris	-3755
▁Creek	-3756
peror	-3757
▁arrest	-3758
like	-3759
▁Cross	-3760
▁schol	-3761
▁ge	-3762
▁inches	-3763
▁marked	-3764
▁Bost	-3765
▁continues	-3766
▁So	-3767
▁yard	-3768
▁Manc	-3769
▁science	-3770
▁Tre	-3771
▁Bob	-3772
▁Kenn	-3773
▁Matt	-3774
▁48	-3775
▁181	-3776
▁Hung	-3777
▁symb	-3778
▁perm	-3779
▁Records	-3780
▁Crit	-3781
cend	-3782
▁uses	-3783
▁economic	-3784
▁bank	-3785
ecting	-3786
▁Dar	-3787
▁spl	-3788
▁source	-3789
gypt	-3790
▁BC	-3791
▁Secret	-3792
ka	-3793
▁quality	-3794
iated	-3795
▁42	-3796
▁defend	-3797
writ	-3798
▁Their	-3799
olf	-3800
thel	-3801
▁Service	-3802
▁hundred	-3803
▁Williams	-3804
▁lear	-3805
▁Stone	-3806
▁Parliament	-3807
▁settle	-3808
▁Leg	-3809
ulations	-3810
▁conducted	-3811
▁starting	-3812
▁impact	-3813
ylv	-3814
cle	-3815
▁your	-3816
▁strugg	-3817
▁specific	-3818
▁allowing	-3819
▁Games	-3820
thur	-3821
▁Post	-3822
▁Ann	-3823
▁presence	-3824
▁Society	-3825
▁1942	-3826
▁Sar	-3827
bed	-3828
An	-3829
▁beat	-3830
▁amount	-3831
▁ple	-3832
▁viewers	-3833
▁du	-3834
▁sides	-3835
ait	-3836
▁metres	-3837
een	-3838
▁Four	-3839
▁dance	-3840
▁chap	-3841
▁rule	-3842
▁exhib	-3843
▁univers	-3844
▁suppl	-3845
▁Egypt	-3846
▁distinct	-3847
▁transferred	-3848
▁Hel	-3849
▁multiple	-3850
▁potential	-3851
rown	-3852
▁News	-3853
▁raid	-3854
▁Foot	-3855
▁foreign	-3856
▁Dou	-3857
▁contrast	-3858
▁peaked	-3859
irm	-3860
ols	-3861
▁enemy	-3862
ingu	-3863
▁captain	-3864
▁becomes	-3865
▁Committee	-3866
▁traffic	-3867
itiz	-3868
arent	-3869
▁owned	-3870
▁founded	-3871
▁Book	-3872
▁greater	-3873
▁things	-3874
▁mess	-3875
▁Latin	-3876
gl	-3877
▁vocal	-3878
▁portion	-3879
▁concluded	-3880
▁castle	-3881
▁Southern	-3882
▁scoring	-3883
▁property	-3884
▁respond	-3885
▁stories	-3886
▁65	-3887
sych	-3888
▁encoun	-3889
▁attempts	-3890
▁opt	-3891
▁Since	-3892
▁relatively	-3893
▁Go	-3894
▁Stan	-3895
▁primarily	-3896
iance	-3897
▁demonst	-3898
inet	-3899
▁Prince	-3900
ecause	-3901
▁federal	-3902
▁financial	-3903
▁Sur	-3904
▁actually	-3905
▁animals	-3906
▁Arm	-3907
ressive	-3908
▁observed	-3909
▁Boston	-3910
▁collection	-3911
▁Mic	-3912
fect	-3913
ellig	-3914
▁opportun	-3915
▁titled	-3916
▁Oh	-3917
▁tourn	-3918
▁Tri	-3919
▁featuring	-3920
▁lif	-3921
ita	-3922
ih	-3923
▁writers	-3924
▁Win	-3925
istics	-3926
▁write	-3927
▁47	-3928
kn	-3929
aud	-3930
▁Chief	-3931
▁Admiral	-3932
▁journal	-3933
▁1944	-3934
▁strength	-3935
ours	-3936
▁Georg	-3937
▁weaken	-3938
▁inch	-3939
▁Vietn	-3940
▁wor	-3941
▁Ver	-3942
▁distance	-3943
▁Che	-3944
▁paid	-3945
▁spot	-3946
▁premi	-3947
▁mechan	-3948
right	-3949
▁situation	-3950
▁parents	-3951
▁Swed	-3952
▁independent	-3953
▁Bridge	-3954
▁Oxford	-3955
▁figure	-3956
▁Battalion	-3957
umber	-3958
▁share	-3959
▁acting	-3960
▁companies	-3961
▁divided	-3962
▁actor	-3963
eds	-3964
▁Commission	-3965
▁onto	-3966
▁Sat	-3967
alle	-3968
▁collabor	-3969
▁Manchester	-3970
▁slightly	-3971
▁mind	-3972
▁piece	-3973
▁target	-3974
▁Class	-3975
ada	-3976
▁function	-3977
▁selling	-3978
▁52	-3979
▁Ott	-3980
perial	-3981
▁powerful	-3982
ricket	-3983
▁reform	-3984
▁Paris	-3985
▁innings	-3986
▁46	-3987
▁concent	-3988
▁64	-3989
▁rating	-3990
▁torped	-3991
thlet	-3992
▁lot	-3993
▁plays	-3994
▁broke	-3995
▁rough	-3996
▁today	-3997
▁era	-3998
chest	-3999
▁actions	-4000
▁Fin	-4001
▁waters	-4002
oration	-4003
▁mel	-4004
▁ultimately	-4005
▁cho	-4006
▁trial	-4007
▁Stephen	-4008
▁square	-4009
▁maximum	-4010
lam	-4011
ining	-4012
▁dise	-4013
istry	-4014
▁Spec	-4015
ros	-4016
udd	-4017
▁Den	-4018
▁Jeff	-4019
▁Sol	-4020
uge	-4021
▁pilot	-4022
▁tend	-4023
▁Life	-4024
▁bound	-4025
▁Captain	-4026
annel	-4027
▁BBC	-4028
▁43	-4029
▁Columb	-4030
▁completely	-4031
astic	-4032
▁Brad	-4033
▁Joseph	-4034
▁sought	-4035
acts	-4036
▁interp	-4037
▁policy	-4038
▁Hor	-4039
▁Academy	-4040
sw	-4041
▁1920	-4042
▁1945	-4043
▁scale	-4044
▁Harrison	-4045
anna	-4046
▁blue	-4047
force	-4048
▁society	-4049
▁mainly	-4050
▁Def	-4051
▁behav	-4052
▁Entertain	-4053
rupt	-4054
▁designated	-4055
▁Sil	-4056
▁hus	-4057
load	-4058
▁ess	-4059
mas	-4060
▁1941	-4061
▁44	-4062
▁Croat	-4063
▁officials	-4064
▁log	-4065
▁struck	-4066
rel	-4067
mond	-4068
▁Museum	-4069
▁conver	-4070
▁activity	-4071
stein	-4072
▁combined	-4073
▁influenced	-4074
▁transl	-4075
▁Series	-4076
olved	-4077
cers	-4078
▁Pan	-4079
▁wear	-4080
▁search	-4081
while	-4082
ils	-4083
▁vess	-4084
▁Line	-4085
▁calling	-4086
pe	-4087
▁thous	-4088
▁gar	-4089
▁150	-4090
▁alongside	-4091
▁northeast	-4092
▁Fred	-4093
▁seconds	-4094
▁batter	-4095
▁Brigade	-4096
ux	-4097
▁Bat	-4098
▁sout	-4099
▁sources	-4100
▁winter	-4101
ya	-4102
orses	-4103
▁Americans	-4104
under	-4105
▁background	-4106
▁webs	-4107
▁Tw	-4108
▁Italy	-4109
▁Carl	-4110
aven	-4111
▁seg	-4112
▁Way	-4113
aga	-4114
mark	-4115
▁recent	-4116
▁theory	-4117
▁suc	-4118
ini	-4119
▁ice	-4120
▁gained	-4121
▁nominated	-4122
rative	-4123
▁Saint	-4124
▁thir	-4125
▁crow	-4126
▁platform	-4127
▁Youn	-4128
▁electric	-4129
▁artists	-4130
▁Tim	-4131
▁problem	-4132
▁mem	-4133
▁Luc	-4134
▁encour	-4135
▁Entertainment	-4136
▁widely	-4137
▁naval	-4138
▁systems	-4139
▁Regiment	-4140
▁promoted	-4141
quarters	-4142
▁Three	-4143
▁confirmed	-4144
iano	-4145
▁Ire	-4146
▁news	-4147
illa	-4148
▁reaching	-4149
▁Ever	-4150
▁proved	-4151
▁results	-4152
▁Avenue	-4153
osaur	-4154
HL	-4155
ibrary	-4156
▁passing	-4157
▁albums	-4158
adel	-4159
rate	-4160
▁explained	-4161
▁greatest	-4162
▁Form	-4163
▁subsequent	-4164
▁Little	-4165
▁conflict	-4166
▁Ireland	-4167
▁invasion	-4168
▁Fleet	-4169
ota	-4170
▁wick	-4171
▁content	-4172
▁Pop	-4173
▁charge	-4174
▁coming	-4175
▁sixth	-4176
▁peace	-4177
▁resist	-4178
▁hero	-4179
▁northwest	-4180
onn	-4181
▁county	-4182
ube	-4183
▁corn	-4184
▁shortly	-4185
▁weather	-4186
▁Gre	-4187
▁versions	-4188
▁1943	-4189
▁adj	-4190
▁serve	-4191
▁causing	-4192
oured	-4193
▁Conf	-4194
▁1989	-4195
TV	-4196
▁Lee	-4197
▁sust	-4198
▁says	-4199
▁expressed	-4200
yond	-4201
▁path	-4202
aling	-4203
▁reception	-4204
▁seek	-4205
▁burn	-4206
▁ir	-4207
iced	-4208
itness	-4209
▁residents	-4210
▁emot	-4211
▁border	-4212
▁soundtrack	-4213
▁cities	-4214
▁sn	-4215
▁Catholic	-4216
▁seasons	-4217
▁appearances	-4218
▁favour	-4219
▁sense	-4220
omy	-4221
▁Valley	-4222
ategory	-4223
ym	-4224
▁Wind	-4225
▁sexual	-4226
▁require	-4227
▁chem	-4228
town	-4229
▁hospital	-4230
▁green	-4231
▁Van	-4232
▁identified	-4233
▁physical	-4234
▁older	-4235
▁Hurricane	-4236
ote	-4237
ancy	-4238
▁Ter	-4239
▁hands	-4240
▁Victoria	-4241
ips	-4242
▁Mod	-4243
▁Good	-4244
▁51	-4245
▁true	-4246
▁offer	-4247
▁tells	-4248
▁document	-4249
▁dedic	-4250
bit	-4251
▁kg	-4252
ighth	-4253
▁iron	-4254
ero	-4255
▁artillery	-4256
▁represented	-4257
▁Max	-4258
▁weapons	-4259
bon	-4260
▁ahead	-4261
unction	-4262
arden	-4263
▁pun	-4264
eption	-4265
itan	-4266
yon	-4267
▁negot	-4268
ylvania	-4269
▁gas	-4270
▁heavily	-4271
▁eas	-4272
▁Liber	-4273
za	-4274
▁Hal	-4275
▁supp	-4276
abeth	-4277
▁Ell	-4278
▁Nin	-4279
itable	-4280
▁defense	-4281
▁student	-4282
▁Sant	-4283
▁image	-4284
▁Norm	-4285
▁spread	-4286
▁alone	-4287
▁apparent	-4288
▁studies	-4289
▁officially	-4290
▁Light	-4291
▁Show	-4292
▁Middle	-4293
▁husband	-4294
▁Commun	-4295
AS	-4296
known	-4297
▁district	-4298
▁executive	-4299
▁farm	-4300
▁Dev	-4301
▁Dutch	-4302
▁instit	-4303
▁Week	-4304
essions	-4305
▁debuted	-4306
▁Charl	-4307
▁prominent	-4308
▁Ray	-4309
▁capture	-4310
▁Alb	-4311
▁Bus	-4312
▁floor	-4313
▁consisted	-4314
▁Produ	-4315
▁injury	-4316
▁send	-4317
▁pack	-4318
▁wild	-4319
▁equipment	-4320
▁organization	-4321
▁fired	-4322
▁bit	-4323
▁Live	-4324
▁pattern	-4325
▁argued	-4326
▁stone	-4327
▁aired	-4328
▁resc	-4329
AA	-4330
▁figures	-4331
olt	-4332
▁prepar	-4333
▁instrument	-4334
▁surpris	-4335
▁exped	-4336
▁growth	-4337
▁couple	-4338
acity	-4339
▁doing	-4340
▁returning	-4341
By	-4342
▁hun	-4343
pool	-4344
▁Top	-4345
▁contemporary	-4346
ockey	-4347
▁pict	-4348
▁Histor	-4349
▁Lo	-4350
▁poet	-4351
▁ring	-4352
ushed	-4353
▁pal	-4354
▁cert	-4355
▁weight	-4356
urban	-4357
▁drug	-4358
▁laid	-4359
▁leaders	-4360
▁Aut	-4361
▁doub	-4362
▁affected	-4363
▁Ma	-4364
When	-4365
▁pieces	-4366
▁matter	-4367
bur	-4368
▁habit	-4369
▁magn	-4370
▁Far	-4371
eld	-4372
lines	-4373
lers	-4374
▁eth	-4375
▁step	-4376
▁propos	-4377
▁maintained	-4378
▁Albert	-4379
▁Civil	-4380
resp	-4381
rog	-4382
hew	-4383
▁earth	-4384
▁visited	-4385
▁Work	-4386
▁occasion	-4387
▁tun	-4388
appen	-4389
▁Ill	-4390
▁Tod	-4391
▁rang	-4392
▁Tay	-4393
▁comes	-4394
▁here	-4395
▁shell	-4396
▁speech	-4397
▁communic	-4398
▁crowd	-4399
▁criticized	-4400
▁600	-4401
ports	-4402
▁activities	-4403
▁termin	-4404
▁stra	-4405
ees	-4406
▁Young	-4407
▁Northern	-4408
▁Carolina	-4409
▁Football	-4410
ental	-4411
▁attract	-4412
inson	-4413
▁Ty	-4414
▁Eliz	-4415
acement	-4416
▁Dun	-4417
▁exec	-4418
▁citiz	-4419
ifying	-4420
▁tournament	-4421
▁reign	-4422
▁toward	-4423
▁singles	-4424
▁ox	-4425
▁emph	-4426
emic	-4427
▁Jul	-4428
▁hall	-4429
▁trees	-4430
▁reference	-4431
ocked	-4432
▁formation	-4433
▁senior	-4434
▁Storm	-4435
elve	-4436
▁Bond	-4437
▁adapt	-4438
edd	-4439
▁Kr	-4440
▁setting	-4441
▁surre	-4442
▁worldwide	-4443
▁medical	-4444
▁territory	-4445
▁Direct	-4446
▁Av	-4447
▁Homer	-4448
▁trying	-4449
▁stations	-4450
▁Several	-4451
▁bud	-4452
▁appl	-4453
ruit	-4454
▁birds	-4455
▁pan	-4456
estic	-4457
▁delay	-4458
▁1987	-4459
ners	-4460
▁machine	-4461
ala	-4462
▁claims	-4463
▁fellow	-4464
iro	-4465
▁Add	-4466
▁doll	-4467
▁Fantasy	-4468
embly	-4469
▁historian	-4470
▁murder	-4471
▁Ry	-4472
▁guest	-4473
▁System	-4474
▁District	-4475
eed	-4476
▁Fre	-4477
▁bul	-4478
▁rainfall	-4479
▁risk	-4480
▁Government	-4481
▁dog	-4482
▁fully	-4483
▁accident	-4484
▁cell	-4485
▁value	-4486
▁1988	-4487
ivity	-4488
▁load	-4489
▁therefore	-4490
gian	-4491
uled	-4492
▁split	-4493
▁chosen	-4494
▁treatment	-4495
▁university	-4496
▁Tropical	-4497
▁Ram	-4498
omers	-4499
▁Background	-4500
▁Scottish	-4501
▁god	-4502
▁Dam	-4503
▁twice	-4504
▁Holly	-4505
▁53	-4506
▁Men	-4507
▁terr	-4508
velopment	-4509
▁frequently	-4510
uls	-4511
▁Studios	-4512
▁Guard	-4513
▁contest	-4514
▁reports	-4515
▁supply	-4516
▁Orig	-4517
▁leaves	-4518
uct	-4519
rael	-4520
▁governor	-4521
stone	-4522
resh	-4523
▁sens	-4524
▁remark	-4525
▁Di	-4526
▁paper	-4527
▁Governor	-4528
stitution	-4529
aved	-4530
▁label	-4531
▁Polish	-4532
ampion	-4533
▁agg	-4534
▁Senate	-4535
▁dyn	-4536
ordin	-4537
▁faced	-4538
▁walls	-4539
▁opin	-4540
ror	-4541
▁hyd	-4542
▁follows	-4543
▁billion	-4544
anger	-4545
▁Duke	-4546
▁Penns	-4547
ledge	-4548
▁operated	-4549
▁Girl	-4550
▁manu	-4551
▁grew	-4552
▁Rog	-4553
ayer	-4554
▁surrounding	-4555
▁Home	-4556
▁Field	-4557
▁Mat	-4558
▁degree	-4559
▁contained	-4560
onents	-4561
▁85	-4562
▁horses	-4563
▁planet	-4564
▁Eastern	-4565
▁herself	-4566
▁manufact	-4567
▁Daniel	-4568
▁condition	-4569
▁accompan	-4570
▁wounded	-4571
▁escape	-4572
▁typically	-4573
▁ut	-4574
▁swe	-4575
agn	-4576
▁Marsh	-4577
amber	-4578
▁passes	-4579
illy	-4580
eller	-4581
rect	-4582
▁Colon	-4583
▁color	-4584
▁simply	-4585
▁Christmas	-4586
▁Sk	-4587
isco	-4588
orter	-4589
▁Beat	-4590
▁master	-4591
▁Hard	-4592
▁fuel	-4593
▁Because	-4594
▁brown	-4595
▁railway	-4596
▁sle	-4597
▁element	-4598
▁draft	-4599
▁Like	-4600
utation	-4601
gend	-4602
▁Rom	-4603
ety	-4604
▁lives	-4605
▁editor	-4606
▁orders	-4607
▁arms	-4608
▁Bre	-4609
▁Tem	-4610
▁Allied	-4611
rid	-4612
antly	-4613
▁serving	-4614
▁bal	-4615
▁nothing	-4616
▁chose	-4617
▁authority	-4618
▁opposed	-4619
▁workers	-4620
▁vote	-4621
▁camer	-4622
▁consecutive	-4623
isters	-4624
▁cannot	-4625
▁moment	-4626
pass	-4627
▁newly	-4628
ricult	-4629
izes	-4630
▁Night	-4631
▁native	-4632
▁unknown	-4633
ancing	-4634
▁participated	-4635
▁Sub	-4636
▁growing	-4637
ucky	-4638
▁website	-4639
ias	-4640
aming	-4641
▁casual	-4642
▁1986	-4643
uous	-4644
▁Lew	-4645
▁phil	-4646
▁emphas	-4647
▁entr	-4648
▁attrib	-4649
igg	-4650
▁fan	-4651
▁producers	-4652
▁Gal	-4653
fully	-4654
▁Jon	-4655
▁rear	-4656
▁Ros	-4657
ading	-4658
▁54	-4659
ographer	-4660
▁Kar	-4661
▁bass	-4662
▁fair	-4663
▁Operation	-4664
mit	-4665
▁losing	-4666
▁adopted	-4667
▁advanced	-4668
▁filming	-4669
enge	-4670
▁heard	-4671
▁extra	-4672
▁Festival	-4673
▁severe	-4674
▁offensive	-4675
▁feed	-4676
▁Os	-4677
ilies	-4678
andy	-4679
▁fiction	-4680
azz	-4681
imens	-4682
▁opposition	-4683
▁Castle	-4684
▁extend	-4685
▁spirit	-4686
▁Rod	-4687
▁capacity	-4688
enger	-4689
▁sequence	-4690
▁basis	-4691
▁actors	-4692
▁Islands	-4693
▁council	-4694
▁Corn	-4695
▁95	-4696
▁psych	-4697
▁ends	-4698
▁guard	-4699
pton	-4700
▁newspaper	-4701
iot	-4702
gu	-4703
▁weak	-4704
▁squadron	-4705
ype	-4706
▁silver	-4707
▁prin	-4708
▁advant	-4709
▁abandoned	-4710
▁Bart	-4711
▁56	-4712
▁Wilson	-4713
rong	-4714
orship	-4715
▁Taylor	-4716
▁rival	-4717
▁compar	-4718
▁rom	-4719
▁177	-4720
▁extr	-4721
▁prompt	-4722
▁Pennsylvania	-4723
FA	-4724
▁flying	-4725
ables	-4726
▁Elizabeth	-4727
▁honor	-4728
isers	-4729
more	-4730
▁elev	-4731
▁creating	-4732
▁kick	-4733
▁Pers	-4734
▁Jud	-4735
ocated	-4736
▁Irish	-4737
▁Sound	-4738
▁filmed	-4739
ager	-4740
▁Pen	-4741
lement	-4742
▁launch	-4743
▁coal	-4744
▁regarded	-4745
▁Andrew	-4746
▁Reception	-4747
▁Ocean	-4748
▁happen	-4749
▁expansion	-4750
▁Jersey	-4751
▁normal	-4752
▁ast	-4753
▁enter	-4754
▁individuals	-4755
▁Joe	-4756
▁criticism	-4757
▁Alexander	-4758
▁homes	-4759
▁agreement	-4760
▁Exp	-4761
▁beyond	-4762
▁incident	-4763
add	-4764
▁failure	-4765
▁evac	-4766
▁spect	-4767
▁deploy	-4768
▁178	-4769
▁dismiss	-4770
apers	-4771
▁famous	-4772
▁eye	-4773
▁chair	-4774
▁spring	-4775
ano	-4776
▁Jac	-4777
▁Tech	-4778
TC	-4779
▁sail	-4780
▁sports	-4781
▁measure	-4782
▁Spain	-4783
▁challeng	-4784
Although	-4785
tar	-4786
uses	-4787
gar	-4788
min	-4789
▁possibly	-4790
anda	-4791
▁historical	-4792
▁negative	-4793
▁97	-4794
▁Coast	-4795
▁liber	-4796
▁1939	-4797
▁inte	-4798
▁boat	-4799
▁Mike	-4800
▁bodies	-4801
▁Blue	-4802
▁achieved	-4803
▁strike	-4804
▁believe	-4805
▁contact	-4806
20	-4807
▁Card	-4808
▁mob	-4809
▁Square	-4810
▁progress	-4811
▁roles	-4812
BA	-4813
▁unf	-4814
rich	-4815
▁76	-4816
uman	-4817
▁killing	-4818
▁narrow	-4819
imet	-4820
▁retired	-4821
▁Gall	-4822
▁ideas	-4823
▁Tra	-4824
ifications	-4825
▁Det	-4826
ienced	-4827
▁disease	-4828
▁Institute	-4829
▁Are	-4830
▁ur	-4831
▁MD	-4832
▁torpedo	-4833
▁SS	-4834
mosp	-4835
onent	-4836
▁benef	-4837
▁rid	-4838
▁briefly	-4839
▁vo	-4840
▁drive	-4841
▁effective	-4842
▁imag	-4843
▁task	-4844
▁armed	-4845
▁tower	-4846
▁applic	-4847
▁Wat	-4848
▁Inst	-4849
▁diam	-4850
▁budget	-4851
▁receive	-4852
▁repeated	-4853
▁necessary	-4854
▁administration	-4855
▁Land	-4856
▁granted	-4857
▁perman	-4858
▁personnel	-4859
▁1968	-4860
▁Revolution	-4861
▁roads	-4862
▁rejected	-4863
▁tree	-4864
anwhile	-4865
edom	-4866
aby	-4867
▁table	-4868
▁twelve	-4869
▁kilometres	-4870
la	-4871
ev	-4872
▁poll	-4873
▁WW	-4874
iner	-4875
▁pet	-4876
▁improved	-4877
▁leadership	-4878
▁Israel	-4879
▁1985	-4880
▁Germ	-4881
▁gross	-4882
▁mis	-4883
▁Broad	-4884
avalry	-4885
▁interchange	-4886
▁Republican	-4887
▁extensive	-4888
aith	-4889
▁inh	-4890
▁column	-4891
▁data	-4892
kins	-4893
imal	-4894
▁yellow	-4895
▁Harry	-4896
ourney	-4897
▁infantry	-4898
▁turns	-4899
▁purpose	-4900
▁plants	-4901
▁straight	-4902
▁management	-4903
▁66	-4904
▁lands	-4905
▁Bor	-4906
▁express	-4907
iments	-4908
▁landing	-4909
▁defin	-4910
▁Doctor	-4911
▁paralle	-4912
▁describes	-4913
▁Cat	-4914
▁expanded	-4915
▁seat	-4916
▁solo	-4917
▁successfully	-4918
▁choice	-4919
▁franch	-4920
▁broken	-4921
▁Sund	-4922
▁mile	-4923
▁Board	-4924
iny	-4925
lusion	-4926
▁crossing	-4927
ocks	-4928
▁learn	-4929
▁Fam	-4930
adelph	-4931
▁didn	-4932
cé	-4933
▁Album	-4934
▁61	-4935
▁fought	-4936
▁deliver	-4937
▁What	-4938
erc	-4939
▁explos	-4940
▁intellig	-4941
▁CD	-4942
▁animal	-4943
▁organized	-4944
▁caught	-4945
Following	-4946
oln	-4947
▁excl	-4948
uate	-4949
▁Cub	-4950
▁Bul	-4951
▁vehicles	-4952
▁Secretary	-4953
▁commissioned	-4954
▁suggests	-4955
▁Wild	-4956
▁Lind	-4957
▁Though	-4958
▁acquired	-4959
haps	-4960
▁800	-4961
▁Philadelph	-4962
▁places	-4963
▁committee	-4964
▁chor	-4965
▁Public	-4966
etball	-4967
attle	-4968
▁roof	-4969
▁ancient	-4970
▁drama	-4971
iday	-4972
▁End	-4973
▁creation	-4974
set	-4975
▁1984	-4976
▁Ohio	-4977
▁types	-4978
stream	-4979
▁glob	-4980
▁article	-4981
▁Braz	-4982
▁gives	-4983
▁seventh	-4984
▁Arthur	-4985
▁comedy	-4986
ico	-4987
▁row	-4988
▁unsu	-4989
iana	-4990
▁nuclear	-4991
▁prefer	-4992
▁Mul	-4993
▁Clark	-4994
iable	-4995
▁soft	-4996
▁wave	-4997
▁Before	-4998
iate	-4999
▁fat	-5000
hi	-5001
appy	-5002
▁Philadelphia	-5003
▁authorities	-5004
etts	-5005
▁120	-5006
▁headquarters	-5007
war	-5008
umes	-5009
▁contain	-5010
▁commonly	-5011
▁centuries	-5012
▁Mid	-5013
▁determined	-5014
▁genus	-5015
▁islands	-5016
▁Writ	-5017
iations	-5018
▁mentioned	-5019
▁recently	-5020
Ar	-5021
▁Elect	-5022
rif	-5023
▁looking	-5024
▁Ret	-5025
▁bott	-5026
▁controlled	-5027
igr	-5028
▁IS	-5029
▁RA	-5030
▁1967	-5031
▁beaut	-5032
restling	-5033
▁street	-5034
akers	-5035
▁roll	-5036
▁sets	-5037
▁families	-5038
▁Georgia	-5039
▁household	-5040
iverpool	-5041
▁upgr	-5042
▁security	-5043
arts	-5044
▁finds	-5045
▁experiment	-5046
oted	-5047
▁aim	-5048
▁suppor	-5049
ura	-5050
▁Head	-5051
▁Wars	-5052
▁advert	-5053
▁standing	-5054
▁decre	-5055
ima	-5056
There	-5057
tendo	-5058
▁drop	-5059
▁57	-5060
▁acad	-5061
▁illust	-5062
▁Us	-5063
▁Further	-5064
▁Russia	-5065
▁singing	-5066
▁withdraw	-5067
oles	-5068
▁battalion	-5069
▁Les	-5070
▁unique	-5071
▁reflect	-5072
itled	-5073
uting	-5074
▁Ul	-5075
agement	-5076
rig	-5077
▁containing	-5078
▁cultural	-5079
▁entirely	-5080
▁height	-5081
▁Hit	-5082
▁deck	-5083
▁Mov	-5084
fort	-5085
▁orchest	-5086
▁dial	-5087
▁fish	-5088
▁Cambridge	-5089
▁Mir	-5090
▁finish	-5091
▁Bell	-5092
incoln	-5093
▁protect	-5094
▁contributed	-5095
▁themes	-5096
▁Each	-5097
ishes	-5098
▁provides	-5099
▁younger	-5100
oma	-5101
▁Sher	-5102
▁touchdown	-5103
▁Ash	-5104
▁defence	-5105
▁Burn	-5106
▁flooding	-5107
▁unp	-5108
acks	-5109
▁Asia	-5110
▁Jer	-5111
▁mist	-5112
▁Prime	-5113
▁Korean	-5114
▁Nintendo	-5115
▁strik	-5116
▁titles	-5117
▁Columbia	-5118
▁Fer	-5119
▁atmosp	-5120
▁awards	-5121
▁Prot	-5122
▁purchased	-5123
apore	-5124
▁Of	-5125
Station	-5126
▁Fe	-5127
outs	-5128
▁la	-5129
amin	-5130
▁sac	-5131
▁Bru	-5132
ipl	-5133
▁arrival	-5134
▁scheduled	-5135
▁powers	-5136
▁defensive	-5137
▁resemb	-5138
▁Production	-5139
▁accompanied	-5140
illing	-5141
▁1983	-5142
▁Jewish	-5143
▁ceremony	-5144
inity	-5145
▁quite	-5146
respond	-5147
▁expedition	-5148
▁convers	-5149
▁unus	-5150
▁worth	-5151
▁thing	-5152
▁Francisco	-5153
▁perfect	-5154
▁locations	-5155
icial	-5156
▁existing	-5157
water	-5158
gn	-5159
▁interact	-5160
▁performing	-5161
room	-5162
▁advantage	-5163
▁Hy	-5164
▁Earl	-5165
atures	-5166
▁dedicated	-5167
▁try	-5168
▁Common	-5169
▁1969	-5170
While	-5171
▁computer	-5172
▁1964	-5173
laim	-5174
▁Arg	-5175
▁philos	-5176
▁Brazil	-5177
▁Office	-5178
▁Lincoln	-5179
▁extrem	-5180
▁Person	-5181
▁intensity	-5182
▁occupied	-5183
▁store	-5184
ava	-5185
ulate	-5186
▁Never	-5187
▁why	-5188
▁squad	-5189
▁1914	-5190
▁Singapore	-5191
▁mounted	-5192
▁74	-5193
▁bat	-5194
▁Liverpool	-5195
▁fresh	-5196
▁1918	-5197
▁58	-5198
agan	-5199
ashion	-5200
▁Cy	-5201
▁PlayStation	-5202
och	-5203
▁cricket	-5204
▁nob	-5205
▁closely	-5206
hens	-5207
▁mouth	-5208
▁firm	-5209
▁currently	-5210
▁consists	-5211
yles	-5212
▁fix	-5213
ilton	-5214
▁Child	-5215
▁session	-5216
roll	-5217
▁1971	-5218
wall	-5219
▁industrial	-5220
▁simple	-5221
▁Disney	-5222
racted	-5223
▁tail	-5224
▁piano	-5225
▁facilities	-5226
▁1982	-5227
▁1966	-5228
▁elimin	-5229
▁drawn	-5230
▁supporting	-5231
▁lic	-5232
hol	-5233
zant	-5234
▁1972	-5235
▁cold	-5236
▁belong	-5237
▁trains	-5238
▁boats	-5239
▁rated	-5240
▁protection	-5241
▁Jenn	-5242
▁graph	-5243
▁SR	-5244
▁Lar	-5245
▁egg	-5246
rons	-5247
▁tim	-5248
▁Balt	-5249
▁rise	-5250
▁defined	-5251
▁Jean	-5252
▁Dark	-5253
▁Gil	-5254
▁Rel	-5255
▁1979	-5256
▁Ven	-5257
▁Carey	-5258
▁selection	-5259
▁steam	-5260
▁Ep	-5261
▁regions	-5262
▁submar	-5263
▁protected	-5264
uzz	-5265
▁Rol	-5266
▁Olympic	-5267
▁Conference	-5268
▁calls	-5269
▁Railway	-5270
ao	-5271
▁structures	-5272
▁motion	-5273
▁comic	-5274
▁rot	-5275
▁Byzant	-5276
mouth	-5277
▁throw	-5278
▁aid	-5279
▁trail	-5280
▁focused	-5281
▁opportunity	-5282
▁cry	-5283
▁receiving	-5284
▁labor	-5285
▁shark	-5286
▁engaged	-5287
With	-5288
▁analysis	-5289
▁shooting	-5290
▁Die	-5291
▁Short	-5292
▁NHL	-5293
▁hair	-5294
▁citizens	-5295
▁correspond	-5296
▁People	-5297
usc	-5298
▁Lis	-5299
▁lap	-5300
▁1965	-5301
ola	-5302
▁pros	-5303
iration	-5304
▁notable	-5305
▁strengt	-5306
▁sport	-5307
▁observ	-5308
▁1975	-5309
▁adap	-5310
▁motor	-5311
▁Jr	-5312
▁Hay	-5313
▁Pot	-5314
▁experienced	-5315
▁Anderson	-5316
▁Hun	-5317
▁Germans	-5318
▁conference	-5319
▁Brook	-5320
▁providing	-5321
▁holding	-5322
▁Emperor	-5323
▁Through	-5324
▁Gulf	-5325
▁Lewis	-5326
▁Development	-5327
ults	-5328
▁Order	-5329
▁visual	-5330
▁resident	-5331
▁dry	-5332
▁hired	-5333
▁charts	-5334
▁southeast	-5335
▁eyes	-5336
▁viewed	-5337
▁mountain	-5338
unior	-5339
▁Bad	-5340
▁Su	-5341
▁Turn	-5342
▁59	-5343
▁rapidly	-5344
ifically	-5345
▁Hon	-5346
▁Hollywood	-5347
▁recognized	-5348
inger	-5349
▁1974	-5350
▁merch	-5351
▁branch	-5352
▁volume	-5353
▁Tam	-5354
▁Serb	-5355
▁transform	-5356
opher	-5357
▁Radio	-5358
▁Press	-5359
▁scholars	-5360
▁sites	-5361
vention	-5362
elly	-5363
▁Gi	-5364
▁casualties	-5365
inth	-5366
▁Conn	-5367
▁Miller	-5368
▁Ur	-5369
▁rob	-5370
▁gain	-5371
▁shared	-5372
▁99	-5373
▁teach	-5374
▁Democratic	-5375
iter	-5376
▁mut	-5377
▁1973	-5378
▁concer	-5379
▁publication	-5380
▁vac	-5381
▁moder	-5382
▁parallel	-5383
▁prote	-5384
▁temperature	-5385
zer	-5386
▁digital	-5387
▁economy	-5388
burgh	-5389
essed	-5390
▁Grant	-5391
▁developing	-5392
▁Mah	-5393
FL	-5394
▁edge	-5395
▁reaction	-5396
sey	-5397
▁Summer	-5398
standing	-5399
▁steel	-5400
▁Mot	-5401
▁intersection	-5402
▁cool	-5403
▁62	-5404
▁1976	-5405
▁cart	-5406
friend	-5407
▁approved	-5408
▁Chap	-5409
▁symbol	-5410
▁chance	-5411
▁secondary	-5412
▁Lieutenant	-5413
▁Shak	-5414
▁63	-5415
▁Steve	-5416
▁von	-5417
▁wa	-5418
▁Even	-5419
▁losses	-5420
▁Pu	-5421
▁prepared	-5422
omew	-5423
▁belief	-5424
▁Vol	-5425
▁substant	-5426
▁letters	-5427
▁Bank	-5428
▁Bas	-5429
▁Rome	-5430
▁significantly	-5431
▁witness	-5432
▁Six	-5433
▁Davis	-5434
eg	-5435
▁enl	-5436
ingly	-5437
▁Also	-5438
▁bands	-5439
iful	-5440
▁harm	-5441
rence	-5442
▁HMS	-5443
▁sort	-5444
▁save	-5445
▁domestic	-5446
▁Brian	-5447
▁73	-5448
▁Fall	-5449
▁myth	-5450
yer	-5451
▁77	-5452
▁rac	-5453
▁knew	-5454
▁Addition	-5455
▁franchise	-5456
▁Musl	-5457
▁Daily	-5458
▁ven	-5459
▁goes	-5460
▁literature	-5461
▁unsuccess	-5462
▁Const	-5463
▁actress	-5464
▁instruct	-5465
▁southwest	-5466
▁technology	-5467
▁roughly	-5468
▁heads	-5469
▁250	-5470
▁survey	-5471
▁Special	-5472
▁Sa	-5473
▁card	-5474
▁advent	-5475
▁descend	-5476
▁Mu	-5477
ns	-5478
▁mic	-5479
ographic	-5480
▁Beyon	-5481
theless	-5482
▁painting	-5483
awa	-5484
▁Walter	-5485
ients	-5486
▁cars	-5487
▁adult	-5488
▁anything	-5489
▁semi	-5490
▁projects	-5491
break	-5492
▁urban	-5493
▁assault	-5494
▁exact	-5495
amm	-5496
achus	-5497
eral	-5498
▁brothers	-5499
▁gameplay	-5500
▁resistance	-5501
▁pitch	-5502
▁lb	-5503
unte	-5504
▁Barb	-5505
▁neighbor	-5506
▁Syd	-5507
▁hyp	-5508
▁Princ	-5509
▁storyline	-5510
▁shape	-5511
▁reasons	-5512
▁Lab	-5513
▁rules	-5514
▁employed	-5515
▁Prov	-5516
▁Supreme	-5517
▁Water	-5518
▁Gib	-5519
▁core	-5520
▁daily	-5521
▁tank	-5522
▁injured	-5523
▁watched	-5524
oh	-5525
osa	-5526
▁Key	-5527
asty	-5528
vest	-5529
▁Down	-5530
▁Point	-5531
iminal	-5532
▁shall	-5533
▁cab	-5534
▁popularity	-5535
Ch	-5536
box	-5537
▁UN	-5538
▁agent	-5539
▁1946	-5540
ologist	-5541
▁composition	-5542
▁Tro	-5543
▁Naz	-5544
▁ign	-5545
ropri	-5546
▁Kentucky	-5547
▁perhaps	-5548
▁Lady	-5549
▁adding	-5550
▁enjoyed	-5551
▁renamed	-5552
▁bor	-5553
▁sand	-5554
▁opinion	-5555
▁Att	-5556
▁isol	-5557
▁getting	-5558
▁declined	-5559
▁fit	-5560
▁compris	-5561
▁reputation	-5562
▁Command	-5563
▁67	-5564
▁Gord	-5565
▁IV	-5566
omic	-5567
▁1981	-5568
▁connected	-5569
▁estate	-5570
▁shaped	-5571
▁retire	-5572
gers	-5573
▁museum	-5574
▁undert	-5575
▁drew	-5576
▁regarding	-5577
▁poem	-5578
▁Olympics	-5579
▁stages	-5580
inking	-5581
▁converted	-5582
worth	-5583
▁1917	-5584
▁views	-5585
▁Nap	-5586
▁Beyoncé	-5587
▁rend	-5588
heim	-5589
▁lov	-5590
▁nor	-5591
itors	-5592
onder	-5593
▁Indust	-5594
ceived	-5595
▁agricult	-5596
istan	-5597
▁allows	-5598
ua	-5599
onym	-5600
ador	-5601
▁Station	-5602
▁Colonel	-5603
▁distingu	-5604
▁alternative	-5605
atre	-5606
achusetts	-5607
▁Inc	-5608
▁Upon	-5609
▁calc	-5610
▁Norway	-5611
ulpt	-5612
According	-5613
▁headed	-5614
▁nick	-5615
▁journey	-5616
rin	-5617
▁Ken	-5618
▁depth	-5619
bound	-5620
▁missing	-5621
▁increasingly	-5622
avel	-5623
▁cited	-5624
osl	-5625
verse	-5626
▁Ly	-5627
▁Independ	-5628
▁Massachusetts	-5629
▁sun	-5630
▁stadium	-5631
▁approached	-5632
rets	-5633
▁turning	-5634
▁Mos	-5635
▁68	-5636
▁Fair	-5637
▁Greg	-5638
▁Airport	-5639
▁responded	-5640
▁72	-5641
▁planning	-5642
▁easily	-5643
▁knowledge	-5644
▁exerc	-5645
▁wealth	-5646
oir	-5647
enc	-5648
▁96	-5649
▁overl	-5650
▁Base	-5651
▁Spring	-5652
▁cells	-5653
▁fashion	-5654
▁escort	-5655
▁Philipp	-5656
▁succeeded	-5657
athan	-5658
eper	-5659
ules	-5660
▁1948	-5661
▁equal	-5662
▁160	-5663
psons	-5664
▁collected	-5665
rett	-5666
▁Abb	-5667
▁Women	-5668
▁safety	-5669
▁Kir	-5670
▁existence	-5671
▁constitution	-5672
▁rebu	-5673
▁Golden	-5674
ilding	-5675
▁auth	-5676
▁Dream	-5677
ignment	-5678
▁Simpsons	-5679
▁introduction	-5680
▁models	-5681
era	-5682
▁occas	-5683
▁Only	-5684
▁sustained	-5685
▁Sand	-5686
▁trip	-5687
▁Mas	-5688
▁Ten	-5689
▁learned	-5690
▁colle	-5691
unicip	-5692
▁700	-5693
▁promotion	-5694
▁tall	-5695
▁operating	-5696
apes	-5697
▁carrying	-5698
▁baseball	-5699
ii	-5700
▁exchange	-5701
istol	-5702
▁showing	-5703
▁rhy	-5704
▁Prem	-5705
▁limit	-5706
▁buried	-5707
▁youth	-5708
wise	-5709
▁humans	-5710
▁1978	-5711
mitted	-5712
▁credited	-5713
come	-5714
▁87	-5715
▁Whit	-5716
uration	-5717
leton	-5718
▁Ross	-5719
▁depend	-5720
▁flu	-5721
▁pul	-5722
▁arranged	-5723
▁improve	-5724
zen	-5725
▁seems	-5726
▁Walk	-5727
▁weakened	-5728
▁Imperial	-5729
▁designs	-5730
▁Main	-5731
▁impl	-5732
ba	-5733
▁hydro	-5734
▁1915	-5735
▁Ottoman	-5736
▁proceed	-5737
inary	-5738
▁joint	-5739
▁athlet	-5740
▁producing	-5741
hat	-5742
iat	-5743
▁Bern	-5744
▁paint	-5745
▁freeway	-5746
▁earliest	-5747
▁lasted	-5748
▁Vietnam	-5749
▁landfall	-5750
▁settlement	-5751
▁Sus	-5752
▁Songs	-5753
▁note	-5754
gal	-5755
▁description	-5756
▁Among	-5757
▁retained	-5758
▁acres	-5759
state	-5760
▁Cape	-5761
icks	-5762
▁69	-5763
▁Han	-5764
▁laws	-5765
▁appoint	-5766
▁flat	-5767
▁genre	-5768
For	-5769
▁Poland	-5770
▁Sydney	-5771
▁bed	-5772
ivalent	-5773
▁programs	-5774
▁Gra	-5775
▁assistant	-5776
▁1977	-5777
eman	-5778
▁replace	-5779
▁78	-5780
▁ton	-5781
put	-5782
▁Ron	-5783
▁install	-5784
▁reserve	-5785
▁Hart	-5786
▁playoff	-5787
▁statement	-5788
▁applied	-5789
ivered	-5790
ources	-5791
▁Naval	-5792
issance	-5793
iling	-5794
▁Ob	-5795
▁violence	-5796
▁Ball	-5797
insula	-5798
▁scientific	-5799
▁Pict	-5800
▁coastal	-5801
ato	-5802
▁consc	-5803
▁trust	-5804
iform	-5805
▁entrance	-5806
▁err	-5807
▁virt	-5808
▁catch	-5809
otic	-5810
▁hits	-5811
▁neut	-5812
▁consequ	-5813
án	-5814
eor	-5815
osis	-5816
▁aw	-5817
othes	-5818
bell	-5819
iege	-5820
reets	-5821
▁exclus	-5822
▁maintain	-5823
▁items	-5824
▁battery	-5825
▁candidate	-5826
▁1963	-5827
▁indicated	-5828
▁91	-5829
▁Plan	-5830
▁towns	-5831
tical	-5832
▁sculpt	-5833
▁gradually	-5834
ader	-5835
▁Arts	-5836
▁distribution	-5837
▁politics	-5838
▁Who	-5839
▁synt	-5840
▁delivered	-5841
math	-5842
▁1916	-5843
▁MTV	-5844
avig	-5845
▁stopped	-5846
eler	-5847
▁filled	-5848
▁independence	-5849
engers	-5850
▁sections	-5851
han	-5852
▁Imp	-5853
▁details	-5854
▁stream	-5855
▁Bowl	-5856
▁Stew	-5857
▁Ka	-5858
▁Due	-5859
▁tact	-5860
dd	-5861
oard	-5862
apped	-5863
▁94	-5864
▁combination	-5865
iger	-5866
onia	-5867
▁select	-5868
▁supplies	-5869
▁Jes	-5870
▁ways	-5871
▁AD	-5872
time	-5873
▁cinem	-5874
▁Maryland	-5875
▁Confeder	-5876
▁parties	-5877
▁engines	-5878
eke	-5879
▁emp	-5880
▁camera	-5881
▁prisoners	-5882
▁Let	-5883
▁glass	-5884
▁Roy	-5885
▁appeal	-5886
▁Sel	-5887
▁aware	-5888
▁Stadium	-5889
▁register	-5890
ads	-5891
ira	-5892
▁campus	-5893
▁1919	-5894
▁bask	-5895
▁acts	-5896
ushing	-5897
▁van	-5898
emies	-5899
▁extremely	-5900
▁entitled	-5901
ora	-5902
▁Bal	-5903
▁1962	-5904
▁secure	-5905
izations	-5906
▁alle	-5907
▁Nick	-5908
▁Once	-5909
▁finding	-5910
He	-5911
lee	-5912
▁98	-5913
▁decade	-5914
▁online	-5915
▁ty	-5916
▁Moore	-5917
rell	-5918
poration	-5919
iversary	-5920
▁Edu	-5921
▁Meanwhile	-5922
ella	-5923
▁winner	-5924
idden	-5925
▁81	-5926
GN	-5927
lan	-5928
▁evening	-5929
inois	-5930
▁investigation	-5931
▁Var	-5932
eless	-5933
▁Ca	-5934
▁tick	-5935
▁Review	-5936
▁bought	-5937
▁threatened	-5938
▁Ha	-5939
▁Theatre	-5940
▁message	-5941
▁adapted	-5942
▁71	-5943
▁survived	-5944
▁knots	-5945
▁somew	-5946
▁McG	-5947
▁uns	-5948
▁studied	-5949
▁1938	-5950
▁Rhodes	-5951
▁proposal	-5952
rec	-5953
▁writes	-5954
▁tal	-5955
▁arc	-5956
▁deaths	-5957
▁address	-5958
ender	-5959
▁ruled	-5960
▁routes	-5961
▁regiment	-5962
▁consum	-5963
▁download	-5964
▁wars	-5965
ashed	-5966
▁relief	-5967
▁males	-5968
▁fear	-5969
▁Jay	-5970
▁reduce	-5971
▁religion	-5972
▁Bos	-5973
▁voted	-5974
ieval	-5975
▁Mulder	-5976
▁specifically	-5977
▁spons	-5978
▁revolution	-5979
ropol	-5980
▁Fire	-5981
▁crown	-5982
▁phase	-5983
phoon	-5984
▁kingdom	-5985
▁recalled	-5986
▁portrayed	-5987
▁Cur	-5988
▁fict	-5989
▁89	-5990
ansas	-5991
▁duty	-5992
▁soul	-5993
▁Staff	-5994
▁controversy	-5995
oz	-5996
iques	-5997
ighters	-5998
▁Gordon	-5999
▁implement	-6000
ctions	-6001
▁emerg	-6002
▁causes	-6003
▁Pass	-6004
▁everything	-6005
▁breeding	-6006
▁Ari	-6007
▁references	-6008
▁stret	-6009
ervative	-6010
▁sell	-6011
▁ago	-6012
▁convin	-6013
▁capable	-6014
▁bottom	-6015
▁Bra	-6016
▁importance	-6017
▁teacher	-6018
arp	-6019
ician	-6020
aka	-6021
▁meters	-6022
▁Univers	-6023
▁1956	-6024
▁Run	-6025
▁entry	-6026
▁Memorial	-6027
▁ble	-6028
▁Band	-6029
▁offers	-6030
▁Age	-6031
▁tanks	-6032
senal	-6033
▁82	-6034
▁owner	-6035
▁sufficient	-6036
aints	-6037
▁175	-6038
▁opera	-6039
aked	-6040
▁130	-6041
▁arrested	-6042
entially	-6043
▁admitted	-6044
▁ec	-6045
▁internal	-6046
▁nomination	-6047
▁Rem	-6048
acter	-6049
bourne	-6050
BN	-6051
▁88	-6052
▁AC	-6053
▁et	-6054
▁ban	-6055
chers	-6056
▁crossed	-6057
▁products	-6058
▁climb	-6059
▁corner	-6060
va	-6061
▁Singles	-6062
▁equipped	-6063
▁1936	-6064
▁Loc	-6065
▁installed	-6066
▁concerns	-6067
anean	-6068
▁overse	-6069
▁invited	-6070
▁preced	-6071
▁convoy	-6072
▁ones	-6073
▁starts	-6074
▁principal	-6075
▁interested	-6076
wich	-6077
▁Well	-6078
▁Constant	-6079
▁recommended	-6080
▁conqu	-6081
▁crime	-6082
▁remainder	-6083
adow	-6084
It	-6085
ela	-6086
▁shel	-6087
▁medal	-6088
▁Kong	-6089
▁actual	-6090
▁mort	-6091
▁retreat	-6092
▁UTC	-6093
▁Beach	-6094
ructure	-6095
iller	-6096
▁shut	-6097
▁autom	-6098
▁tell	-6099
hr	-6100
BS	-6101
espread	-6102
▁charged	-6103
▁acid	-6104
▁objects	-6105
▁Justice	-6106
▁Plot	-6107
▁funds	-6108
▁price	-6109
▁Instead	-6110
▁About	-6111
▁apart	-6112
▁Circ	-6113
▁composer	-6114
▁Here	-6115
aug	-6116
▁solid	-6117
▁79	-6118
▁door	-6119
▁Vill	-6120
▁females	-6121
▁consisting	-6122
▁unl	-6123
▁stock	-6124
▁alt	-6125
▁promote	-6126
▁fly	-6127
▁Prof	-6128
▁Your	-6129
▁page	-6130
met	-6131
▁considerable	-6132
▁vent	-6133
ordan	-6134
▁1961	-6135
ilation	-6136
▁dates	-6137
▁milit	-6138
▁Jan	-6139
▁VII	-6140
entions	-6141
▁snow	-6142
▁typical	-6143
▁Kim	-6144
▁Nic	-6145
▁Forest	-6146
▁1953	-6147
ali	-6148
▁grounds	-6149
▁extension	-6150
▁nest	-6151
▁duties	-6152
▁integr	-6153
▁correct	-6154
erted	-6155
▁gall	-6156
▁Bon	-6157
▁Jane	-6158
▁someone	-6159
▁Gram	-6160
▁evolution	-6161
bro	-6162
▁Moon	-6163
▁rural	-6164
▁NBA	-6165
▁eighth	-6166
vements	-6167
▁penal	-6168
▁Nether	-6169
▁decades	-6170
▁hotel	-6171
▁images	-6172
▁Dougl	-6173
▁driving	-6174
▁reading	-6175
rete	-6176
▁Bir	-6177
▁blow	-6178
▁identity	-6179
▁Anth	-6180
ko	-6181
after	-6182
▁Found	-6183
▁occurs	-6184
▁sole	-6185
ati	-6186
▁zone	-6187
osite	-6188
▁Adams	-6189
▁manner	-6190
▁Video	-6191
▁Kennedy	-6192
▁challenge	-6193
▁lane	-6194
▁skin	-6195
▁remix	-6196
▁aspects	-6197
▁Tony	-6198
▁permanent	-6199
▁Indones	-6200
▁brigade	-6201
elson	-6202
▁Sunday	-6203
upt	-6204
▁1947	-6205
▁dated	-6206
▁Coll	-6207
▁spin	-6208
▁Engine	-6209
▁Norwe	-6210
▁frag	-6211
▁volcan	-6212
▁noting	-6213
▁Death	-6214
abb	-6215
▁subs	-6216
▁Maria	-6217
▁restaur	-6218
▁Transport	-6219
▁supporters	-6220
▁Hamilton	-6221
▁slowly	-6222
uro	-6223
▁posted	-6224
▁colour	-6225
hetic	-6226
▁clean	-6227
▁Director	-6228
wick	-6229
▁1958	-6230
▁describing	-6231
▁Cop	-6232
ensus	-6233
▁Indiana	-6234
▁84	-6235
▁involving	-6236
veland	-6237
▁Project	-6238
osaurus	-6239
cknow	-6240
ivals	-6241
▁entering	-6242
▁speak	-6243
▁vessels	-6244
▁McK	-6245
▁1910	-6246
▁enemies	-6247
AT	-6248
▁ham	-6249
▁equivalent	-6250
▁Portug	-6251
▁classes	-6252
▁dress	-6253
aware	-6254
▁debate	-6255
▁settled	-6256
▁obtained	-6257
▁department	-6258
▁Alf	-6259
▁1957	-6260
▁Assembly	-6261
▁1937	-6262
▁accur	-6263
▁Military	-6264
▁aer	-6265
▁Simon	-6266
iley	-6267
▁IGN	-6268
▁armor	-6269
BI	-6270
▁parliament	-6271
▁basic	-6272
▁93	-6273
risis	-6274
▁Alan	-6275
▁Magazine	-6276
▁purchase	-6277
▁songwrit	-6278
regon	-6279
▁Id	-6280
agues	-6281
▁110	-6282
▁patrol	-6283
▁oldest	-6284
▁Prog	-6285
▁faith	-6286
▁din	-6287
▁departure	-6288
▁vir	-6289
▁concerned	-6290
▁widespread	-6291
erto	-6292
▁Scully	-6293
▁income	-6294
▁decline	-6295
▁pup	-6296
▁attached	-6297
▁connection	-6298
▁Cart	-6299
iterr	-6300
▁formal	-6301
▁recognition	-6302
▁folk	-6303
▁certified	-6304
▁accused	-6305
▁Ok	-6306
▁Power	-6307
heastern	-6308
▁Turk	-6309
▁memorial	-6310
▁Constitution	-6311
hus	-6312
▁outer	-6313
▁sequel	-6314
▁derived	-6315
ooth	-6316
▁Mountain	-6317
▁Howard	-6318
cation	-6319
▁mode	-6320
▁deleg	-6321
reck	-6322
▁Weekly	-6323
hered	-6324
nic	-6325
▁Hou	-6326
▁Science	-6327
▁wearing	-6328
▁Adam	-6329
▁decor	-6330
▁Hitler	-6331
▁assumed	-6332
▁Rose	-6333
ommod	-6334
▁disturb	-6335
▁tele	-6336
orney	-6337
▁swim	-6338
▁acclaim	-6339
▁acknow	-6340
▁hip	-6341
▁Cult	-6342
western	-6343
▁Illinois	-6344
aki	-6345
▁hosted	-6346
▁committed	-6347
▁Pit	-6348
ubb	-6349
▁Argent	-6350
▁returns	-6351
▁warm	-6352
▁valley	-6353
▁sessions	-6354
▁populations	-6355
▁torn	-6356
▁foss	-6357
ekend	-6358
▁1959	-6359
agonist	-6360
▁denied	-6361
▁fine	-6362
▁segment	-6363
iterranean	-6364
▁champion	-6365
▁Pear	-6366
▁temple	-6367
▁charges	-6368
▁literary	-6369
icit	-6370
▁thousands	-6371
▁FA	-6372
▁terminus	-6373
▁transition	-6374
▁Ast	-6375
▁regional	-6376
▁supposed	-6377
▁Beatles	-6378
▁cong	-6379
ras	-6380
alog	-6381
▁wickets	-6382
▁Mediterranean	-6383
aret	-6384
iously	-6385
eing	-6386
▁Oregon	-6387
▁86	-6388
▁canc	-6389
▁demand	-6390
ione	-6391
▁Eric	-6392
▁Rolling	-6393
▁Space	-6394
▁WWE	-6395
idges	-6396
▁1955	-6397
▁1954	-6398
▁ISBN	-6399
▁shots	-6400
aired	-6401
▁strongly	-6402
▁Leon	-6403
▁Norwegian	-6404
▁circulation	-6405
▁Po	-6406
▁hang	-6407
▁intelligence	-6408
hedral	-6409
mann	-6410
▁sailed	-6411
▁Research	-6412
▁possibility	-6413
▁passengers	-6414
achel	-6415
udden	-6416
▁animated	-6417
▁generation	-6418
▁hope	-6419
▁Stand	-6420
▁Ryan	-6421
▁Cleveland	-6422
heme	-6423
organ	-6424
▁circum	-6425
uan	-6426
▁fictional	-6427
▁thirty	-6428
▁Douglas	-6429
▁freedom	-6430
▁downtown	-6431
▁commit	-6432
▁Marc	-6433
▁answ	-6434
emed	-6435
ophy	-6436
▁Bry	-6437
borne	-6438
▁Stanley	-6439
▁behavior	-6440
▁Ira	-6441
▁minister	-6442
▁Gun	-6443
▁hill	-6444
▁rich	-6445
▁Jordan	-6446
▁Third	-6447
▁replacement	-6448
▁begun	-6449
▁Lenn	-6450
▁commanded	-6451
▁Treat	-6452
▁Hug	-6453
▁moves	-6454
▁destruction	-6455
▁Gill	-6456
▁cloud	-6457
▁assistance	-6458
▁Media	-6459
▁poly	-6460
▁missions	-6461
▁criminal	-6462
fl	-6463
atinum	-6464
▁brain	-6465
▁costs	-6466
▁Channel	-6467
▁exception	-6468
▁fruit	-6469
▁highlight	-6470
▁missed	-6471
▁bringing	-6472
ez	-6473
rations	-6474
▁tied	-6475
▁crash	-6476
▁Init	-6477
▁intention	-6478
bar	-6479
mes	-6480
▁feeling	-6481
ategy	-6482
▁Pier	-6483
▁speaking	-6484
ipe	-6485
▁Korea	-6486
▁Critical	-6487
▁Feder	-6488
▁protest	-6489
▁unusual	-6490
▁finishing	-6491
▁alleged	-6492
▁Freder	-6493
▁properties	-6494
▁incorporated	-6495
▁demol	-6496
▁Federal	-6497
▁Mexican	-6498
▁intercept	-6499
rophy	-6500
▁Andy	-6501
▁stayed	-6502
▁opposite	-6503
▁attributed	-6504
▁volunte	-6505
▁Iv	-6506
▁emerged	-6507
▁breaking	-6508
▁Fame	-6509
▁serves	-6510
Sp	-6511
▁recovered	-6512
oral	-6513
▁sons	-6514
▁atmosphere	-6515
▁Sky	-6516
elsh	-6517
▁Kat	-6518
▁flo	-6519
▁Bristol	-6520
onto	-6521
▁shop	-6522
▁1952	-6523
▁theatre	-6524
▁chorus	-6525
▁Between	-6526
▁occasionally	-6527
▁Philip	-6528
▁driven	-6529
wan	-6530
othing	-6531
▁Tenn	-6532
▁classic	-6533
▁strateg	-6534
▁ready	-6535
iva	-6536
▁regularly	-6537
▁dipl	-6538
▁effectively	-6539
▁cavalry	-6540
▁establishment	-6541
▁prey	-6542
▁spok	-6543
▁courts	-6544
▁methods	-6545
olec	-6546
riers	-6547
▁sounds	-6548
▁vary	-6549
▁dang	-6550
▁Family	-6551
mb	-6552
ompl	-6553
▁Color	-6554
ker	-6555
oyd	-6556
▁materials	-6557
▁completion	-6558
▁strengthen	-6559
▁1933	-6560
▁shore	-6561
▁superv	-6562
▁divers	-6563
▁responsibility	-6564
enses	-6565
▁Rele	-6566
▁Bruce	-6567
▁Sav	-6568
▁dissip	-6569
▁attracted	-6570
▁surviving	-6571
▁Hawai	-6572
▁fields	-6573
▁176	-6574
▁accommod	-6575
▁warning	-6576
▁province	-6577
oslav	-6578
▁persu	-6579
aire	-6580
▁heat	-6581
▁Low	-6582
▁entertain	-6583
▁dream	-6584
osh	-6585
▁classified	-6586
▁global	-6587
▁divisions	-6588
▁differences	-6589
▁technical	-6590
▁interpret	-6591
thm	-6592
sole	-6593
▁Phill	-6594
lets	-6595
▁Kevin	-6596
ece	-6597
▁cruiser	-6598
▁quant	-6599
▁passage	-6600
isms	-6601
abled	-6602
▁aboard	-6603
lig	-6604
▁1935	-6605
▁clubs	-6606
▁ratings	-6607
▁neither	-6608
▁association	-6609
pet	-6610
▁83	-6611
▁eleven	-6612
▁Rain	-6613
▁stood	-6614
▁musicians	-6615
▁rooms	-6616
▁Bush	-6617
▁Lisa	-6618
▁Norman	-6619
oli	-6620
▁Sweden	-6621
▁reinforce	-6622
aza	-6623
▁none	-6624
▁Gen	-6625
▁desire	-6626
▁climate	-6627
▁separated	-6628
▁1949	-6629
ja	-6630
uty	-6631
▁92	-6632
▁shif	-6633
▁check	-6634
▁outbreak	-6635
nce	-6636
▁classification	-6637
weight	-6638
▁Adv	-6639
▁1951	-6640
▁vehicle	-6641
▁Roger	-6642
▁ancest	-6643
▁seemed	-6644
ran	-6645
▁Disc	-6646
umin	-6647
▁predecess	-6648
▁USA	-6649
night	-6650
▁Today	-6651
▁Tar	-6652
▁Lanc	-6653
▁medic	-6654
▁votes	-6655
▁chemical	-6656
▁Nations	-6657
▁picture	-6658
▁reality	-6659
▁battleships	-6660
▁Morgan	-6661
ji	-6662
teenth	-6663
▁memory	-6664
▁hoped	-6665
▁Arsenal	-6666
▁requested	-6667
▁Az	-6668
▁Morris	-6669
▁Byzantine	-6670
isf	-6671
▁movements	-6672
IA	-6673
▁Five	-6674
▁CE	-6675
▁raise	-6676
▁historians	-6677
▁Master	-6678
▁Television	-6679
omot	-6680
agle	-6681
▁Web	-6682
▁Budd	-6683
▁rose	-6684
▁difficulty	-6685
▁basketball	-6686
Be	-6687
▁Now	-6688
▁Welsh	-6689
▁Finn	-6690
ewhere	-6691
don	-6692
char	-6693
pper	-6694
▁Scient	-6695
▁Premier	-6696
▁Netherlands	-6697
▁communities	-6698
nings	-6699
▁restored	-6700
▁sam	-6701
▁Bah	-6702
▁ille	-6703
▁expect	-6704
▁remember	-6705
▁Robinson	-6706
▁programme	-6707
▁Toronto	-6708
▁Row	-6709
▁Temple	-6710
▁premiere	-6711
inton	-6712
▁delayed	-6713
▁Pur	-6714
burn	-6715
▁relative	-6716
▁pure	-6717
▁discovery	-6718
▁teen	-6719
▁kid	-6720
▁inspiration	-6721
▁greatly	-6722
▁otherwise	-6723
▁Bol	-6724
pping	-6725
▁Jews	-6726
▁Ho	-6727
▁anniversary	-6728
▁vide	-6729
▁injuries	-6730
wen	-6731
▁hol	-6732
▁Nelson	-6733
▁accounts	-6734
▁squ	-6735
▁funding	-6736
▁surrounded	-6737
▁flank	-6738
▁spoke	-6739
▁Ford	-6740
▁praise	-6741
▁Francis	-6742
▁batting	-6743
▁needs	-6744
▁depict	-6745
▁penalty	-6746
▁Ger	-6747
▁partner	-6748
▁massive	-6749
ami	-6750
▁fal	-6751
▁weapon	-6752
▁claiming	-6753
▁1900	-6754
▁dens	-6755
ca	-6756
anny	-6757
▁die	-6758
▁crop	-6759
▁Conc	-6760
▁Iraq	-6761
▁suit	-6762
▁Journal	-6763
▁forming	-6764
▁tries	-6765
▁strategy	-6766
▁Nich	-6767
▁assemb	-6768
▁Anton	-6769
Sh	-6770
▁Int	-6771
RA	-6772
▁astron	-6773
ompson	-6774
▁Additionally	-6775
▁wrong	-6776
▁documentary	-6777
▁Cas	-6778
▁Sax	-6779
▁legend	-6780
▁Patrick	-6781
▁Hell	-6782
▁ru	-6783
▁accompl	-6784
arsh	-6785
▁crosses	-6786
▁Iron	-6787
▁Dog	-6788
▁worst	-6789
▁mo	-6790
yard	-6791
▁fled	-6792
abil	-6793
▁Cab	-6794
▁stands	-6795
▁architecture	-6796
▁temporary	-6797
▁girls	-6798
▁tra	-6799
▁determine	-6800
▁dismissed	-6801
gets	-6802
▁gal	-6803
▁involvement	-6804
CA	-6805
▁Allen	-6806
▁Recording	-6807
uble	-6808
uther	-6809
▁Dean	-6810
▁recru	-6811
▁bombard	-6812
real	-6813
▁sale	-6814
▁plane	-6815
formula	-6816
▁remn	-6817
▁category	-6818
ban	-6819
▁Ba	-6820
ici	-6821
▁Techn	-6822
▁inner	-6823
▁adaptation	-6824
▁convinced	-6825
▁Ak	-6826
▁ensure	-6827
▁Anne	-6828
▁weekend	-6829
▁hear	-6830
▁lat	-6831
▁sight	-6832
▁Centre	-6833
▁somewhat	-6834
▁resources	-6835
19	-6836
▁NFL	-6837
▁Croatian	-6838
▁Pow	-6839
▁Jacob	-6840
▁interests	-6841
going	-6842
▁Armen	-6843
▁ash	-6844
▁reserv	-6845
▁Marine	-6846
▁Profess	-6847
▁medieval	-6848
▁immediate	-6849
▁displ	-6850
▁ha	-6851
▁scheme	-6852
onds	-6853
▁shr	-6854
▁library	-6855
▁streets	-6856
inder	-6857
▁presidential	-6858
▁Bishop	-6859
▁absor	-6860
▁Es	-6861
▁Design	-6862
▁Mit	-6863
▁cul	-6864
▁Nar	-6865
▁consp	-6866
▁falling	-6867
▁ray	-6868
▁colonial	-6869
agre	-6870
▁carbon	-6871
▁Holy	-6872
▁Open	-6873
▁techniques	-6874
▁ninth	-6875
▁Puerto	-6876
▁fighter	-6877
▁Oak	-6878
▁throne	-6879
▁starred	-6880
▁scrap	-6881
▁appropri	-6882
▁classical	-6883
▁Sports	-6884
body	-6885
▁races	-6886
▁academic	-6887
▁Domin	-6888
▁Heart	-6889
ige	-6890
▁eggs	-6891
▁adults	-6892
oster	-6893
▁hal	-6894
▁bright	-6895
▁passenger	-6896
▁Again	-6897
▁surviv	-6898
▁commemor	-6899
▁DE	-6900
▁loyal	-6901
▁ow	-6902
▁Islam	-6903
▁photograph	-6904
▁ori	-6905
▁meets	-6906
itzer	-6907
▁Glob	-6908
▁lake	-6909
This	-6910
edding	-6911
▁premiered	-6912
▁submarine	-6913
▁PA	-6914
▁Network	-6915
▁reviewer	-6916
▁Hungarian	-6917
usic	-6918
▁absence	-6919
▁Raj	-6920
▁seeing	-6921
▁Trib	-6922
▁fitted	-6923
▁renew	-6924
▁Brother	-6925
▁superior	-6926
icide	-6927
wealth	-6928
▁else	-6929
▁sed	-6930
▁alien	-6931
▁engineer	-6932
▁favorite	-6933
▁Matthew	-6934
▁interior	-6935
▁Dig	-6936
osure	-6937
▁Carter	-6938
ronze	-6939
▁1913	-6940
▁Russell	-6941
▁airport	-6942
▁ic	-6943
▁partn	-6944
▁deemed	-6945
▁Shortly	-6946
▁attacking	-6947
▁appearing	-6948
▁visible	-6949
▁Last	-6950
▁conclusion	-6951
tic	-6952
▁dating	-6953
▁romantic	-6954
acent	-6955
▁synthes	-6956
▁dub	-6957
▁characteristics	-6958
▁elections	-6959
▁1926	-6960
▁Niel	-6961
▁leads	-6962
▁Winter	-6963
▁operate	-6964
▁encouraged	-6965
▁facility	-6966
▁afterwards	-6967
▁retirement	-6968
▁landed	-6969
bec	-6970
▁colony	-6971
▁temperatures	-6972
utt	-6973
▁convection	-6974
▁Arn	-6975
▁everyone	-6976
▁Marg	-6977
▁1927	-6978
▁municip	-6979
▁suffering	-6980
▁credit	-6981
▁Library	-6982
▁legislation	-6983
▁Hop	-6984
▁lies	-6985
▁modified	-6986
▁1921	-6987
▁rum	-6988
▁Mars	-6989
▁holds	-6990
▁06	-6991
using	-6992
▁painted	-6993
▁NC	-6994
▁controversial	-6995
▁Front	-6996
▁Labor	-6997
▁gone	-6998
asure	-6999
▁doct	-7000
▁Kelly	-7001
▁wings	-7002
▁1934	-7003
▁believes	-7004
▁Dick	-7005
ossible	-7006
▁Similar	-7007
▁distributed	-7008
oming	-7009
ixon	-7010
▁attempting	-7011
rad	-7012
ogen	-7013
▁Bang	-7014
▁code	-7015
urches	-7016
roit	-7017
▁Hend	-7018
▁standards	-7019
▁pin	-7020
▁rescue	-7021
▁looked	-7022
▁authors	-7023
ivan	-7024
▁secured	-7025
▁Thompson	-7026
▁depicted	-7027
▁Gard	-7028
▁cancer	-7029
▁monarch	-7030
▁dominated	-7031
▁Dor	-7032
▁battleship	-7033
Despite	-7034
▁habitat	-7035
▁anyone	-7036
▁continuing	-7037
oen	-7038
▁buy	-7039
▁judge	-7040
▁Palace	-7041
ester	-7042
▁longest	-7043
coming	-7044
▁Berlin	-7045
apse	-7046
vens	-7047
▁DNA	-7048
scape	-7049
▁Wright	-7050
pson	-7051
▁Harris	-7052
▁biggest	-7053
▁1912	-7054
▁unsuccessful	-7055
ito	-7056
ses	-7057
emet	-7058
▁grass	-7059
▁chairman	-7060
▁graphics	-7061
▁Whe	-7062
▁Education	-7063
mun	-7064
anth	-7065
▁archae	-7066
▁trained	-7067
▁Sn	-7068
▁Wy	-7069
▁union	-7070
▁Cooper	-7071
▁Commonwealth	-7072
▁Pak	-7073
▁pound	-7074
ugoslav	-7075
▁900	-7076
▁wins	-7077
▁sudden	-7078
▁arrangement	-7079
▁USS	-7080
ultane	-7081
aser	-7082
▁carrier	-7083
▁Every	-7084
▁Jam	-7085
▁neck	-7086
pon	-7087
ache	-7088
chang	-7089
▁railroad	-7090
encies	-7091
▁nickn	-7092
▁1932	-7093
▁jump	-7094
ternal	-7095
▁acknowled	-7096
igration	-7097
▁Houston	-7098
▁Der	-7099
▁informed	-7100
▁Nob	-7101
▁Indians	-7102
▁measures	-7103
inals	-7104
rait	-7105
eenth	-7106
▁Free	-7107
▁Hospital	-7108
▁representing	-7109
▁map	-7110
▁san	-7111
▁Story	-7112
emetery	-7113
▁Rick	-7114
apping	-7115
▁releases	-7116
▁belt	-7117
▁Advent	-7118
atically	-7119
▁AI	-7120
▁Santa	-7121
▁Commander	-7122
▁Police	-7123
▁achieve	-7124
▁Corporation	-7125
har	-7126
▁garrison	-7127
▁RAAF	-7128
▁sees	-7129
▁Batman	-7130
eline	-7131
▁formerly	-7132
uster	-7133
▁Swedish	-7134
▁generated	-7135
▁grade	-7136
▁convention	-7137
▁closer	-7138
▁deployed	-7139
▁styles	-7140
▁emergency	-7141
book	-7142
ture	-7143
▁bats	-7144
▁Parker	-7145
otes	-7146
tenance	-7147
▁alleg	-7148
▁questions	-7149
aska	-7150
▁gets	-7151
▁trials	-7152
▁moderate	-7153
opes	-7154
▁festival	-7155
po	-7156
▁molec	-7157
▁siege	-7158
▁historic	-7159
▁influential	-7160
rant	-7161
▁Gri	-7162
▁cycle	-7163
▁emotional	-7164
▁Tok	-7165
▁Simpson	-7166
▁veter	-7167
▁Yugoslav	-7168
fare	-7169
▁novels	-7170
▁owners	-7171
▁Ut	-7172
hire	-7173
▁successor	-7174
▁influences	-7175
▁narrative	-7176
▁Thus	-7177
yo	-7178
lyn	-7179
olph	-7180
▁NBC	-7181
▁Yan	-7182
▁Detroit	-7183
▁thin	-7184
▁journalist	-7185
▁1929	-7186
▁childhood	-7187
▁experiences	-7188
otype	-7189
▁excess	-7190
aws	-7191
▁stead	-7192
iography	-7193
▁constant	-7194
▁defended	-7195
▁discussed	-7196
▁legs	-7197
▁apparently	-7198
▁Get	-7199
▁pregn	-7200
owa	-7201
▁alco	-7202
▁instruments	-7203
▁Gh	-7204
▁mathem	-7205
▁08	-7206
▁1911	-7207
▁assass	-7208
▁treated	-7209
▁victims	-7210
ais	-7211
▁environmental	-7212
▁eat	-7213
▁Murray	-7214
▁veget	-7215
▁executed	-7216
▁giant	-7217
▁Spe	-7218
▁detail	-7219
▁Ele	-7220
▁coins	-7221
PA	-7222
▁Ey	-7223
▁diplom	-7224
▁ster	-7225
▁offices	-7226
fire	-7227
▁RAF	-7228
arked	-7229
▁factors	-7230
▁1931	-7231
▁depos	-7232
▁Cry	-7233
▁1922	-7234
▁mine	-7235
▁140	-7236
imore	-7237
▁hunting	-7238
▁enters	-7239
▁wooden	-7240
rum	-7241
▁Od	-7242
▁concur	-7243
▁bear	-7244
achment	-7245
noon	-7246
▁Bure	-7247
▁Warner	-7248
▁hundreds	-7249
▁Est	-7250
usted	-7251
▁Belg	-7252
▁maint	-7253
▁Croatia	-7254
▁Roberts	-7255
▁Asian	-7256
▁resigned	-7257
▁ride	-7258
▁Cook	-7259
▁Bou	-7260
▁skills	-7261
▁channel	-7262
aft	-7263
▁reveals	-7264
▁uniform	-7265
aste	-7266
▁gay	-7267
lie	-7268
▁ocean	-7269
▁Social	-7270
▁chapter	-7271
▁pointed	-7272
▁navig	-7273
▁09	-7274
From	-7275
▁ridge	-7276
▁Silver	-7277
▁enh	-7278
▁Xbox	-7279
▁spend	-7280
▁watching	-7281
▁Category	-7282
▁prevented	-7283
stances	-7284
▁Gaga	-7285
▁Construction	-7286
▁Hin	-7287
▁Lyn	-7288
▁Obs	-7289
▁clim	-7290
iliar	-7291
▁preferred	-7292
rees	-7293
▁Merc	-7294
▁Melbourne	-7295
▁pushed	-7296
agu	-7297
▁Jesus	-7298
▁Spears	-7299
▁format	-7300
▁Acc	-7301
▁locomot	-7302
▁languages	-7303
▁Knight	-7304
▁footage	-7305
▁happened	-7306
▁difference	-7307
One	-7308
▁flew	-7309
▁drums	-7310
▁formally	-7311
▁opponents	-7312
▁thereafter	-7313
▁Mort	-7314
▁facing	-7315
▁reportedly	-7316
▁Nielsen	-7317
▁resign	-7318
▁relationships	-7319
elle	-7320
▁Vice	-7321
▁intense	-7322
▁thousand	-7323
▁handed	-7324
▁Muslim	-7325
▁device	-7326
▁notably	-7327
▁pull	-7328
icians	-7329
ogether	-7330
▁firing	-7331
▁Anthony	-7332
▁animation	-7333
▁Carib	-7334
▁chain	-7335
▁inhabit	-7336
▁existed	-7337
▁visitors	-7338
▁PC	-7339
text	-7340
tty	-7341
▁gather	-7342
▁vision	-7343
▁surrender	-7344
▁Express	-7345
▁employees	-7346
▁Cru	-7347
▁Tower	-7348
▁Somers	-7349
▁Princess	-7350
orous	-7351
▁accompany	-7352
▁bon	-7353
una	-7354
▁Turkish	-7355
resent	-7356
▁Jason	-7357
▁linked	-7358
▁departed	-7359
▁Chamber	-7360
▁exposed	-7361
▁participate	-7362
▁hearing	-7363
▁boil	-7364
▁poetry	-7365
▁Modern	-7366
▁Albums	-7367
onies	-7368
▁dialogue	-7369
▁Clinton	-7370
ois	-7371
▁Atlant	-7372
▁extent	-7373
spec	-7374
ching	-7375
bean	-7376
▁announce	-7377
▁detailed	-7378
▁Evans	-7379
▁Stewart	-7380
uv	-7381
▁Greece	-7382
▁substantial	-7383
▁170	-7384
▁learning	-7385
▁audio	-7386
▁instance	-7387
▁universe	-7388
▁rebell	-7389
▁cruisers	-7390
▁residential	-7391
▁beach	-7392
▁Queens	-7393
▁Austria	-7394
▁Baltimore	-7395
ropolitan	-7396
▁impressed	-7397
▁Pope	-7398
alo	-7399
▁bes	-7400
▁Samuel	-7401
▁Gilbert	-7402
▁periods	-7403
▁FI	-7404
endment	-7405
prise	-7406
▁huge	-7407
▁Colorado	-7408
iens	-7409
DS	-7410
uts	-7411
orage	-7412
▁publisher	-7413
▁Around	-7414
raph	-7415
▁Lev	-7416
ullivan	-7417
▁taught	-7418
hatt	-7419
▁easy	-7420
▁Foundation	-7421
aria	-7422
▁afternoon	-7423
▁util	-7424
▁plate	-7425
▁enthus	-7426
▁Tal	-7427
▁Lane	-7428
stic	-7429
▁fil	-7430
▁territories	-7431
▁driver	-7432
▁stem	-7433
▁testing	-7434
▁videos	-7435
▁imprison	-7436
▁reviewers	-7437
itter	-7438
▁Late	-7439
phy	-7440
▁05	-7441
▁happy	-7442
▁tests	-7443
▁Author	-7444
iami	-7445
▁upd	-7446
▁tempor	-7447
▁hat	-7448
▁understand	-7449
▁teeth	-7450
oys	-7451
unes	-7452
▁ske	-7453
▁sky	-7454
▁1928	-7455
▁isolated	-7456
▁negotiations	-7457
mad	-7458
▁vessel	-7459
▁feud	-7460
▁Lennon	-7461
▁stable	-7462
▁diameter	-7463
▁inher	-7464
▁vul	-7465
ribed	-7466
▁sympt	-7467
▁agents	-7468
▁picked	-7469
▁Within	-7470
▁reprodu	-7471
▁liqu	-7472
raf	-7473
umph	-7474
▁mart	-7475
▁bridges	-7476
▁encountered	-7477
▁Raw	-7478
▁goods	-7479
▁Chronic	-7480
▁factor	-7481
▁Li	-7482
▁1925	-7483
▁diagn	-7484
▁teamm	-7485
▁junior	-7486
▁withdrew	-7487
▁aged	-7488
▁founder	-7489
▁simultane	-7490
▁Guy	-7491
▁dangerous	-7492
▁sleep	-7493
▁normally	-7494
▁upgraded	-7495
ogan	-7496
▁reun	-7497
▁Release	-7498
▁Giants	-7499
▁keeping	-7500
▁Ult	-7501
▁behavi	-7502
▁specimens	-7503
ican	-7504
orial	-7505
▁Stock	-7506
▁pounds	-7507
roke	-7508
▁Heavy	-7509
▁medium	-7510
▁satell	-7511
▁window	-7512
icop	-7513
▁frequent	-7514
oto	-7515
▁lob	-7516
▁1890	-7517
▁sure	-7518
▁relie	-7519
▁Ark	-7520
▁tie	-7521
etime	-7522
▁ethnic	-7523
▁lowest	-7524
▁partly	-7525
▁Horse	-7526
▁crisis	-7527
▁collaps	-7528
▁Championships	-7529
▁resear	-7530
▁engineering	-7531
rim	-7532
▁toll	-7533
mission	-7534
▁Malays	-7535
▁Real	-7536
▁x	-7537
▁traveled	-7538
▁1924	-7539
▁Anglo	-7540
▁apprec	-7541
▁Wrestling	-7542
▁organizations	-7543
▁whereas	-7544
▁proced	-7545
▁prohib	-7546
▁Miami	-7547
▁designer	-7548
▁lose	-7549
▁rarely	-7550
▁refers	-7551
sea	-7552
lock	-7553
amese	-7554
▁Desc	-7555
▁diet	-7556
▁Organ	-7557
▁Track	-7558
▁doesn	-7559
▁turrets	-7560
▁technique	-7561
▁Mun	-7562
▁tone	-7563
▁outf	-7564
▁Sarah	-7565
▁deter	-7566
▁Horn	-7567
▁spending	-7568
▁Benn	-7569
▁Player	-7570
▁finale	-7571
▁mir	-7572
▁Somerset	-7573
▁criticised	-7574
▁vice	-7575
▁advice	-7576
zy	-7577
▁vic	-7578
borough	-7579
▁permission	-7580
rik	-7581
▁Trek	-7582
▁maintenance	-7583
nest	-7584
usal	-7585
▁Frederick	-7586
▁insc	-7587
▁platinum	-7588
roc	-7589
▁uncertain	-7590
▁difficulties	-7591
▁underw	-7592
▁policies	-7593
▁partially	-7594
abama	-7595
▁bypass	-7596
ennis	-7597
▁agree	-7598
▁verse	-7599
▁Unlike	-7600
▁restric	-7601
▁compete	-7602
▁complic	-7603
▁mainstream	-7604
▁Edd	-7605
▁fur	-7606
▁Bird	-7607
▁Treaty	-7608
▁indicate	-7609
▁ranking	-7610
▁personality	-7611
iece	-7612
▁recordings	-7613
▁ca	-7614
olas	-7615
uscript	-7616
▁comments	-7617
▁Wing	-7618
▁persp	-7619
▁excell	-7620
▁proport	-7621
▁Marshall	-7622
inction	-7623
▁Forces	-7624
▁remove	-7625
helm	-7626
▁finals	-7627
▁Caribbean	-7628
▁Nevertheless	-7629
▁refuge	-7630
▁anticip	-7631
igen	-7632
▁Mario	-7633
ologists	-7634
▁Bab	-7635
▁concerts	-7636
▁ax	-7637
▁safe	-7638
▁chronic	-7639
igs	-7640
ilst	-7641
ygen	-7642
▁seats	-7643
▁windows	-7644
gery	-7645
▁Seattle	-7646
▁Bed	-7647
▁unn	-7648
urance	-7649
▁restrict	-7650
oked	-7651
▁falls	-7652
▁rates	-7653
attered	-7654
▁recommend	-7655
▁Know	-7656
▁strip	-7657
▁extreme	-7658
▁fighters	-7659
▁honour	-7660
▁pitched	-7661
▁repair	-7662
▁1923	-7663
▁covers	-7664
▁Cz	-7665
rior	-7666
▁recur	-7667
▁representative	-7668
iy	-7669
rain	-7670
▁Lim	-7671
▁symp	-7672
▁Canal	-7673
▁divor	-7674
▁Yanke	-7675
▁Hans	-7676
▁moral	-7677
▁monument	-7678
▁jur	-7679
▁mamm	-7680
▁alter	-7681
▁tenth	-7682
▁truth	-7683
▁prompted	-7684
aya	-7685
▁phen	-7686
▁phr	-7687
▁brand	-7688
▁describe	-7689
▁Ts	-7690
▁hockey	-7691
▁Aud	-7692
▁Iowa	-7693
▁forcing	-7694
▁tot	-7695
▁Thor	-7696
away	-7697
▁destroyers	-7698
chell	-7699
▁Mississ	-7700
▁minimum	-7701
▁Crown	-7702
▁shear	-7703
All	-7704
▁reconst	-7705
▁Buck	-7706
▁churches	-7707
▁neighborhood	-7708
▁diff	-7709
▁friendly	-7710
▁hull	-7711
▁overs	-7712
▁examples	-7713
▁boys	-7714
▁bases	-7715
▁Township	-7716
30	-7717
▁drawing	-7718
▁Anna	-7719
iac	-7720
power	-7721
▁Bros	-7722
▁travelled	-7723
▁Garden	-7724
▁bombers	-7725
▁pric	-7726
▁Jess	-7727
▁tub	-7728
▁dynasty	-7729
▁Alabama	-7730
▁adjacent	-7731
xual	-7732
▁inaug	-7733
▁doctor	-7734
▁housing	-7735
▁displayed	-7736
isd	-7737
▁approval	-7738
▁Hungary	-7739
▁Ministry	-7740
ls	-7741
rot	-7742
▁07	-7743
▁credits	-7744
▁USD	-7745
▁Senator	-7746
▁creator	-7747
▁Ot	-7748
ohn	-7749
▁grown	-7750
▁joining	-7751
▁listing	-7752
▁tribute	-7753
▁Lawrence	-7754
▁Australians	-7755
olis	-7756
▁Grammy	-7757
▁collapse	-7758
▁partnership	-7759
FC	-7760
▁Minnes	-7761
▁protagonist	-7762
▁Buff	-7763
▁Nazi	-7764
▁ML	-7765
▁Diego	-7766
▁changing	-7767
anz	-7768
▁acted	-7769
▁moments	-7770
▁creative	-7771
▁designation	-7772
▁explo	-7773
▁powered	-7774
▁copy	-7775
alions	-7776
▁Country	-7777
ugby	-7778
▁Hamp	-7779
▁fung	-7780
▁asks	-7781
▁refere	-7782
onnaissance	-7783
ES	-7784
▁grav	-7785
anium	-7786
▁Human	-7787
▁trend	-7788
▁radar	-7789
▁storms	-7790
▁villages	-7791
▁instrumental	-7792
▁Dave	-7793
▁turb	-7794
▁Napole	-7795
▁appointment	-7796
▁arts	-7797
▁Belgium	-7798
▁dollars	-7799
▁Sab	-7800
▁orb	-7801
▁treaty	-7802
▁Dance	-7803
▁scientists	-7804
▁1905	-7805
▁advis	-7806
icy	-7807
velt	-7808
▁canal	-7809
▁possession	-7810
col	-7811
jamin	-7812
▁rounds	-7813
▁survive	-7814
▁victories	-7815
▁paintings	-7816
▁eliminated	-7817
▁covering	-7818
▁mand	-7819
MA	-7820
▁MP	-7821
imeter	-7822
ounced	-7823
▁Guardian	-7824
▁1908	-7825
▁truck	-7826
▁Charlie	-7827
▁minimal	-7828
▁ju	-7829
▁orbit	-7830
▁Health	-7831
uda	-7832
▁els	-7833
▁precip	-7834
▁telling	-7835
▁elsewhere	-7836
▁1909	-7837
▁newspapers	-7838
▁benefit	-7839
▁surprise	-7840
▁innov	-7841
▁Legacy	-7842
▁seeking	-7843
▁arriving	-7844
▁Medal	-7845
▁helping	-7846
icts	-7847
▁Hockey	-7848
▁Vietnamese	-7849
▁occupation	-7850
▁CR	-7851
mers	-7852
▁wheel	-7853
▁suicide	-7854
▁rhythm	-7855
▁purposes	-7856
▁values	-7857
▁dispute	-7858
idi	-7859
ods	-7860
ivated	-7861
▁occasions	-7862
ogy	-7863
▁ped	-7864
otten	-7865
▁unlike	-7866
▁loan	-7867
▁smooth	-7868
▁Cre	-7869
ecraft	-7870
▁twin	-7871
itud	-7872
▁pool	-7873
rupted	-7874
▁option	-7875
▁gard	-7876
active	-7877
▁Along	-7878
▁Hills	-7879
▁manuscript	-7880
▁fishing	-7881
▁struggle	-7882
hattan	-7883
▁marry	-7884
atus	-7885
▁soil	-7886
▁McD	-7887
▁Shakesp	-7888
▁Roc	-7889
▁Blood	-7890
forced	-7891
▁brick	-7892
▁wet	-7893
▁murd	-7894
osevelt	-7895
ouri	-7896
▁balance	-7897
▁Mach	-7898
▁degrees	-7899
▁Banks	-7900
▁gat	-7901
▁Call	-7902
▁preserved	-7903
▁schedule	-7904
chen	-7905
ographical	-7906
▁Hand	-7907
▁Children	-7908
▁Represent	-7909
▁Cold	-7910
▁DC	-7911
▁Hud	-7912
▁Peninsula	-7913
li	-7914
▁publicly	-7915
▁Ext	-7916
▁categ	-7917
▁cryst	-7918
atherine	-7919
▁1907	-7920
▁violent	-7921
▁cooper	-7922
▁candidates	-7923
▁resumed	-7924
iders	-7925
▁flash	-7926
▁emperor	-7927
▁neighbour	-7928
▁Dead	-7929
▁pilots	-7930
▁wedding	-7931
▁competed	-7932
▁Trust	-7933
▁survivors	-7934
▁Ra	-7935
roid	-7936
munition	-7937
▁Minnesota	-7938
▁125	-7939
▁Manhattan	-7940
▁abilities	-7941
rows	-7942
sters	-7943
▁105	-7944
inally	-7945
▁dies	-7946
▁procl	-7947
▁neutral	-7948
▁164	-7949
overs	-7950
▁discip	-7951
▁Administ	-7952
incial	-7953
▁intensified	-7954
▁span	-7955
▁beautiful	-7956
▁impossible	-7957
▁alignment	-7958
entional	-7959
▁teaching	-7960
Re	-7961
acle	-7962
▁coordin	-7963
▁Khan	-7964
▁defeating	-7965
▁Ian	-7966
▁argument	-7967
▁Then	-7968
▁advoc	-7969
▁multi	-7970
▁wrest	-7971
▁assisted	-7972
▁cook	-7973
▁custom	-7974
▁concrete	-7975
▁poison	-7976
▁lists	-7977
▁electronic	-7978
▁consult	-7979
▁helicop	-7980
▁nations	-7981
▁Dur	-7982
oking	-7983
▁grey	-7984
▁Industry	-7985
▁prosp	-7986
▁Roosevelt	-7987
enh	-7988
▁Kansas	-7989
▁rivers	-7990
▁serial	-7991
▁lem	-7992
▁absol	-7993
▁opponent	-7994
▁assists	-7995
▁interesting	-7996
▁Alfred	-7997
▁foundation	-7998
▁agricultural	-7999
▁Hotel	-8000
▁elabor	-8001
▁Franklin	-8002
▁businesses	-8003
ensions	-8004
▁suitable	-8005
▁simpl	-8006
mith	-8007
rome	-8008
▁backing	-8009
▁overt	-8010
▁1880	-8011
▁Camer	-8012
▁submitted	-8013
▁danc	-8014
▁tunnel	-8015
▁signing	-8016
eare	-8017
▁mines	-8018
▁fifteen	-8019
▁Mississipp	-8020
▁understanding	-8021
bra	-8022
▁Ll	-8023
▁Op	-8024
ilty	-8025
▁Polit	-8026
▁oxygen	-8027
▁scholar	-8028
▁Benjamin	-8029
▁encounter	-8030
obile	-8031
▁symptoms	-8032
▁citing	-8033
▁waves	-8034
▁behalf	-8035
▁165	-8036
▁Hind	-8037
▁sunk	-8038
▁Satur	-8039
▁percentage	-8040
itated	-8041
▁Christopher	-8042
mph	-8043
ulating	-8044
▁forests	-8045
▁parish	-8046
eu	-8047
▁Nat	-8048
▁Laure	-8049
▁situated	-8050
▁spiritual	-8051
To	-8052
odore	-8053
▁forty	-8054
▁ninet	-8055
▁signs	-8056
▁Portland	-8057
▁Rand	-8058
▁closing	-8059
▁Area	-8060
▁sank	-8061
▁subjects	-8062
ila	-8063
▁ammunition	-8064
isp	-8065
▁voiced	-8066
▁Lin	-8067
▁usual	-8068
▁illness	-8069
▁repairs	-8070
onymous	-8071
▁resolution	-8072
rix	-8073
▁Bull	-8074
▁AR	-8075
▁Blues	-8076
▁Ah	-8077
ctic	-8078
▁Flight	-8079
▁Walker	-8080
▁Kurt	-8081
▁Tun	-8082
essee	-8083
▁asking	-8084
▁Building	-8085
▁functions	-8086
▁Shel	-8087
▁Hindu	-8088
▁corpor	-8089
▁disaster	-8090
▁imperial	-8091
▁Throughout	-8092
▁collaboration	-8093
ante	-8094
▁attendance	-8095
▁assess	-8096
▁Aff	-8097
▁lieutenant	-8098
▁restaurant	-8099
alities	-8100
▁audiences	-8101
▁evil	-8102
▁controll	-8103
▁feelings	-8104
▁04	-8105
▁Event	-8106
▁underground	-8107
▁Hong	-8108
▁Interstate	-8109
rams	-8110
▁Michel	-8111
aron	-8112
▁worship	-8113
▁junction	-8114
▁deliber	-8115
▁flights	-8116
▁nom	-8117
father	-8118
▁affairs	-8119
▁suspended	-8120
Since	-8121
▁Div	-8122
▁skull	-8123
▁Hero	-8124
▁Lith	-8125
▁exit	-8126
▁Athlet	-8127
▁Ice	-8128
▁willing	-8129
icer	-8130
▁earthqu	-8131
▁targets	-8132
▁cargo	-8133
▁Beck	-8134
▁Anim	-8135
▁Cole	-8136
▁recre	-8137
ean	-8138
▁1906	-8139
▁affair	-8140
▁funeral	-8141
▁kne	-8142
▁Rang	-8143
▁poorly	-8144
▁Alexand	-8145
▁operational	-8146
asters	-8147
▁abol	-8148
▁measured	-8149
odge	-8150
▁Nash	-8151
▁Ward	-8152
▁documents	-8153
▁Shakespeare	-8154
▁compilation	-8155
▁Fal	-8156
▁aimed	-8157
▁filed	-8158
iveness	-8159
▁pron	-8160
▁registered	-8161
▁VI	-8162
▁360	-8163
uable	-8164
▁circuit	-8165
▁Egyptian	-8166
▁Louisiana	-8167
▁Race	-8168
▁1904	-8169
▁mountains	-8170
sex	-8171
▁lect	-8172
orders	-8173
▁initi	-8174
▁string	-8175
▁Ple	-8176
▁favorable	-8177
▁elder	-8178
▁Tennessee	-8179
▁Philippines	-8180
▁Lam	-8181
▁Native	-8182
▁statue	-8183
▁liked	-8184
▁1870	-8185
▁anch	-8186
▁Kings	-8187
▁recognised	-8188
▁Mississippi	-8189
▁Ban	-8190
▁explosion	-8191
▁Son	-8192
▁adopt	-8193
▁Historic	-8194
▁prol	-8195
▁Campbell	-8196
▁professor	-8197
▁temporarily	-8198
▁entertainment	-8199
Un	-8200
▁represents	-8201
▁Friend	-8202
lah	-8203
▁sector	-8204
▁Depression	-8205
▁Writing	-8206
▁rout	-8207
▁Wolf	-8208
ishment	-8209
▁Labour	-8210
▁Montreal	-8211
▁replacing	-8212
rator	-8213
▁Palest	-8214
▁sequences	-8215
ipped	-8216
▁fifty	-8217
jo	-8218
▁01	-8219
▁jazz	-8220
amps	-8221
▁Rap	-8222
▁wreck	-8223
▁offering	-8224
▁shells	-8225
▁Sullivan	-8226
▁artwork	-8227
inea	-8228
overe	-8229
▁wore	-8230
▁margin	-8231
▁interpre	-8232
▁residence	-8233
ception	-8234
▁preparation	-8235
▁Tag	-8236
▁Brun	-8237
amic	-8238
ifer	-8239
ateur	-8240
species	-8241
eton	-8242
weet	-8243
▁reflected	-8244
▁Hu	-8245
▁wel	-8246
▁reluct	-8247
▁alliance	-8248
▁directors	-8249
▁restoration	-8250
▁prime	-8251
▁Box	-8252
▁expensive	-8253
▁bot	-8254
▁Missouri	-8255
▁Fried	-8256
▁Comb	-8257
▁Vinc	-8258
▁terror	-8259
▁cyl	-8260
▁overw	-8261
issions	-8262
▁touring	-8263
▁Cob	-8264
▁Return	-8265
▁amongst	-8266
zz	-8267
▁alcohol	-8268
▁completing	-8269
▁thinking	-8270
▁Halo	-8271
▁suggesting	-8272
▁py	-8273
▁Wol	-8274
▁Dw	-8275
▁banks	-8276
▁nucle	-8277
▁cancelled	-8278
ylan	-8279
ancell	-8280
artney	-8281
inental	-8282
▁rebuilt	-8283
▁Lad	-8284
bishop	-8285
▁coverage	-8286
▁rig	-8287
atics	-8288
▁horror	-8289
ques	-8290
▁Independent	-8291
arth	-8292
▁Dest	-8293
▁pulled	-8294
▁escaped	-8295
andal	-8296
▁Perform	-8297
▁wasn	-8298
▁Lucas	-8299
▁amounts	-8300
▁decides	-8301
▁Margaret	-8302
dale	-8303
▁erupt	-8304
agen	-8305
▁reven	-8306
▁Stevens	-8307
▁dimens	-8308
▁Steven	-8309
▁lacked	-8310
idel	-8311
ellect	-8312
▁tribes	-8313
uary	-8314
▁cous	-8315
▁Apple	-8316
▁Guide	-8317
▁racing	-8318
▁dramatic	-8319
▁bay	-8320
▁subt	-8321
▁clearly	-8322
▁patterns	-8323
▁communication	-8324
zona	-8325
overeign	-8326
▁predomin	-8327
▁engagement	-8328
▁ownership	-8329
▁Files	-8330
▁argues	-8331
▁familiar	-8332
▁Cuba	-8333
▁frig	-8334
▁marks	-8335
▁garden	-8336
SP	-8337
quir	-8338
face	-8339
▁armored	-8340
▁ben	-8341
▁perspective	-8342
▁colonies	-8343
▁Gab	-8344
▁saved	-8345
▁Indies	-8346
▁drove	-8347
▁contributions	-8348
rm	-8349
▁wicket	-8350
▁cod	-8351
▁merchant	-8352
▁solution	-8353
urally	-8354
▁tru	-8355
▁Persian	-8356
▁fastest	-8357
▁Warren	-8358
▁artistic	-8359
▁administrative	-8360
rage	-8361
▁remnants	-8362
▁playoffs	-8363
unch	-8364
▁print	-8365
▁Mitchell	-8366
▁characterized	-8367
▁Arizona	-8368
▁Czech	-8369
idency	-8370
▁rit	-8371
ieties	-8372
▁boundary	-8373
▁execut	-8374
▁Graham	-8375
▁Tamil	-8376
▁rising	-8377
TA	-8378
Some	-8379
▁crews	-8380
▁kings	-8381
▁militia	-8382
▁severely	-8383
▁institutions	-8384
okes	-8385
▁seed	-8386
orious	-8387
▁false	-8388
▁armament	-8389
rep	-8390
sky	-8391
▁tag	-8392
▁badly	-8393
▁disappoin	-8394
▁depending	-8395
orph	-8396
▁Dal	-8397
▁Mes	-8398
▁retail	-8399
▁flagship	-8400
▁obv	-8401
▁Mack	-8402
▁bulk	-8403
▁Nag	-8404
▁earning	-8405
▁genetic	-8406
▁distinctive	-8407
▁bowling	-8408
no	-8409
▁gang	-8410
▁McL	-8411
▁explains	-8412
▁ranks	-8413
▁recip	-8414
▁Bureau	-8415
▁bronze	-8416
arr	-8417
▁restricted	-8418
▁frust	-8419
▁fallen	-8420
▁ideal	-8421
▁recon	-8422
▁notice	-8423
▁comparison	-8424
▁excav	-8425
▁03	-8426
orer	-8427
▁Kirk	-8428
▁Initially	-8429
▁demonstrated	-8430
▁explain	-8431
▁ranging	-8432
▁Phoen	-8433
▁poems	-8434
▁condem	-8435
▁Saturday	-8436
▁Confederate	-8437
▁controls	-8438
▁inhabitants	-8439
unc	-8440
▁draf	-8441
▁threw	-8442
▁context	-8443
▁inland	-8444
▁riders	-8445
nik	-8446
storm	-8447
▁Edge	-8448
▁arrive	-8449
▁Scout	-8450
cru	-8451
ectic	-8452
mented	-8453
▁practices	-8454
▁Mess	-8455
▁sisters	-8456
▁kW	-8457
▁115	-8458
omber	-8459
▁Grey	-8460
▁Billy	-8461
▁Ku	-8462
▁Joh	-8463
▁quiet	-8464
▁wants	-8465
uations	-8466
▁mental	-8467
▁satisf	-8468
olid	-8469
▁loop	-8470
▁Dragon	-8471
itzerland	-8472
▁conservative	-8473
uki	-8474
rating	-8475
▁wider	-8476
▁electron	-8477
▁maneu	-8478
▁faster	-8479
gate	-8480
▁shield	-8481
▁gap	-8482
▁exclud	-8483
formation	-8484
▁Sony	-8485
▁autob	-8486
▁surge	-8487
erk	-8488
ridge	-8489
▁reaches	-8490
▁spotted	-8491
▁distinguished	-8492
exp	-8493
▁pace	-8494
▁revol	-8495
equ	-8496
▁plus	-8497
▁Dom	-8498
▁Harvey	-8499
▁vulner	-8500
▁evolved	-8501
▁northward	-8502
▁Cow	-8503
ivia	-8504
▁174	-8505
▁acceler	-8506
cho	-8507
▁meat	-8508
anches	-8509
life	-8510
▁Broadway	-8511
▁application	-8512
▁Maur	-8513
itting	-8514
CC	-8515
▁synd	-8516
lahoma	-8517
▁kit	-8518
▁exhibition	-8519
▁millimet	-8520
athy	-8521
▁1901	-8522
▁nominations	-8523
▁agency	-8524
▁quarterback	-8525
▁EP	-8526
▁protein	-8527
▁subspecies	-8528
▁Ring	-8529
▁satellite	-8530
▁gate	-8531
ocking	-8532
▁micro	-8533
▁prepare	-8534
▁dominant	-8535
▁households	-8536
▁palace	-8537
▁predicted	-8538
ta	-8539
ruption	-8540
▁frame	-8541
▁triple	-8542
▁Federation	-8543
otton	-8544
▁slaves	-8545
▁storage	-8546
▁Prior	-8547
▁Micro	-8548
▁Business	-8549
ori	-8550
▁Snow	-8551
▁obtain	-8552
▁Wilhelm	-8553
sequently	-8554
▁tex	-8555
▁1903	-8556
estone	-8557
▁Switzerland	-8558
John	-8559
▁abund	-8560
▁Magn	-8561
▁printed	-8562
▁Austrian	-8563
▁articles	-8564
▁1902	-8565
▁attained	-8566
▁carriers	-8567
▁intellect	-8568
▁repeatedly	-8569
▁fixed	-8570
▁allies	-8571
inations	-8572
▁Program	-8573
▁predecessor	-8574
oga	-8575
▁Hem	-8576
▁spr	-8577
▁stores	-8578
▁Marie	-8579
▁Digital	-8580
▁surgery	-8581
▁vertical	-8582
▁vs	-8583
▁peaking	-8584
acked	-8585
▁vast	-8586
▁ABC	-8587
▁philosophy	-8588
▁Ye	-8589
▁vel	-8590
▁signal	-8591
▁strict	-8592
▁adventure	-8593
▁biographer	-8594
▁155	-8595
▁Lov	-8596
▁blocks	-8597
urer	-8598
▁yield	-8599
▁excellent	-8600
urd	-8601
▁disagre	-8602
▁boss	-8603
▁Mrs	-8604
anton	-8605
▁Dylan	-8606
azing	-8607
▁illegal	-8608
▁phenomen	-8609
asts	-8610
▁Vis	-8611
rine	-8612
▁perceived	-8613
▁Ren	-8614
▁bombs	-8615
▁choose	-8616
▁seriously	-8617
bl	-8618
adi	-8619
rates	-8620
▁Prom	-8621
▁Sin	-8622
▁remarked	-8623
▁westward	-8624
▁apartment	-8625
oven	-8626
agasc	-8627
▁pretty	-8628
▁waiting	-8629
ée	-8630
▁101	-8631
▁Liz	-8632
anian	-8633
▁useful	-8634
▁comfort	-8635
▁Rico	-8636
▁circumstances	-8637
kes	-8638
▁thor	-8639
aughters	-8640
▁curren	-8641
riptions	-8642
lings	-8643
ihanna	-8644
▁surrend	-8645
▁meetings	-8646
▁battalions	-8647
▁Josh	-8648
▁drugs	-8649
▁sket	-8650
▁coinc	-8651
▁dollar	-8652
▁Oklahoma	-8653
▁Ridge	-8654
▁layer	-8655
▁tight	-8656
▁Econom	-8657
▁Soon	-8658
▁readers	-8659
▁civilian	-8660
itage	-8661
▁armour	-8662
acon	-8663
▁whilst	-8664
imen	-8665
▁phone	-8666
▁Murphy	-8667
sk	-8668
bre	-8669
▁Baby	-8670
▁sick	-8671
▁matters	-8672
▁institution	-8673
rus	-8674
▁breat	-8675
▁casting	-8676
▁friendship	-8677
▁strengthened	-8678
rov	-8679
▁Denmark	-8680
▁visiting	-8681
▁gust	-8682
▁tiss	-8683
▁Chand	-8684
▁Small	-8685
▁planets	-8686
▁Original	-8687
▁Cher	-8688
▁Seven	-8689
▁reconnaissance	-8690
pha	-8691
fish	-8692
▁similarly	-8693
▁UE	-8694
▁retain	-8695
▁chamber	-8696
▁simultaneously	-8697
▁Kal	-8698
▁Non	-8699
icate	-8700
ski	-8701
apolis	-8702
▁Abbey	-8703
▁legacy	-8704
▁demanded	-8705
▁alternate	-8706
▁typhoon	-8707
▁Tokyo	-8708
mingham	-8709
arant	-8710
▁Record	-8711
rose	-8712
▁Territ	-8713
▁Campaign	-8714
▁Harv	-8715
▁panel	-8716
▁justice	-8717
▁Ped	-8718
▁empt	-8719
▁enlisted	-8720
▁alive	-8721
▁insisted	-8722
▁168	-8723
▁Atlanta	-8724
rast	-8725
onomy	-8726
▁Mik	-8727
avery	-8728
▁shipping	-8729
▁horn	-8730
▁Barry	-8731
vis	-8732
▁Perry	-8733
▁revers	-8734
▁roots	-8735
▁revenue	-8736
▁promised	-8737
▁bombing	-8738
▁demands	-8739
▁Delaware	-8740
estyle	-8741
▁tack	-8742
▁Baseball	-8743
lus	-8744
▁possess	-8745
▁Prize	-8746
▁lanes	-8747
▁Railroad	-8748
▁athletes	-8749
▁personally	-8750
gro	-8751
▁hook	-8752
▁console	-8753
pan	-8754
▁drivers	-8755
▁struggled	-8756
▁definition	-8757
entle	-8758
▁Leslie	-8759
▁mainland	-8760
abs	-8761
▁looks	-8762
▁portions	-8763
▁Fem	-8764
▁pione	-8765
aration	-8766
▁conscious	-8767
▁orchestra	-8768
uma	-8769
▁DS	-8770
▁audition	-8771
▁sung	-8772
▁backed	-8773
▁propag	-8774
TW	-8775
▁Amy	-8776
▁Pitts	-8777
▁democr	-8778
▁behaviour	-8779
▁continu	-8780
▁guitarist	-8781
agg	-8782
▁diver	-8783
▁Internet	-8784
▁jobs	-8785
▁Yankees	-8786
▁artific	-8787
▁marketing	-8788
▁Such	-8789
▁armies	-8790
din	-8791
roph	-8792
inian	-8793
▁Rihanna	-8794
▁demolished	-8795
▁oblig	-8796
regation	-8797
ardo	-8798
▁dancing	-8799
▁surpass	-8800
iph	-8801
▁guilty	-8802
▁Madagasc	-8803
▁starring	-8804
▁Bomb	-8805
lain	-8806
▁ruling	-8807
▁feels	-8808
▁factory	-8809
▁increases	-8810
acre	-8811
▁profile	-8812
odox	-8813
▁subst	-8814
▁heading	-8815
annon	-8816
▁mining	-8817
▁compens	-8818
▁counties	-8819
▁indu	-8820
azines	-8821
▁theater	-8822
Ne	-8823
▁rub	-8824
▁Roll	-8825
▁pages	-8826
▁Mother	-8827
▁believing	-8828
▁essential	-8829
▁organisation	-8830
ghan	-8831
▁Juan	-8832
▁pursue	-8833
▁punk	-8834
inding	-8835
▁bonus	-8836
▁discont	-8837
▁discovers	-8838
▁expression	-8839
▁affect	-8840
▁delivery	-8841
tery	-8842
▁Nik	-8843
▁multipl	-8844
▁clothing	-8845
▁02	-8846
▁obst	-8847
▁166	-8848
▁succeed	-8849
▁ports	-8850
▁Johnny	-8851
▁sharp	-8852
eland	-8853
▁Clar	-8854
cott	-8855
where	-8856
▁mobile	-8857
▁Edwards	-8858
▁Bh	-8859
▁Nixon	-8860
▁crest	-8861
▁elevation	-8862
▁patron	-8863
▁Hudson	-8864
ouver	-8865
▁acou	-8866
▁doubt	-8867
▁secretary	-8868
acc	-8869
emen	-8870
SA	-8871
folk	-8872
▁odd	-8873
▁drink	-8874
ecticut	-8875
▁forecast	-8876
▁109	-8877
▁Lex	-8878
▁Much	-8879
▁kiss	-8880
▁accum	-8881
▁engage	-8882
umps	-8883
▁rif	-8884
▁Soul	-8885
▁sq	-8886
▁Having	-8887
▁cup	-8888
▁horiz	-8889
▁stick	-8890
▁Fif	-8891
▁Lost	-8892
▁altered	-8893
▁overseas	-8894
▁Enterprise	-8895
tario	-8896
▁chest	-8897
LC	-8898
▁mayor	-8899
terbury	-8900
▁deterior	-8901
▁Wor	-8902
▁Ru	-8903
▁Rights	-8904
▁listen	-8905
▁defences	-8906
atern	-8907
▁expand	-8908
▁Inn	-8909
▁baby	-8910
▁erected	-8911
irty	-8912
ultan	-8913
▁Buddh	-8914
▁cancel	-8915
▁settlers	-8916
▁compounds	-8917
▁Madagascar	-8918
▁bid	-8919
▁Bosn	-8920
▁renov	-8921
cles	-8922
▁Arnold	-8923
▁Ontario	-8924
ication	-8925
▁stress	-8926
shore	-8927
▁salt	-8928
▁legislature	-8929
grad	-8930
▁musician	-8931
EC	-8932
otyp	-8933
▁Impact	-8934
▁Jonathan	-8935
▁objective	-8936
aro	-8937
inces	-8938
▁Girls	-8939
▁Jimmy	-8940
▁Tel	-8941
▁raising	-8942
▁highways	-8943
▁decisions	-8944
▁Gray	-8945
▁Tracy	-8946
▁aerial	-8947
warf	-8948
▁disl	-8949
▁Allies	-8950
▁voy	-8951
▁aftermath	-8952
▁concentration	-8953
▁Baker	-8954
▁solar	-8955
▁campaigns	-8956
▁conversion	-8957
ensively	-8958
▁Defence	-8959
▁orn	-8960
▁Obama	-8961
▁liquid	-8962
▁conspir	-8963
▁soldier	-8964
▁exactly	-8965
▁sitting	-8966
▁indicating	-8967
owed	-8968
▁McM	-8969
asant	-8970
▁Brig	-8971
▁hidden	-8972
oons	-8973
▁wait	-8974
▁prove	-8975
▁wealthy	-8976
▁Set	-8977
▁scen	-8978
▁organised	-8979
▁Connecticut	-8980
▁acknowledged	-8981
▁Ton	-8982
▁Near	-8983
▁wrestling	-8984
▁Chel	-8985
▁trouble	-8986
▁permitted	-8987
▁dissipated	-8988
▁improvements	-8989
▁happ	-8990
▁danger	-8991
▁striking	-8992
▁graduated	-8993
yrus	-8994
▁dressed	-8995
▁realized	-8996
▁Peace	-8997
▁Phoenix	-8998
▁appropriate	-8999
fe	-9000
▁Tit	-9001
▁Wayne	-9002
▁confron	-9003
▁Universal	-9004
▁Birmingham	-9005
▁Ald	-9006
▁ski	-9007
▁Pruss	-9008
▁Cra	-9009
▁Fat	-9010
▁Vik	-9011
▁Karl	-9012
▁radical	-9013
atropical	-9014
▁execution	-9015
▁Jup	-9016
▁Pearl	-9017
▁meter	-9018
▁parent	-9019
▁observations	-9020
irts	-9021
▁raids	-9022
▁removal	-9023
▁Rachel	-9024
▁profit	-9025
▁travels	-9026
▁Canterbury	-9027
bird	-9028
▁Spart	-9029
▁fewer	-9030
▁venue	-9031
▁McCartney	-9032
▁celebrated	-9033
▁interpretation	-9034
▁Goth	-9035
▁encl	-9036
▁Works	-9037
▁Furthermore	-9038
▁publications	-9039
oker	-9040
uese	-9041
aments	-9042
▁initiated	-9043
▁aggressive	-9044
rawn	-9045
ifies	-9046
inister	-9047
▁turret	-9048
▁theatrical	-9049
▁chapel	-9050
▁requires	-9051
▁evacuated	-9052
▁publishing	-9053
elli	-9054
▁Rat	-9055
▁debt	-9056
▁Friday	-9057
ancouver	-9058
▁jurisd	-9059
▁origins	-9060
▁founding	-9061
▁Community	-9062
▁originated	-9063
ng	-9064
mund	-9065
▁Pil	-9066
▁stationed	-9067
▁Outstanding	-9068
▁explan	-9069
▁Pars	-9070
▁cannon	-9071
▁establishing	-9072
▁Maj	-9073
itals	-9074
▁connect	-9075
▁defending	-9076
▁rebellion	-9077
ulous	-9078
ivation	-9079
▁shorter	-9080
▁considering	-9081
▁announcement	-9082
▁arrangements	-9083
▁net	-9084
▁supple	-9085
tha	-9086
raction	-9087
▁cutting	-9088
▁brill	-9089
▁Players	-9090
rac	-9091
▁guarant	-9092
▁bones	-9093
▁tort	-9094
▁Keith	-9095
▁fantasy	-9096
▁152	-9097
▁Boys	-9098
▁steps	-9099
▁magazines	-9100
▁connecting	-9101
itudes	-9102
▁approaching	-9103
▁hosts	-9104
autical	-9105
▁aspect	-9106
▁donated	-9107
▁extratropical	-9108
stan	-9109
▁placing	-9110
adier	-9111
▁mush	-9112
▁magic	-9113
▁walking	-9114
▁Less	-9115
▁lying	-9116
▁Mountains	-9117
▁strategic	-9118
▁Mans	-9119
▁Publ	-9120
▁Bobby	-9121
▁insects	-9122
▁ongoing	-9123
▁discussion	-9124
osm	-9125
olly	-9126
itively	-9127
hears	-9128
ennium	-9129
▁talent	-9130
▁colleagues	-9131
▁lin	-9132
▁Lang	-9133
▁memor	-9134
▁Morrison	-9135
imp	-9136
▁Shaw	-9137
▁outl	-9138
▁funny	-9139
Several	-9140
▁monitor	-9141
▁youngest	-9142
▁Kit	-9143
▁Drive	-9144
▁edited	-9145
▁closest	-9146
▁Vancouver	-9147
▁predict	-9148
▁Champion	-9149
▁gathered	-9150
▁hypothes	-9151
▁qualified	-9152
▁Administration	-9153
▁Ral	-9154
▁tubes	-9155
▁battlecru	-9156
▁173	-9157
▁Mint	-9158
▁drag	-9159
▁decide	-9160
dess	-9161
pent	-9162
rous	-9163
▁Trophy	-9164
▁Portuguese	-9165
erg	-9166
ipper	-9167
▁Gate	-9168
▁volumes	-9169
▁forth	-9170
▁Edin	-9171
▁landscape	-9172
▁watershed	-9173
▁withdrawal	-9174
jan	-9175
ova	-9176
▁putting	-9177
▁indicates	-9178
▁strongest	-9179
▁Symph	-9180
▁angle	-9181
▁Rub	-9182
▁Sem	-9183
▁1860	-9184
▁Cost	-9185
▁glac	-9186
▁Pakistan	-9187
▁Wag	-9188
▁Dall	-9189
ecution	-9190
▁markets	-9191
▁identify	-9192
▁1893	-9193
▁Hugh	-9194
▁pale	-9195
▁switch	-9196
▁Foreign	-9197
▁Todd	-9198
▁rede	-9199
▁circle	-9200
boy	-9201
▁Ve	-9202
▁forg	-9203
▁exposure	-9204
▁supplied	-9205
▁Bernard	-9206
▁specimen	-9207
opp	-9208
▁anth	-9209
onald	-9210
▁gray	-9211
▁Comple	-9212
▁Windows	-9213
▁challenged	-9214
▁Da	-9215
▁Hold	-9216
▁Nine	-9217
▁caps	-9218
▁merely	-9219
▁confront	-9220
▁collapsed	-9221
▁Fel	-9222
imented	-9223
▁density	-9224
▁partial	-9225
▁Griff	-9226
▁Triple	-9227
otte	-9228
▁NAS	-9229
▁cub	-9230
mi	-9231
▁les	-9232
▁desert	-9233
▁dubbed	-9234
earing	-9235
▁shift	-9236
▁visits	-9237
Most	-9238
▁affili	-9239
▁limits	-9240
▁Jupiter	-9241
▁feeding	-9242
▁bare	-9243
▁Legend	-9244
▁Hampshire	-9245
▁1896	-9246
▁beam	-9247
▁Bath	-9248
▁Manu	-9249
▁Champions	-9250
▁provision	-9251
▁educational	-9252
▁Meteor	-9253
▁hydrogen	-9254
▁104	-9255
▁conventional	-9256
▁seized	-9257
AC	-9258
▁duo	-9259
▁NCAA	-9260
cks	-9261
enna	-9262
▁spac	-9263
▁Reserve	-9264
▁annually	-9265
▁concentrated	-9266
aks	-9267
▁Diam	-9268
▁topped	-9269
▁bearing	-9270
▁membership	-9271
elta	-9272
soft	-9273
▁Lion	-9274
▁attending	-9275
▁champions	-9276
adal	-9277
▁Stat	-9278
▁clin	-9279
▁corps	-9280
▁plain	-9281
amental	-9282
▁assembly	-9283
join	-9284
▁parody	-9285
▁ranges	-9286
idal	-9287
irates	-9288
case	-9289
▁exha	-9290
ested	-9291
▁1898	-9292
▁cock	-9293
onium	-9294
▁Hann	-9295
▁dogs	-9296
▁navy	-9297
▁offense	-9298
▁Patt	-9299
da	-9300
▁Charts	-9301
▁Napoleon	-9302
▁Edinburgh	-9303
▁Mission	-9304
▁emphasis	-9305
▁Afghan	-9306
▁weekly	-9307
ugg	-9308
▁sad	-9309
▁furn	-9310
igenous	-9311
▁exercise	-9312
▁productions	-9313
Many	-9314
angle	-9315
▁unless	-9316
▁talking	-9317
▁Jar	-9318
▁Dwight	-9319
▁ticket	-9320
▁investigate	-9321
▁Ay	-9322
agger	-9323
▁basin	-9324
uzzle	-9325
▁grave	-9326
▁trough	-9327
▁Bradman	-9328
▁Eventually	-9329
▁Hur	-9330
terior	-9331
▁legit	-9332
▁promotional	-9333
hyl	-9334
▁Opp	-9335
athers	-9336
▁anime	-9337
▁Ship	-9338
agh	-9339
▁Cov	-9340
▁bacter	-9341
▁coup	-9342
▁prize	-9343
▁Mem	-9344
▁portrayal	-9345
bow	-9346
▁jury	-9347
▁resol	-9348
▁ceased	-9349
▁flooded	-9350
▁fortress	-9351
▁TNA	-9352
▁advertising	-9353
hous	-9354
ovi	-9355
▁Bi	-9356
pled	-9357
▁bond	-9358
▁bone	-9359
▁fill	-9360
▁regime	-9361
▁birthday	-9362
▁conservation	-9363
▁Victorian	-9364
ika	-9365
▁uncle	-9366
▁persons	-9367
idae	-9368
ieth	-9369
▁111	-9370
▁Mosc	-9371
▁cruc	-9372
▁output	-9373
▁Democrats	-9374
▁employment	-9375
oa	-9376
▁Laur	-9377
▁sending	-9378
▁attitude	-9379
▁photographs	-9380
ello	-9381
▁172	-9382
▁software	-9383
▁Gary	-9384
▁eval	-9385
ported	-9386
▁retro	-9387
▁bishop	-9388
▁Convention	-9389
▁experimental	-9390
▁hitting	-9391
▁350	-9392
▁questioned	-9393
rolled	-9394
▁guide	-9395
▁queen	-9396
onica	-9397
▁ballad	-9398
▁drinking	-9399
▁Yorkshire	-9400
▁scattered	-9401
▁translation	-9402
aux	-9403
otal	-9404
▁Sig	-9405
▁Village	-9406
▁underwent	-9407
▁127	-9408
roying	-9409
▁provincial	-9410
▁mature	-9411
▁unclear	-9412
▁overwhel	-9413
▁Chronicle	-9414
▁endors	-9415
▁assembled	-9416
▁coff	-9417
▁Marvel	-9418
▁aggreg	-9419
▁replied	-9420
▁cousin	-9421
▁NO	-9422
▁1899	-9423
▁brig	-9424
▁papers	-9425
▁representatives	-9426
▁Si	-9427
uart	-9428
phone	-9429
abe	-9430
iper	-9431
umble	-9432
▁Alice	-9433
▁swimming	-9434
▁commentary	-9435
▁lawyer	-9436
DI	-9437
iffs	-9438
▁cens	-9439
▁proclaim	-9440
▁Beng	-9441
▁coat	-9442
▁outd	-9443
▁Potter	-9444
▁imagery	-9445
▁Brothers	-9446
▁clock	-9447
▁empire	-9448
▁thirteen	-9449
▁Our	-9450
▁liberal	-9451
▁Personal	-9452
▁loved	-9453
▁external	-9454
ashes	-9455
▁Cycl	-9456
▁lawsu	-9457
assador	-9458
▁terrain	-9459
▁acoustic	-9460
▁Christianity	-9461
hammad	-9462
▁Flying	-9463
▁comprom	-9464
▁exclusive	-9465
itis	-9466
aders	-9467
▁slave	-9468
▁electricity	-9469
▁Tol	-9470
▁streak	-9471
▁duration	-9472
▁monaster	-9473
▁pictures	-9474
▁movies	-9475
▁daughters	-9476
▁wire	-9477
▁devast	-9478
▁Argentina	-9479
▁Len	-9480
▁Sak	-9481
angel	-9482
▁Dale	-9483
▁Critics	-9484
▁accompanying	-9485
▁Tob	-9486
▁mac	-9487
▁Ches	-9488
▁Years	-9489
▁tenure	-9490
▁arrives	-9491
▁surrendered	-9492
▁Say	-9493
atever	-9494
▁branches	-9495
▁Las	-9496
▁burial	-9497
▁stronger	-9498
▁identical	-9499
▁Celt	-9500
▁expert	-9501
ications	-9502
hard	-9503
▁Dod	-9504
▁Honor	-9505
▁succession	-9506
▁Vi	-9507
ersed	-9508
▁Season	-9509
▁reverse	-9510
▁components	-9511
▁Abd	-9512
▁Joy	-9513
▁beats	-9514
riors	-9515
▁dread	-9516
▁stere	-9517
▁Wii	-9518
▁reveal	-9519
▁Finland	-9520
▁charter	-9521
▁Deb	-9522
▁Lib	-9523
▁Pin	-9524
anner	-9525
ensed	-9526
▁Type	-9527
▁reducing	-9528
▁reinforcements	-9529
▁prices	-9530
pler	-9531
▁cad	-9532
▁mal	-9533
▁Lloyd	-9534
▁sang	-9535
▁trading	-9536
▁Queensland	-9537
▁destroying	-9538
▁spaces	-9539
aja	-9540
▁scr	-9541
▁Natural	-9542
▁competing	-9543
AR	-9544
▁Lt	-9545
▁Gene	-9546
▁penet	-9547
▁Oliver	-9548
▁failing	-9549
▁mechanical	-9550
▁Lat	-9551
ologies	-9552
▁Fleming	-9553
▁exclusively	-9554
▁169	-9555
atched	-9556
▁recall	-9557
▁Heritage	-9558
▁Communist	-9559
hu	-9560
▁Bach	-9561
▁Hawaii	-9562
▁stops	-9563
▁atomic	-9564
redits	-9565
ellation	-9566
▁component	-9567
▁isot	-9568
▁108	-9569
▁Collins	-9570
▁Maya	-9571
▁scar	-9572
▁Books	-9573
▁Protest	-9574
▁precipitation	-9575
gie	-9576
amas	-9577
▁Boat	-9578
▁slavery	-9579
▁developers	-9580
▁Isa	-9581
▁1850	-9582
igrants	-9583
▁traded	-9584
▁devices	-9585
▁governments	-9586
10	-9587
place	-9588
▁Anc	-9589
ricts	-9590
▁UEFA	-9591
▁Monte	-9592
▁Fund	-9593
▁Belgian	-9594
▁Mong	-9595
▁banned	-9596
▁fossil	-9597
▁mini	-9598
▁reward	-9599
▁centers	-9600
▁Jama	-9601
▁varied	-9602
▁Rangers	-9603
▁flowers	-9604
ibilities	-9605
▁consistent	-9606
▁artificial	-9607
▁elig	-9608
▁tube	-9609
▁radiation	-9610
▁Marge	-9611
▁decay	-9612
▁considers	-9613
▁platforms	-9614
▁tip	-9615
▁virus	-9616
▁counterp	-9617
OS	-9618
eping	-9619
▁Emmy	-9620
▁myst	-9621
▁pole	-9622
▁redes	-9623
▁earthquake	-9624
▁contribution	-9625
▁Meg	-9626
▁wish	-9627
▁Norfolk	-9628
▁electrical	-9629
▁disb	-9630
▁polar	-9631
▁Liberal	-9632
▁burned	-9633
pike	-9634
▁hybr	-9635
▁tomb	-9636
▁Jerry	-9637
▁architectural	-9638
▁humor	-9639
▁waste	-9640
▁songwriter	-9641
▁dict	-9642
▁reviewed	-9643
▁Prix	-9644
▁Turner	-9645
▁boilers	-9646
asm	-9647
ioc	-9648
▁Pap	-9649
▁obsc	-9650
▁proceeded	-9651
▁understood	-9652
▁Na	-9653
ista	-9654
Arthur	-9655
▁advised	-9656
▁handled	-9657
▁fourteen	-9658
▁frequency	-9659
▁intersects	-9660
▁talks	-9661
▁destroyer	-9662
rastructure	-9663
▁profession	-9664
▁improvement	-9665
uras	-9666
▁Howe	-9667
▁push	-9668
ethel	-9669
▁1897	-9670
▁heir	-9671
▁Transportation	-9672
dy	-9673
▁Pam	-9674
▁Hardy	-9675
▁Pink	-9676
▁texts	-9677
▁amateur	-9678
▁requirements	-9679
▁Ax	-9680
acles	-9681
▁Malt	-9682
▁bath	-9683
ags	-9684
▁theore	-9685
▁Cricket	-9686
▁Services	-9687
▁samples	-9688
▁conceived	-9689
▁163	-9690
▁copper	-9691
▁ment	-9692
▁Those	-9693
▁induct	-9694
▁phrase	-9695
▁Training	-9696
▁Beaut	-9697
▁Saxon	-9698
▁sixteen	-9699
▁referring	-9700
▁investment	-9701
▁shares	-9702
▁conflic	-9703
rod	-9704
run	-9705
illes	-9706
▁reduction	-9707
lining	-9708
iciency	-9709
imm	-9710
olen	-9711
▁worn	-9712
uating	-9713
▁users	-9714
▁Medical	-9715
▁airfield	-9716
▁certainly	-9717
▁ecc	-9718
▁Trail	-9719
itarian	-9720
▁charity	-9721
▁voting	-9722
ulty	-9723
itely	-9724
▁Gallery	-9725
▁cleared	-9726
▁weigh	-9727
▁praising	-9728
▁respective	-9729
▁parks	-9730
▁Nicholas	-9731
▁Dub	-9732
▁pel	-9733
▁Craig	-9734
▁Moscow	-9735
▁labour	-9736
axy	-9737
▁lie	-9738
encing	-9739
▁flows	-9740
▁exceed	-9741
▁tactics	-9742
▁connections	-9743
▁therap	-9744
▁photography	-9745
▁Harbor	-9746
▁grossing	-9747
OT	-9748
▁spoken	-9749
▁toured	-9750
▁qualifying	-9751
gom	-9752
▁List	-9753
▁survival	-9754
▁Eug	-9755
▁Oslo	-9756
▁constitutional	-9757
▁soph	-9758
etheless	-9759
▁Apoll	-9760
▁Ralph	-9761
▁Dram	-9762
▁quad	-9763
ffield	-9764
▁Somet	-9765
▁autumn	-9766
▁continuous	-9767
strong	-9768
▁ruler	-9769
▁Dak	-9770
▁Burton	-9771
▁Bennett	-9772
▁Harvard	-9773
▁commanding	-9774
rehens	-9775
▁commenced	-9776
embr	-9777
razy	-9778
▁nautical	-9779
▁patients	-9780
▁shoulder	-9781
▁sweet	-9782
▁taxes	-9783
▁Market	-9784
▁confidence	-9785
▁Py	-9786
▁lock	-9787
▁Swiss	-9788
▁tonnes	-9789
rip	-9790
▁reorgan	-9791
▁attorney	-9792
▁Professor	-9793
▁legislative	-9794
▁opportunities	-9795
bes	-9796
eff	-9797
icle	-9798
▁Blu	-9799
▁stuff	-9800
▁exists	-9801
▁Vincent	-9802
▁enthusi	-9803
▁Pittsburgh	-9804
▁transported	-9805
ayan	-9806
▁Glen	-9807
▁unlik	-9808
▁fisher	-9809
hin	-9810
▁154	-9811
olds	-9812
▁106	-9813
▁signature	-9814
ingham	-9815
▁blind	-9816
▁camps	-9817
▁uranium	-9818
▁communist	-9819
▁competitive	-9820
eyer	-9821
▁hem	-9822
▁translated	-9823
Me	-9824
▁melody	-9825
▁relocated	-9826
TWC	-9827
▁unw	-9828
▁JTWC	-9829
▁Peters	-9830
▁167	-9831
▁Mand	-9832
▁Yellow	-9833
▁tested	-9834
porting	-9835
▁indeed	-9836
▁Broadcast	-9837
▁reinforced	-9838
▁minority	-9839
MI	-9840
mn	-9841
▁fasc	-9842
▁Davies	-9843
▁Aftermath	-9844
▁nit	-9845
▁fulf	-9846
▁rocks	-9847
▁fairly	-9848
▁revolt	-9849
▁traveling	-9850
▁commanders	-9851
▁Curt	-9852
▁pairs	-9853
▁revised	-9854
▁Must	-9855
▁dece	-9856
cester	-9857
aze	-9858
▁Tax	-9859
eding	-9860
▁Andre	-9861
▁noble	-9862
hell	-9863
▁Bak	-9864
onian	-9865
▁Syria	-9866
▁sovereign	-9867
andom	-9868
icated	-9869
▁manga	-9870
▁Catherine	-9871
vant	-9872
▁Swift	-9873
▁explicit	-9874
ario	-9875
▁Sle	-9876
venth	-9877
▁withdrawn	-9878
▁impression	-9879
▁lad	-9880
enesis	-9881
▁Indonesia	-9882
▁crops	-9883
▁Hughes	-9884
▁cartoon	-9885
▁Tig	-9886
▁Lock	-9887
▁programming	-9888
avor	-9889
urricanes	-9890
▁extending	-9891
▁Hob	-9892
expected	-9893
▁displaced	-9894
eared	-9895
▁accord	-9896
▁Antonio	-9897
▁dischar	-9898
▁experiments	-9899
▁Din	-9900
avia	-9901
▁promin	-9902
▁voices	-9903
▁principles	-9904
▁earn	-9905
▁blues	-9906
▁Alaska	-9907
▁extinct	-9908
▁Kate	-9909
Before	-9910
▁Kap	-9911
▁Rab	-9912
▁magnitude	-9913
▁representation	-9914
▁Look	-9915
▁learns	-9916
▁provinces	-9917
▁fram	-9918
▁hole	-9919
▁uncon	-9920
legraph	-9921
▁characteristic	-9922
▁distant	-9923
▁prisoner	-9924
▁Deep	-9925
▁Farm	-9926
▁moon	-9927
▁enforce	-9928
isive	-9929
ti	-9930
ussion	-9931
▁culmin	-9932
▁Dyn	-9933
▁Tak	-9934
▁summ	-9935
▁Mayor	-9936
▁Darwin	-9937
▁Living	-9938
▁marine	-9939
▁sample	-9940
▁interpreted	-9941
eto	-9942
asks	-9943
▁Ric	-9944
▁nat	-9945
▁abuse	-9946
▁lights	-9947
▁Jun	-9948
▁warfare	-9949
ationally	-9950
▁Thunder	-9951
▁1895	-9952
▁relatives	-9953
▁AS	-9954
▁conce	-9955
▁compound	-9956
▁Similarly	-9957
▁practical	-9958
▁Kl	-9959
▁XI	-9960
▁craft	-9961
▁rivalry	-9962
▁approaches	-9963
▁Inv	-9964
▁Upper	-9965
▁herit	-9966
▁wonder	-9967
▁cuts	-9968
▁Mason	-9969
▁Cameron	-9970
▁Donald	-9971
▁Herald	-9972
▁Pictures	-9973
adesh	-9974
▁Sweet	-9975
▁Israeli	-9976
▁Microsoft	-9977
▁id	-9978
▁nerv	-9979
▁airing	-9980
▁Security	-9981
haw	-9982
▁Mond	-9983
▁burning	-9984
▁shifted	-9985
▁displays	-9986
▁proposals	-9987
▁traditions	-9988
▁Prim	-9989
▁Jefferson	-9990
feld	-9991
▁carries	-9992
▁rehears	-9993
wa	-9994
▁Kane	-9995
▁lighting	-9996
▁warnings	-9997
▁multiplayer	-9998
aching	-9999
▁restore	-10000
▁girlfriend	-10001
▁Gor	-10002
▁victim	-10003
▁graduate	-10004
▁sings	-10005
▁myster	-10006
▁rebels	-10007
▁participation	-10008
▁RP	-10009
wing	-10010
▁judg	-10011
▁blocked	-10012
▁medicine	-10013
▁preparing	-10014
▁transportation	-10015
rien	-10016
▁skill	-10017
▁Dallas	-10018
▁Orange	-10019
asa	-10020
▁scores	-10021
▁Officer	-10022
utton	-10023
▁Ali	-10024
aters	-10025
▁Stars	-10026
▁Guinea	-10027
▁absent	-10028
▁conven	-10029
▁valuable	-10030
▁interviews	-10031
▁cyclones	-10032
ambers	-10033
▁chore	-10034
▁riding	-10035
▁protests	-10036
▁wished	-10037
umped	-10038
▁Falls	-10039
▁filmm	-10040
▁salary	-10041
▁brilliant	-10042
▁Got	-10043
▁Terry	-10044
▁thunder	-10045
▁unlikely	-10046
Other	-10047
merce	-10048
rooms	-10049
▁Defense	-10050
ginning	-10051
▁Grace	-10052
▁creek	-10053
▁cabinet	-10054
▁recovery	-10055
▁Sheffield	-10056
▁Ferr	-10057
▁salv	-10058
▁Finally	-10059
▁maintaining	-10060
▁march	-10061
uez	-10062
▁Chile	-10063
▁passion	-10064
▁reforms	-10065
▁Formation	-10066
▁districts	-10067
▁Description	-10068
leans	-10069
▁Bald	-10070
▁cinema	-10071
▁Wallace	-10072
▁intervention	-10073
▁AM	-10074
▁ing	-10075
▁Woman	-10076
▁arguing	-10077
▁estimates	-10078
ocity	-10079
oca	-10080
▁Quebec	-10081
▁harbour	-10082
▁Austin	-10083
▁courses	-10084
▁drummer	-10085
Upon	-10086
▁Ori	-10087
▁garn	-10088
▁racial	-10089
▁beneath	-10090
▁contend	-10091
▁recurring	-10092
▁grandfather	-10093
hum	-10094
▁FBI	-10095
▁fest	-10096
▁infl	-10097
▁pier	-10098
▁significance	-10099
▁Pic	-10100
▁Danish	-10101
▁vulnerable	-10102
▁aft	-10103
▁petition	-10104
▁Craw	-10105
▁Geoff	-10106
▁kills	-10107
▁towers	-10108
▁accurate	-10109
▁web	-10110
▁bull	-10111
▁releg	-10112
▁advertis	-10113
▁pap	-10114
▁diverse	-10115
▁upset	-10116
▁Classic	-10117
eston	-10118
▁Brazilian	-10119
▁Spr	-10120
▁Wells	-10121
▁eating	-10122
▁statistics	-10123
▁communications	-10124
▁AP	-10125
▁Luke	-10126
▁Quest	-10127
▁Susan	-10128
▁Greatest	-10129
▁Authority	-10130
▁Cathedral	-10131
▁sponsored	-10132
▁valid	-10133
▁applications	-10134
▁Greater	-10135
▁Hey	-10136
▁Agency	-10137
▁Originally	-10138
▁Clay	-10139
▁Orleans	-10140
▁Steel	-10141
▁clar	-10142
▁MS	-10143
▁numbered	-10144
▁Prop	-10145
achute	-10146
▁Overall	-10147
▁airline	-10148
▁efficient	-10149
Two	-10150
▁Tan	-10151
▁Emer	-10152
▁Cyrus	-10153
▁clothes	-10154
▁unexpected	-10155
▁Stef	-10156
▁hind	-10157
▁Rud	-10158
umented	-10159
▁Johnston	-10160
▁Rena	-10161
reated	-10162
▁sacrif	-10163
▁decorated	-10164
▁faces	-10165
▁lasting	-10166
▁shallow	-10167
▁essentially	-10168
▁Larry	-10169
▁shock	-10170
▁inclusion	-10171
▁Sega	-10172
▁tale	-10173
▁Where	-10174
▁toler	-10175
onge	-10176
▁Lem	-10177
▁Osc	-10178
ource	-10179
▁Malaysia	-10180
▁surprised	-10181
▁Globe	-10182
▁Fourth	-10183
▁consolid	-10184
▁Constantin	-10185
uto	-10186
▁Guitar	-10187
▁answer	-10188
▁charted	-10189
▁pm	-10190
▁102	-10191
▁mate	-10192
▁steep	-10193
▁gender	-10194
▁Princip	-10195
▁Eve	-10196
▁Som	-10197
▁Bryan	-10198
▁emotion	-10199
▁1861	-10200
▁mood	-10201
▁liner	-10202
osexual	-10203
▁Clarke	-10204
▁iP	-10205
▁Tai	-10206
▁Phys	-10207
▁deeply	-10208
abilities	-10209
atra	-10210
lete	-10211
▁1889	-10212
▁paras	-10213
▁beaten	-10214
▁Owen	-10215
▁theories	-10216
▁squadrons	-10217
▁Ze	-10218
▁Rio	-10219
▁Next	-10220
▁morph	-10221
▁ratio	-10222
▁Ni	-10223
erver	-10224
▁Half	-10225
▁trick	-10226
▁merged	-10227
▁Parsons	-10228
beat	-10229
▁Exper	-10230
▁invent	-10231
▁manage	-10232
▁Serbian	-10233
▁potentially	-10234
oria	-10235
▁Utah	-10236
▁fate	-10237
▁summit	-10238
▁Province	-10239
▁Spirit	-10240
▁drafted	-10241
▁Eff	-10242
▁1894	-10243
▁Local	-10244
▁Cultural	-10245
▁screenplay	-10246
▁tours	-10247
▁suspic	-10248
▁processes	-10249
ashi	-10250
utor	-10251
▁CBS	-10252
▁cant	-10253
▁jet	-10254
unning	-10255
▁swit	-10256
atical	-10257
▁Junior	-10258
▁embr	-10259
▁descent	-10260
sts	-10261
▁1891	-10262
levard	-10263
▁Fisher	-10264
▁crimes	-10265
▁dancers	-10266
▁sentence	-10267
▁Eis	-10268
▁demo	-10269
▁proportion	-10270
▁158	-10271
▁segments	-10272
▁civilians	-10273
▁persuaded	-10274
car	-10275
Tube	-10276
affe	-10277
▁McKin	-10278
ocation	-10279
▁beating	-10280
TS	-10281
▁HD	-10282
itious	-10283
▁Richmond	-10284
▁dual	-10285
▁dense	-10286
▁beauty	-10287
▁funded	-10288
▁heritage	-10289
▁Thr	-10290
reens	-10291
▁Armstrong	-10292
▁Republicans	-10293
▁Scientology	-10294
▁implemented	-10295
▁accommodate	-10296
▁Pa	-10297
illo	-10298
▁altitude	-10299
▁162	-10300
▁Rest	-10301
▁Chelsea	-10302
▁reactions	-10303
▁Fu	-10304
aiden	-10305
▁Neil	-10306
▁hills	-10307
▁Fighter	-10308
és	-10309
▁Cad	-10310
itate	-10311
▁Sign	-10312
keeper	-10313
landers	-10314
▁colors	-10315
▁Cass	-10316
ocal	-10317
▁Yam	-10318
▁holiday	-10319
▁agriculture	-10320
▁presentation	-10321
▁Ec	-10322
▁113	-10323
▁Hav	-10324
▁Nev	-10325
anche	-10326
▁Panzer	-10327
▁golden	-10328
▁Amendment	-10329
▁structural	-10330
oded	-10331
▁administer	-10332
▁complained	-10333
aha	-10334
▁171	-10335
▁feared	-10336
▁devoted	-10337
▁Daw	-10338
▁Chen	-10339
castle	-10340
istent	-10341
▁addressed	-10342
▁columns	-10343
▁sailing	-10344
▁requiring	-10345
ATO	-10346
▁121	-10347
▁proof	-10348
▁rejoin	-10349
▁evident	-10350
▁southeastern	-10351
▁manip	-10352
▁Picture	-10353
star	-10354
▁1892	-10355
▁Link	-10356
▁merc	-10357
▁Still	-10358
▁dwarf	-10359
▁oriented	-10360
▁XII	-10361
aping	-10362
▁1000	-10363
▁wine	-10364
▁breaks	-10365
▁Priv	-10366
lex	-10367
▁fame	-10368
▁nurs	-10369
▁error	-10370
▁Kaiser	-10371
oda	-10372
▁Actor	-10373
▁Plant	-10374
▁tribe	-10375
▁observation	-10376
bal	-10377
▁See	-10378
▁Together	-10379
▁followers	-10380
▁mythology	-10381
edia	-10382
▁Pad	-10383
▁cards	-10384
▁voyage	-10385
▁Haz	-10386
▁kidn	-10387
▁interaction	-10388
berry	-10389
enson	-10390
▁bell	-10391
▁judges	-10392
▁Official	-10393
▁pregnant	-10394
▁researchers	-10395
▁Orchest	-10396
▁Muhammad	-10397
▁Indonesian	-10398
asha	-10399
▁Aer	-10400
▁1800	-10401
▁YouTube	-10402
▁Register	-10403
▁confusion	-10404
▁jurisdiction	-10405
▁156	-10406
▁Sox	-10407
▁pip	-10408
▁boot	-10409
▁gene	-10410
▁quarters	-10411
▁recept	-10412
▁operates	-10413
owski	-10414
▁Salt	-10415
▁knee	-10416
usalem	-10417
▁suddenly	-10418
▁repris	-10419
▁Buffalo	-10420
▁categories	-10421
▁opens	-10422
▁Harold	-10423
▁commenting	-10424
▁Kam	-10425
▁pink	-10426
▁Liter	-10427
▁Symphony	-10428
▁writings	-10429
▁diplomatic	-10430
heric	-10431
▁Product	-10432
▁intermedi	-10433
ospel	-10434
▁Vers	-10435
▁physics	-10436
▁tension	-10437
onsin	-10438
rific	-10439
▁embarked	-10440
▁advancing	-10441
▁sculpture	-10442
▁highlighted	-10443
▁rib	-10444
▁Cavalry	-10445
▁extensively	-10446
isons	-10447
▁rect	-10448
▁sized	-10449
▁135	-10450
ocket	-10451
▁Studio	-10452
▁thrown	-10453
▁similarities	-10454
je	-10455
▁ages	-10456
▁fert	-10457
▁Nature	-10458
▁gaining	-10459
▁studying	-10460
▁principle	-10461
▁challenges	-10462
▁Ko	-10463
hers	-10464
▁Sout	-10465
▁assum	-10466
▁sugar	-10467
minster	-10468
▁ho	-10469
▁bears	-10470
assed	-10471
▁vari	-10472
othy	-10473
boards	-10474
▁gardens	-10475
▁Conservation	-10476
amount	-10477
▁Airlines	-10478
gomery	-10479
▁Minor	-10480
▁manif	-10481
▁equally	-10482
▁lifetime	-10483
▁statements	-10484
▁Gay	-10485
▁Sug	-10486
eness	-10487
▁drown	-10488
▁Edition	-10489
▁knocked	-10490
▁Sac	-10491
▁Fact	-10492
▁Bible	-10493
▁sentenced	-10494
arks	-10495
▁153	-10496
anted	-10497
▁jack	-10498
▁constitu	-10499
▁infrastructure	-10500
▁fee	-10501
▁Mend	-10502
▁Cardiff	-10503
▁locally	-10504
▁educated	-10505
ocy	-10506
▁Jerusalem	-10507
▁Scar	-10508
▁Burns	-10509
▁rivals	-10510
▁Performance	-10511
▁disturbance	-10512
▁Vl	-10513
born	-10514
▁Nord	-10515
▁GameSp	-10516
▁orange	-10517
▁Metropolitan	-10518
▁240	-10519
▁tooth	-10520
▁divorce	-10521
▁AA	-10522
Music	-10523
▁Hope	-10524
▁gift	-10525
▁Stuart	-10526
▁boundaries	-10527
▁traditionally	-10528
nels	-10529
thodox	-10530
▁dealing	-10531
▁predators	-10532
▁ties	-10533
isconsin	-10534
▁Islamic	-10535
▁variation	-10536
▁Constantine	-10537
▁Eight	-10538
▁Tyler	-10539
▁priest	-10540
▁overlook	-10541
▁universal	-10542
▁documented	-10543
ancellor	-10544
▁explaining	-10545
▁AT	-10546
▁empty	-10547
▁resolved	-10548
ye	-10549
▁stretch	-10550
▁Days	-10551
▁amph	-10552
isfact	-10553
▁rings	-10554
▁receives	-10555
aman	-10556
▁1888	-10557
▁spawn	-10558
▁Newton	-10559
▁enabled	-10560
enos	-10561
▁sword	-10562
▁Sultan	-10563
▁recruited	-10564
▁settlements	-10565
pine	-10566
▁garnered	-10567
lington	-10568
▁travelling	-10569
▁naming	-10570
▁explore	-10571
▁benefits	-10572
▁discontin	-10573
▁commercially	-10574
▁considerably	-10575
▁Vel	-10576
quest	-10577
▁tape	-10578
▁helps	-10579
▁tickets	-10580
▁villain	-10581
▁Cemetery	-10582
▁Crus	-10583
▁Apollo	-10584
▁rescued	-10585
iar	-10586
ando	-10587
▁mud	-10588
▁options	-10589
ét	-10590
the	-10591
osaurs	-10592
▁crashed	-10593
▁hostile	-10594
▁urg	-10595
▁1885	-10596
▁Terr	-10597
▁Reich	-10598
▁Ground	-10599
▁ashore	-10600
▁substitute	-10601
▁Env	-10602
ulsion	-10603
▁Scots	-10604
ometric	-10605
▁involves	-10606
▁weakening	-10607
▁PS	-10608
▁nep	-10609
▁Born	-10610
▁fold	-10611
▁seas	-10612
▁Grade	-10613
▁supern	-10614
▁batted	-10615
▁lift	-10616
▁tasked	-10617
▁Actress	-10618
▁disorder	-10619
▁proteins	-10620
ovak	-10621
▁forb	-10622
▁smoke	-10623
▁Boeing	-10624
▁Independence	-10625
▁tu	-10626
angular	-10627
▁Century	-10628
▁concerning	-10629
▁guy	-10630
celand	-10631
▁dying	-10632
▁housed	-10633
▁escorted	-10634
▁Montgomery	-10635
▁Walt	-10636
▁Trade	-10637
▁Hunter	-10638
▁Attorney	-10639
▁CS	-10640
▁MI	-10641
▁doors	-10642
▁assert	-10643
fr	-10644
hill	-10645
▁dim	-10646
▁detect	-10647
▁depicts	-10648
ucker	-10649
▁FIFA	-10650
▁Danny	-10651
▁Prest	-10652
▁Wonder	-10653
▁inning	-10654
▁obvious	-10655
▁CO	-10656
▁Om	-10657
aple	-10658
▁pursuit	-10659
▁elaborate	-10660
▁volunteers	-10661
▁Baltic	-10662
▁Legisl	-10663
▁borrow	-10664
▁concurrent	-10665
▁dimin	-10666
▁dinner	-10667
▁imprisoned	-10668
▁Ages	-10669
▁circular	-10670
iko	-10671
▁Joan	-10672
▁Tang	-10673
▁gods	-10674
▁authorized	-10675
▁collections	-10676
▁inhib	-10677
▁editions	-10678
▁warships	-10679
▁conflicts	-10680
▁competitions	-10681
▁Eth	-10682
▁flex	-10683
▁teammate	-10684
▁Schum	-10685
▁innoc	-10686
Another	-10687
▁pursued	-10688
▁Kyle	-10689
uters	-10690
lights	-10691
▁Baron	-10692
▁tempo	-10693
▁Brooks	-10694
▁Thames	-10695
▁revival	-10696
Le	-10697
▁Patri	-10698
▁Christians	-10699
▁Past	-10700
master	-10701
▁Johann	-10702
▁favourite	-10703
▁1865	-10704
▁reass	-10705
▁eventual	-10706
▁Wisconsin	-10707
▁politicians	-10708
▁spar	-10709
▁virtually	-10710
lon	-10711
vet	-10712
▁Rey	-10713
▁ramp	-10714
▁Movie	-10715
▁Hearts	-10716
▁beliefs	-10717
▁chemistry	-10718
▁vig	-10719
agers	-10720
▁urged	-10721
▁renewed	-10722
▁opposing	-10723
▁manufacturing	-10724
▁Evil	-10725
▁Quar	-10726
▁styl	-10727
▁drain	-10728
▁Rogers	-10729
▁veteran	-10730
▁Electric	-10731
▁Pok	-10732
▁fron	-10733
▁Saturn	-10734
▁abroad	-10735
▁handling	-10736
piece	-10737
▁Leaf	-10738
▁chase	-10739
▁Justin	-10740
▁census	-10741
▁mixture	-10742
ME	-10743
▁Ruth	-10744
▁Zone	-10745
▁Athens	-10746
▁velocity	-10747
▁Pant	-10748
▁handle	-10749
▁stones	-10750
▁portrait	-10751
▁examination	-10752
▁universities	-10753
▁112	-10754
▁Mall	-10755
▁epic	-10756
uction	-10757
▁suspected	-10758
▁Ivan	-10759
▁Barnes	-10760
rene	-10761
▁nut	-10762
backs	-10763
▁Gang	-10764
▁unve	-10765
▁cable	-10766
▁Abu	-10767
ublin	-10768
▁medals	-10769
▁stolen	-10770
▁Without	-10771
▁participants	-10772
▁Fitz	-10773
▁Comedy	-10774
▁pill	-10775
▁Tribune	-10776
▁trailer	-10777
lane	-10778
wright	-10779
▁colours	-10780
▁rushing	-10781
▁congress	-10782
▁promoting	-10783
▁remembered	-10784
▁Sid	-10785
▁laps	-10786
▁promise	-10787
▁rendered	-10788
▁organisms	-10789
▁Aber	-10790
▁Aren	-10791
▁Full	-10792
▁Turkey	-10793
▁thereby	-10794
▁inherited	-10795
▁gh	-10796
▁145	-10797
▁pitcher	-10798
urst	-10799
▁taste	-10800
▁verte	-10801
▁cattle	-10802
▁convey	-10803
▁sharks	-10804
▁Representatives	-10805
▁Bask	-10806
▁conj	-10807
▁spur	-10808
▁analog	-10809
izer	-10810
▁leaf	-10811
▁apply	-10812
isition	-10813
onation	-10814
▁161	-10815
▁capturing	-10816
▁Miles	-10817
▁comics	-10818
▁Iceland	-10819
gow	-10820
rift	-10821
seud	-10822
▁trapped	-10823
▁interven	-10824
▁decreased	-10825
arest	-10826
▁Pierre	-10827
▁tissue	-10828
▁costume	-10829
▁tracked	-10830
▁bombardment	-10831
ulus	-10832
▁Executive	-10833
▁hopes	-10834
▁inhab	-10835
▁positively	-10836
▁compositions	-10837
▁159	-10838
inery	-10839
▁Report	-10840
▁accidentally	-10841
ritic	-10842
▁thro	-10843
▁invaded	-10844
▁Regional	-10845
▁117	-10846
ellar	-10847
▁Code	-10848
▁Branch	-10849
▁NATO	-10850
▁Tourn	-10851
▁prototype	-10852
▁celebration	-10853
OC	-10854
▁Camb	-10855
▁metric	-10856
uri	-10857
▁UC	-10858
oids	-10859
▁Mind	-10860
▁blend	-10861
▁Constantinople	-10862
NC	-10863
otion	-10864
▁Sean	-10865
▁Stra	-10866
▁prox	-10867
▁juven	-10868
▁Face	-10869
▁Judge	-10870
▁Magic	-10871
▁vital	-10872
▁warned	-10873
▁confirm	-10874
▁tornado	-10875
▁occasional	-10876
▁maps	-10877
▁links	-10878
▁Spider	-10879
avan	-10880
olar	-10881
▁fra	-10882
ridor	-10883
▁loud	-10884
▁MacArthur	-10885
▁Portugal	-10886
▁Heavyweight	-10887
anim	-10888
▁hoping	-10889
▁anticipated	-10890
▁CP	-10891
ampton	-10892
▁Flore	-10893
▁upcoming	-10894
▁450	-10895
▁Wes	-10896
▁Nova	-10897
▁boyfriend	-10898
rible	-10899
▁rains	-10900
▁Affairs	-10901
▁goddess	-10902
rh	-10903
▁118	-10904
▁avo	-10905
▁Draft	-10906
▁variations	-10907
▁1864	-10908
▁bomber	-10909
▁batteries	-10910
▁dozen	-10911
▁laboratory	-10912
▁provisions	-10913
▁genu	-10914
enburg	-10915
▁marking	-10916
▁sinking	-10917
▁Newcastle	-10918
▁accessible	-10919
▁guests	-10920
▁impressive	-10921
▁separation	-10922
Cl	-10923
▁Fro	-10924
tes	-10925
▁Hunt	-10926
igious	-10927
colm	-10928
▁Chapel	-10929
▁horizont	-10930
▁nickname	-10931
▁dependent	-10932
▁biological	-10933
▁Amb	-10934
▁laugh	-10935
▁easier	-10936
▁Leonard	-10937
▁scandal	-10938
aco	-10939
erts	-10940
▁Fran	-10941
▁Laboratory	-10942
▁114	-10943
▁politician	-10944
▁supports	-10945
▁parliamentary	-10946
▁ib	-10947
▁sor	-10948
artime	-10949
▁fires	-10950
▁Reagan	-10951
▁indigenous	-10952
limin	-10953
▁rever	-10954
▁Barbara	-10955
▁Liberty	-10956
▁avoided	-10957
▁nose	-10958
▁Romney	-10959
restrial	-10960
ilda	-10961
▁afford	-10962
▁Sherman	-10963
ds	-10964
▁Ted	-10965
▁cow	-10966
▁Joint	-10967
▁Bright	-10968
▁random	-10969
▁threats	-10970
▁progressed	-10971
▁dust	-10972
▁deputy	-10973
▁Marines	-10974
▁formula	-10975
▁biography	-10976
▁consumption	-10977
▁restrictions	-10978
sor	-10979
icking	-10980
▁Meth	-10981
action	-10982
▁lighter	-10983
▁corporate	-10984
▁Tow	-10985
▁fed	-10986
▁volcanic	-10987
▁eld	-10988
▁tel	-10989
▁Youth	-10990
▁truly	-10991
▁Control	-10992
▁liver	-10993
bu	-10994
▁imposed	-10995
osph	-10996
ught	-10997
racks	-10998
▁Nancy	-10999
▁rugby	-11000
▁mixing	-11001
▁occurring	-11002
▁particles	-11003
▁Management	-11004
▁Meteorological	-11005
▁Nas	-11006
▁sav	-11007
▁usage	-11008
▁Sic	-11009
cliff	-11010
▁fier	-11011
▁trunk	-11012
▁Armenian	-11013
held	-11014
agles	-11015
eling	-11016
▁fles	-11017
▁noticed	-11018
▁murdered	-11019
▁produces	-11020
▁cash	-11021
▁toxic	-11022
▁dreadn	-11023
▁evacuation	-11024
istor	-11025
ailing	-11026
▁Voice	-11027
▁license	-11028
▁Boulevard	-11029
▁customers	-11030
roe	-11031
▁Duch	-11032
▁Side	-11033
▁Bears	-11034
▁contracts	-11035
▁defenders	-11036
▁Protestant	-11037
▁Toy	-11038
orted	-11039
▁acre	-11040
ielder	-11041
alling	-11042
▁exile	-11043
▁wound	-11044
changed	-11045
oples	-11046
▁Energy	-11047
▁Charlotte	-11048
HS	-11049
▁Crow	-11050
▁Sonic	-11051
▁lawsuit	-11052
▁cathedral	-11053
▁1862	-11054
▁Dublin	-11055
▁Cornwall	-11056
▁Orchestra	-11057
▁Ta	-11058
ptic	-11059
▁ERA	-11060
▁Bapt	-11061
▁Glas	-11062
▁Friends	-11063
▁relation	-11064
▁Sud	-11065
amics	-11066
▁José	-11067
▁grap	-11068
▁wake	-11069
▁choir	-11070
fly	-11071
isan	-11072
▁Bert	-11073
▁Cinc	-11074
▁Stein	-11075
▁intent	-11076
▁speculation	-11077
▁Had	-11078
▁Heb	-11079
▁Ins	-11080
▁killer	-11081
▁nephew	-11082
▁Against	-11083
▁debris	-11084
▁ordinary	-11085
▁engineers	-11086
▁Environment	-11087
▁NS	-11088
▁hence	-11089
▁plates	-11090
▁Fish	-11091
▁Flow	-11092
▁angry	-11093
▁Beh	-11094
▁Athletic	-11095
▁depicting	-11096
▁Neb	-11097
▁aside	-11098
▁Invest	-11099
▁eastward	-11100
▁disappointed	-11101
auc	-11102
▁Kan	-11103
icken	-11104
▁Fern	-11105
▁timber	-11106
uil	-11107
▁Guild	-11108
▁prest	-11109
▁Chester	-11110
▁developments	-11111
▁intellectual	-11112
▁Bud	-11113
▁kilog	-11114
point	-11115
▁ignored	-11116
▁decrease	-11117
▁industries	-11118
▁threatening	-11119
▁LP	-11120
▁Merced	-11121
▁Freedom	-11122
▁lyrical	-11123
▁conquest	-11124
▁encounters	-11125
▁fer	-11126
▁throwing	-11127
ulum	-11128
▁Cena	-11129
▁Krist	-11130
▁Lower	-11131
eps	-11132
izz	-11133
▁Ref	-11134
▁cam	-11135
eries	-11136
▁Chair	-11137
▁complicated	-11138
▁territorial	-11139
enberg	-11140
overed	-11141
▁Fight	-11142
▁mechanism	-11143
▁undertaken	-11144
▁abb	-11145
▁Case	-11146
▁Tree	-11147
▁Continental	-11148
▁thunderstorm	-11149
▁revolutionary	-11150
▁vicinity	-11151
▁MV	-11152
gett	-11153
▁Ernest	-11154
▁Leices	-11155
▁mounts	-11156
▁elite	-11157
▁strikes	-11158
▁touchdowns	-11159
▁Room	-11160
▁Antar	-11161
▁Action	-11162
▁convicted	-11163
▁une	-11164
emble	-11165
▁exhibit	-11166
▁humanity	-11167
▁championships	-11168
▁Skin	-11169
▁anne	-11170
aneous	-11171
entieth	-11172
▁focuses	-11173
▁conversation	-11174
▁Tru	-11175
▁Alberta	-11176
▁confident	-11177
osion	-11178
▁remin	-11179
umbered	-11180
▁lacking	-11181
▁mammals	-11182
▁contacted	-11183
▁inaugural	-11184
▁XX	-11185
quer	-11186
▁Saf	-11187
▁Cinem	-11188
▁Cincinn	-11189
▁fab	-11190
▁entert	-11191
▁farmers	-11192
▁preserve	-11193
▁realistic	-11194
▁suspension	-11195
▁107	-11196
heimer	-11197
▁therm	-11198
alg	-11199
▁Pul	-11200
▁gif	-11201
▁ward	-11202
▁constantly	-11203
oting	-11204
▁boost	-11205
Am	-11206
oil	-11207
▁honest	-11208
▁Collection	-11209
rogen	-11210
▁arose	-11211
▁ferry	-11212
▁metre	-11213
Through	-11214
▁Serbia	-11215
▁infection	-11216
▁helicopter	-11217
▁Oscar	-11218
▁Others	-11219
▁breast	-11220
▁Archbishop	-11221
itime	-11222
idia	-11223
▁Peng	-11224
▁Pete	-11225
▁Zero	-11226
▁voters	-11227
▁diamond	-11228
▁Springfield	-11229
lem	-11230
ovic	-11231
▁Mix	-11232
▁stim	-11233
▁Break	-11234
▁Muslims	-11235
▁feathers	-11236
▁Tournament	-11237
▁collaborated	-11238
▁predominantly	-11239
oba	-11240
▁Il	-11241
▁Gon	-11242
▁Vick	-11243
▁facil	-11244
▁posts	-11245
▁stern	-11246
▁tools	-11247
▁thorough	-11248
▁Poly	-11249
issioned	-11250
▁157	-11251
▁1840	-11252
▁Metro	-11253
▁Micha	-11254
▁Pedro	-11255
▁Career	-11256
▁desper	-11257
▁asserted	-11258
iked	-11259
▁Canu	-11260
raltar	-11261
▁patient	-11262
▁absorbed	-11263
▁Yugoslavia	-11264
▁RO	-11265
onial	-11266
▁castles	-11267
▁centered	-11268
▁releasing	-11269
She	-11270
osy	-11271
▁Veg	-11272
etary	-11273
▁holes	-11274
▁grows	-11275
▁DJ	-11276
▁mos	-11277
▁por	-11278
quiry	-11279
▁Than	-11280
▁infer	-11281
▁removing	-11282
▁peninsula	-11283
itic	-11284
▁220	-11285
▁Slav	-11286
▁illustrated	-11287
▁Malta	-11288
▁explanation	-11289
oirs	-11290
▁tune	-11291
▁knows	-11292
▁speeds	-11293
▁sustain	-11294
▁user	-11295
ortion	-11296
▁Cryst	-11297
However	-11298
▁apolog	-11299
itol	-11300
▁131	-11301
▁mit	-11302
▁Marshal	-11303
▁compiled	-11304
▁breeds	-11305
▁Typhoon	-11306
▁canceled	-11307
icing	-11308
▁Beth	-11309
▁bowl	-11310
▁Fil	-11311
▁Syn	-11312
▁Term	-11313
▁penn	-11314
▁Place	-11315
▁antib	-11316
▁photo	-11317
▁resid	-11318
▁retrie	-11319
▁relieved	-11320
▁Cincinnati	-11321
▁Chamberlain	-11322
▁Glee	-11323
▁situations	-11324
▁independently	-11325
ellers	-11326
▁Watch	-11327
▁enorm	-11328
Hg	-11329
hou	-11330
hart	-11331
onnie	-11332
▁chrom	-11333
▁Normandy	-11334
auge	-11335
regular	-11336
▁Malcolm	-11337
▁roadway	-11338
omed	-11339
▁isn	-11340
odium	-11341
▁Shiva	-11342
leb	-11343
▁da	-11344
▁978	-11345
ubble	-11346
▁Chad	-11347
▁Gabri	-11348
▁Gates	-11349
▁Vegas	-11350
▁lover	-11351
▁Kenneth	-11352
▁pleased	-11353
Ad	-11354
▁1887	-11355
▁Take	-11356
mont	-11357
▁tom	-11358
asury	-11359
iture	-11360
▁Luft	-11361
▁Parks	-11362
▁Future	-11363
▁Section	-11364
▁offshore	-11365
gans	-11366
▁Has	-11367
▁Comics	-11368
▁layers	-11369
▁marched	-11370
▁Lords	-11371
▁Maine	-11372
▁sheep	-11373
▁clergy	-11374
▁Sex	-11375
▁Villa	-11376
▁Gibraltar	-11377
▁locomotives	-11378
▁Pas	-11379
▁incom	-11380
▁Taiwan	-11381
▁viewing	-11382
▁Alliance	-11383
▁outstanding	-11384
akh	-11385
enz	-11386
assy	-11387
▁couldn	-11388
▁recruit	-11389
cha	-11390
▁Uk	-11391
▁Any	-11392
▁Saw	-11393
ipher	-11394
▁perc	-11395
▁arena	-11396
▁genres	-11397
▁paying	-11398
▁AL	-11399
Down	-11400
▁expanding	-11401
ocol	-11402
encer	-11403
▁1863	-11404
▁Isaac	-11405
▁Titan	-11406
▁closure	-11407
▁prosper	-11408
▁varying	-11409
▁126	-11410
▁pig	-11411
▁Eddie	-11412
▁Afghanistan	-11413
occ	-11414
▁132	-11415
▁Traff	-11416
▁Shield	-11417
▁Bradley	-11418
▁colored	-11419
umberland	-11420
▁1886	-11421
▁VIII	-11422
▁disappeared	-11423
atsu	-11424
opic	-11425
▁Bulg	-11426
uche	-11427
▁mild	-11428
overty	-11429
▁suggestion	-11430
▁regulations	-11431
rels	-11432
▁reporting	-11433
sa	-11434
▁aest	-11435
▁mask	-11436
▁celebrate	-11437
▁Revolutionary	-11438
▁Bulgar	-11439
▁armoured	-11440
ieg	-11441
▁hybrid	-11442
▁Technology	-11443
▁JNA	-11444
▁fungus	-11445
liminary	-11446
▁sentiment	-11447
▁119	-11448
▁Reed	-11449
▁Maced	-11450
instein	-11451
▁inducted	-11452
▁conspiracy	-11453
gé	-11454
▁bapt	-11455
ennial	-11456
ischer	-11457
▁blast	-11458
▁backst	-11459
asp	-11460
▁Cer	-11461
▁fro	-11462
▁butter	-11463
▁faculty	-11464
▁Brooklyn	-11465
▁attraction	-11466
▁Tommy	-11467
ribution	-11468
▁Morning	-11469
▁LS	-11470
▁lib	-11471
ework	-11472
music	-11473
▁Cand	-11474
▁romance	-11475
▁reporter	-11476
▁Jake	-11477
▁flour	-11478
▁dropping	-11479
▁nevertheless	-11480
▁cu	-11481
imony	-11482
▁Conservative	-11483
izard	-11484
arting	-11485
▁Browns	-11486
▁blamed	-11487
▁witnesses	-11488
ulates	-11489
▁conced	-11490
▁submer	-11491
▁Twitter	-11492
▁Shah	-11493
▁Madison	-11494
WA	-11495
oom	-11496
▁Ent	-11497
leted	-11498
▁swept	-11499
▁fundamental	-11500
ré	-11501
▁Mi	-11502
▁RI	-11503
▁remote	-11504
▁companion	-11505
▁publicity	-11506
▁Orton	-11507
▁eagle	-11508
▁Wagner	-11509
▁stored	-11510
▁atop	-11511
▁Waters	-11512
▁organic	-11513
▁parking	-11514
▁whatever	-11515
▁Princeton	-11516
▁submarines	-11517
found	-11518
utter	-11519
▁Chet	-11520
▁spir	-11521
▁Cyclone	-11522
▁positioned	-11523
▁patri	-11524
▁retreated	-11525
▁Organization	-11526
▁mad	-11527
▁fant	-11528
▁annex	-11529
▁verses	-11530
▁stability	-11531
etta	-11532
▁focusing	-11533
▁fortifications	-11534
▁inHg	-11535
▁fract	-11536
▁shelter	-11537
▁condemned	-11538
▁progressive	-11539
▁Shep	-11540
▁oxid	-11541
ubbard	-11542
▁targeted	-11543
ensis	-11544
▁Tint	-11545
▁Tigers	-11546
▁wrap	-11547
nt	-11548
▁Tu	-11549
▁noise	-11550
▁Kid	-11551
inter	-11552
▁1884	-11553
▁Bark	-11554
acular	-11555
▁flown	-11556
▁gentle	-11557
▁irregular	-11558
▁corresponding	-11559
hl	-11560
▁tent	-11561
▁Robin	-11562
▁curve	-11563
▁disbanded	-11564
▁resignation	-11565
cour	-11566
▁Leeds	-11567
▁Canucks	-11568
▁fossils	-11569
▁Ord	-11570
▁asc	-11571
▁Mang	-11572
▁Rear	-11573
▁lung	-11574
▁Nation	-11575
▁confused	-11576
▁detected	-11577
▁Schumacher	-11578
mates	-11579
▁Isle	-11580
▁mail	-11581
▁drunk	-11582
▁winners	-11583
▁convince	-11584
▁telephone	-11585
▁torpedoes	-11586
▁challenging	-11587
acht	-11588
▁preceding	-11589
assing	-11590
▁swing	-11591
▁cruise	-11592
▁magnetic	-11593
▁Tests	-11594
▁upris	-11595
▁roster	-11596
▁machines	-11597
▁mentions	-11598
▁rebounds	-11599
▁MLB	-11600
▁Hood	-11601
▁quoted	-11602
▁Burke	-11603
▁Smack	-11604
▁brings	-11605
▁Iran	-11606
▁rice	-11607
▁studios	-11608
▁insurance	-11609
▁Fly	-11610
▁Rush	-11611
▁Phillies	-11612
▁calculated	-11613
inated	-11614
▁fault	-11615
▁melod	-11616
▁worse	-11617
▁solely	-11618
▁concepts	-11619
▁directing	-11620
▁creature	-11621
▁diversity	-11622
▁regiments	-11623
▁Opera	-11624
▁tourist	-11625
▁terminal	-11626
▁BCE	-11627
▁Altern	-11628
▁migr	-11629
▁darker	-11630
▁Glasgow	-11631
▁Friedrich	-11632
iah	-11633
iga	-11634
▁HI	-11635
▁Pay	-11636
auded	-11637
▁thanks	-11638
▁judicial	-11639
mans	-11640
very	-11641
▁Kon	-11642
ishops	-11643
usters	-11644
onso	-11645
▁nice	-11646
▁Gregory	-11647
▁triumph	-11648
▁historically	-11649
arded	-11650
▁1877	-11651
▁Olivia	-11652
▁Ancient	-11653
▁favored	-11654
amine	-11655
▁hide	-11656
▁examined	-11657
▁scholarship	-11658
én	-11659
▁aqu	-11660
▁jersey	-11661
▁Westminster	-11662
▁Dud	-11663
igger	-11664
▁Poké	-11665
▁Montana	-11666
▁Hull	-11667
▁bore	-11668
▁myself	-11669
▁McKinley	-11670
▁Month	-11671
▁Steam	-11672
▁Father	-11673
▁rotation	-11674
olia	-11675
▁CEO	-11676
▁cha	-11677
▁Fifth	-11678
Bob	-11679
atty	-11680
overy	-11681
▁Salv	-11682
▁gear	-11683
▁zero	-11684
igation	-11685
bie	-11686
▁Hom	-11687
▁Edmund	-11688
▁steadily	-11689
▁prompting	-11690
▁battlefield	-11691
▁config	-11692
▁Holland	-11693
▁Studies	-11694
▁wartime	-11695
▁acclaimed	-11696
iors	-11697
▁1876	-11698
▁Cort	-11699
hentic	-11700
▁Serge	-11701
▁messages	-11702
▁103	-11703
▁sulf	-11704
▁trio	-11705
acking	-11706
▁balls	-11707
▁Austro	-11708
▁walked	-11709
▁rounded	-11710
New	-11711
▁sharing	-11712
▁measuring	-11713
▁monastery	-11714
▁jew	-11715
▁Brand	-11716
▁superst	-11717
▁spacecraft	-11718
▁reconstruction	-11719
▁Eld	-11720
▁Kaz	-11721
ewise	-11722
▁Barcel	-11723
▁cotton	-11724
hall	-11725
▁138	-11726
▁screens	-11727
▁Basketball	-11728
zes	-11729
▁af	-11730
▁elevated	-11731
▁Devil	-11732
▁Dennis	-11733
▁guards	-11734
▁agencies	-11735
▁connects	-11736
▁eligible	-11737
omon	-11738
▁ghost	-11739
▁gusts	-11740
▁agrees	-11741
▁Hum	-11742
avian	-11743
▁Cany	-11744
▁Talk	-11745
▁Round	-11746
▁troop	-11747
▁themed	-11748
▁routing	-11749
▁decisive	-11750
▁commitment	-11751
▁distinction	-11752
▁Bris	-11753
▁Mann	-11754
▁curved	-11755
▁presents	-11756
qual	-11757
▁Kill	-11758
▁motif	-11759
▁Angelou	-11760
▁Theater	-11761
▁refuses	-11762
▁accomplished	-11763
▁Helen	-11764
▁Julian	-11765
▁clouds	-11766
▁opined	-11767
lude	-11768
▁revenge	-11769
▁Historical	-11770
▁conducting	-11771
▁kids	-11772
▁masc	-11773
▁hyper	-11774
▁Gothic	-11775
▁radius	-11776
▁Musical	-11777
▁cemetery	-11778
▁arguments	-11779
▁incidents	-11780
ishn	-11781
icles	-11782
▁NASA	-11783
▁walks	-11784
▁exterior	-11785
▁physically	-11786
ahl	-11787
▁Hus	-11788
▁Mercury	-11789
▁Adventure	-11790
▁proclaimed	-11791
hend	-11792
▁stall	-11793
▁linear	-11794
▁creatures	-11795
▁kilometers	-11796
gus	-11797
uka	-11798
ampa	-11799
▁tap	-11800
▁echo	-11801
▁flower	-11802
▁consequence	-11803
▁participating	-11804
▁116	-11805
▁Ghost	-11806
▁comed	-11807
▁encomp	-11808
▁Theodore	-11809
▁Territory	-11810
▁integrated	-11811
lined	-11812
▁Coal	-11813
▁hosp	-11814
▁tough	-11815
▁Bulgarian	-11816
▁129	-11817
▁134	-11818
▁Celtic	-11819
▁loose	-11820
▁finest	-11821
▁venues	-11822
▁indirect	-11823
ju	-11824
▁122	-11825
▁Leo	-11826
opard	-11827
▁1830	-11828
▁rebel	-11829
▁centimet	-11830
▁width	-11831
eda	-11832
▁230	-11833
▁Glou	-11834
▁Squad	-11835
flow	-11836
lett	-11837
▁Kin	-11838
▁Rus	-11839
▁1875	-11840
▁Soph	-11841
omical	-11842
▁chann	-11843
istical	-11844
▁theaters	-11845
▁complimented	-11846
aults	-11847
▁Enix	-11848
▁Isab	-11849
▁spell	-11850
▁intend	-11851
▁runner	-11852
▁Michaels	-11853
▁properly	-11854
▁Cardinals	-11855
▁ceremonies	-11856
reeks	-11857
▁Nass	-11858
▁milk	-11859
▁lesser	-11860
▁ritual	-11861
▁enhanced	-11862
▁demographic	-11863
gon	-11864
▁spots	-11865
▁poster	-11866
▁prince	-11867
▁extends	-11868
▁contribute	-11869
▁Burg	-11870
▁Solar	-11871
▁lakes	-11872
▁scout	-11873
▁telesc	-11874
▁Parkway	-11875
▁reminisc	-11876
▁deliberately	-11877
▁bowled	-11878
▁Members	-11879
▁peoples	-11880
nda	-11881
lake	-11882
▁varies	-11883
▁mansion	-11884
▁preparations	-11885
var	-11886
bach	-11887
gary	-11888
arthy	-11889
ettes	-11890
ighed	-11891
▁Berm	-11892
▁cosm	-11893
▁Paraly	-11894
▁remake	-11895
▁heavier	-11896
▁martial	-11897
elin	-11898
▁touc	-11899
▁Denver	-11900
▁insuff	-11901
pin	-11902
inge	-11903
▁Lud	-11904
▁RBI	-11905
▁Yard	-11906
▁harsh	-11907
▁Herbert	-11908
▁weakness	-11909
▁Hok	-11910
itars	-11911
▁contrad	-11912
▁instructions	-11913
▁southwestern	-11914
season	-11915
▁canon	-11916
▁onwards	-11917
▁ministers	-11918
▁transformed	-11919
▁intermediate	-11920
unge	-11921
rians	-11922
▁Tintin	-11923
cell	-11924
▁Cox	-11925
▁1883	-11926
▁Albany	-11927
▁Ottawa	-11928
▁borough	-11929
▁updated	-11930
▁playable	-11931
▁possessed	-11932
▁continental	-11933
ubs	-11934
▁Vo	-11935
▁coaches	-11936
▁1881	-11937
▁Percy	-11938
▁achievements	-11939
▁hurt	-11940
▁rook	-11941
▁Athen	-11942
▁Rivers	-11943
▁sensitive	-11944
▁initiative	-11945
yc	-11946
ashire	-11947
▁Sciences	-11948
▁airborne	-11949
▁prospect	-11950
▁SmackDown	-11951
▁Oil	-11952
▁logo	-11953
arians	-11954
▁rider	-11955
▁outcome	-11956
▁Millennium	-11957
rang	-11958
▁Based	-11959
▁Derby	-11960
▁propaganda	-11961
▁transmission	-11962
▁Und	-11963
▁Metac	-11964
▁aided	-11965
▁Nevada	-11966
▁Hubbard	-11967
▁homosexual	-11968
▁Circle	-11969
▁Mercedes	-11970
▁consideration	-11971
zed	-11972
▁yd	-11973
▁fru	-11974
▁allied	-11975
▁variable	-11976
▁critically	-11977
▁Cou	-11978
▁optim	-11979
▁Nathan	-11980
▁Venice	-11981
▁disabled	-11982
▁vegetation	-11983
▁autobiography	-11984
▁consciousness	-11985
▁EC	-11986
▁Aub	-11987
▁Brah	-11988
herent	-11989
▁orchestral	-11990
▁Carlos	-11991
▁Romanian	-11992
▁deposits	-11993
▁emerging	-11994
▁tourists	-11995
▁Milan	-11996
▁estimate	-11997
▁Churchill	-11998
▁depiction	-11999
▁exercises	-12000
cont	-12001
▁monster	-12002
▁Operations	-12003
aton	-12004
sson	-12005
▁moist	-12006
▁spite	-12007
ironments	-12008
roduction	-12009
▁Political	-12010
acer	-12011
▁unh	-12012
izers	-12013
▁Chem	-12014
▁Ronald	-12015
▁landmark	-12016
▁Barcelona	-12017
▁permanently	-12018
▁1869	-12019
alties	-12020
▁unanim	-12021
▁worker	-12022
▁routine	-12023
▁punishment	-12024
▁consistently	-12025
▁Paralymp	-12026
▁comprising	-12027
▁northeastern	-12028
▁wit	-12029
assic	-12030
▁grid	-12031
▁latest	-12032
▁Jamaica	-12033
▁borders	-12034
▁presidency	-12035
▁Pack	-12036
GM	-12037
▁1866	-12038
▁Isles	-12039
▁staged	-12040
▁assassination	-12041
Mc	-12042
▁Ga	-12043
▁Poe	-12044
▁Sri	-12045
▁Unit	-12046
▁Foster	-12047
▁managing	-12048
▁delegates	-12049
▁searching	-12050
▁journalists	-12051
▁subtropical	-12052
iffer	-12053
▁Cond	-12054
▁ascend	-12055
▁payment	-12056
▁sailors	-12057
▁damaging	-12058
▁municipal	-12059
▁performers	-12060
▁achievement	-12061
▁environments	-12062
▁Tir	-12063
▁honors	-12064
▁summon	-12065
▁doctrine	-12066
▁belonging	-12067
▁revealing	-12068
alin	-12069
▁modest	-12070
▁witnessed	-12071
opy	-12072
▁Ce	-12073
works	-12074
▁Arena	-12075
▁Lancashire	-12076
▁mysterious	-12077
▁bin	-12078
riages	-12079
▁Chang	-12080
▁encourage	-12081
orf	-12082
Like	-12083
▁Marl	-12084
▁marg	-12085
▁honey	-12086
▁psychiat	-12087
▁archaeological	-12088
chw	-12089
▁Bes	-12090
▁input	-12091
▁priority	-12092
▁Northwest	-12093
▁reluctant	-12094
▁complement	-12095
And	-12096
▁dock	-12097
▁Composition	-12098
▁philosopher	-12099
▁128	-12100
▁epit	-12101
▁Pokémon	-12102
▁phenomenon	-12103
▁reh	-12104
Brien	-12105
▁Bour	-12106
▁Canyon	-12107
▁amphib	-12108
▁dispatched	-12109
▁unsuccessfully	-12110
▁marsh	-12111
▁Powell	-12112
▁preventing	-12113
▁Barn	-12114
▁argue	-12115
▁enlar	-12116
▁gates	-12117
atorial	-12118
▁silent	-12119
▁Springs	-12120
▁venture	-12121
▁actively	-12122
kh	-12123
anus	-12124
ding	-12125
▁Pick	-12126
▁versus	-12127
▁Calgary	-12128
▁hypothesis	-12129
olars	-12130
raham	-12131
▁pref	-12132
▁lengths	-12133
▁belonged	-12134
▁coaching	-12135
▁switched	-12136
His	-12137
▁confer	-12138
▁Drake	-12139
▁Winn	-12140
▁finance	-12141
▁frigate	-12142
▁strange	-12143
▁Richardson	-12144
▁Sor	-12145
▁Expl	-12146
▁seal	-12147
▁anarch	-12148
▁Middles	-12149
▁ceiling	-12150
▁poverty	-12151
▁disputed	-12152
▁executives	-12153
▁distinguish	-12154
anka	-12155
▁750	-12156
▁Nad	-12157
▁eighteen	-12158
▁awareness	-12159
▁listening	-12160
▁scientist	-12161
▁corruption	-12162
alia	-12163
actic	-12164
▁Alam	-12165
▁Blair	-12166
▁introduce	-12167
▁mechanics	-12168
▁directions	-12169
▁contributing	-12170
atar	-12171
▁124	-12172
▁Ran	-12173
▁Epis	-12174
▁Delta	-12175
▁shaft	-12176
▁Palestine	-12177
▁exploration	-12178
▁expectations	-12179
ikes	-12180
▁oct	-12181
adows	-12182
▁Ferdin	-12183
▁ion	-12184
▁1873	-12185
iating	-12186
▁Hispan	-12187
▁procedure	-12188
▁SA	-12189
ijing	-12190
▁adjust	-12191
▁internationally	-12192
▁Jose	-12193
▁Grove	-12194
▁molecular	-12195
▁formations	-12196
rews	-12197
▁icon	-12198
▁Chuck	-12199
▁Duncan	-12200
▁whales	-12201
▁rational	-12202
▁naturally	-12203
▁surpassed	-12204
▁Esc	-12205
Tunes	-12206
▁Emma	-12207
▁metals	-12208
▁objectives	-12209
abad	-12210
▁1871	-12211
▁gest	-12212
▁mbar	-12213
▁vamp	-12214
▁Mills	-12215
▁carved	-12216
▁guitars	-12217
▁leagues	-12218
▁mystery	-12219
▁advocated	-12220
▁improving	-12221
core	-12222
▁Tas	-12223
▁Voy	-12224
▁1882	-12225
▁root	-12226
▁Floyd	-12227
rington	-12228
LA	-12229
rium	-12230
▁Led	-12231
▁Sad	-12232
▁1867	-12233
▁Caes	-12234
▁intr	-12235
▁Region	-12236
▁saving	-12237
▁tribut	-12238
▁desired	-12239
eches	-12240
odied	-12241
▁sheet	-12242
▁privile	-12243
▁shipped	-12244
chi	-12245
lay	-12246
▁Rav	-12247
▁Verm	-12248
▁reop	-12249
▁accus	-12250
▁submerged	-12251
▁dimensional	-12252
usty	-12253
▁plum	-12254
▁pseud	-12255
▁Rodrig	-12256
▁Commons	-12257
▁abundant	-12258
▁Telegraph	-12259
▁processing	-12260
HC	-12261
vik	-12262
▁abst	-12263
istocr	-12264
▁Diamond	-12265
▁Computer	-12266
▁discussing	-12267
▁requirement	-12268
▁overwhelming	-12269
▁Medic	-12270
▁Speed	-12271
▁Conserv	-12272
▁Filming	-12273
▁staying	-12274
ogg	-12275
yan	-12276
▁Colin	-12277
▁tasks	-12278
▁Inside	-12279
▁remind	-12280
▁temples	-12281
▁acceptance	-12282
asses	-12283
▁Seas	-12284
▁crucial	-12285
▁Rosen	-12286
▁cubic	-12287
▁reson	-12288
▁unrel	-12289
▁Raymond	-12290
▁Henderson	-12291
▁associate	-12292
▁horsepower	-12293
nery	-12294
▁Nam	-12295
ierra	-12296
▁Hein	-12297
▁mant	-12298
▁convert	-12299
▁Arc	-12300
angered	-12301
isations	-12302
▁partners	-12303
asia	-12304
▁explored	-12305
olan	-12306
▁Belie	-12307
▁Strong	-12308
▁estates	-12309
▁comprised	-12310
▁1878	-12311
erness	-12312
▁Manuel	-12313
▁Planet	-12314
▁nervous	-12315
▁blockade	-12316
▁speculated	-12317
umi	-12318
usive	-12319
▁dive	-12320
isting	-12321
▁genes	-12322
▁channels	-12323
▁keyboard	-12324
▁opinions	-12325
▁refugees	-12326
▁composers	-12327
▁sib	-12328
▁cameo	-12329
▁Beijing	-12330
▁collecting	-12331
▁Kel	-12332
▁liv	-12333
▁adequ	-12334
amation	-12335
▁resemble	-12336
▁authentic	-12337
▁fragments	-12338
appa	-12339
arus	-12340
▁Body	-12341
▁loaded	-12342
Over	-12343
ulture	-12344
▁eleph	-12345
▁Deputy	-12346
▁suffer	-12347
▁undertook	-12348
▁navigation	-12349
zig	-12350
▁Pel	-12351
▁Seb	-12352
▁Herm	-12353
▁Weather	-12354
▁immigrants	-12355
▁Pine	-12356
▁Masters	-12357
▁jaw	-12358
▁averaged	-12359
▁habitats	-12360
▁turbines	-12361
▁Headquarters	-12362
▁Wis	-12363
waffe	-12364
▁pump	-12365
▁percussion	-12366
▁seeds	-12367
eded	-12368
▁Brid	-12369
▁Marqu	-12370
▁republic	-12371
▁Leicester	-12372
▁complaints	-12373
▁compromise	-12374
▁manufactured	-12375
gor	-12376
▁202	-12377
utely	-12378
thlete	-12379
▁whale	-12380
▁genera	-12381
▁posthum	-12382
rehensive	-12383
▁137	-12384
▁ants	-12385
▁Ellen	-12386
▁Films	-12387
▁assets	-12388
▁homeless	-12389
▁networks	-12390
aba	-12391
▁Mega	-12392
▁craf	-12393
▁Guadal	-12394
▁photos	-12395
▁rushed	-12396
▁Veronica	-12397
▁ov	-12398
▁haz	-12399
▁Insp	-12400
▁Exped	-12401
▁Sever	-12402
▁discour	-12403
▁Intellig	-12404
▁consequences	-12405
DA	-12406
Will	-12407
▁Anat	-12408
▁Mail	-12409
▁bench	-12410
▁femin	-12411
▁Trinity	-12412
▁faction	-12413
▁manages	-12414
▁coastline	-12415
oves	-12416
▁bars	-12417
▁gauge	-12418
▁absolute	-12419
▁dissolved	-12420
▁underwater	-12421
inqu	-12422
▁symbols	-12423
▁eruption	-12424
▁reconstruct	-12425
▁psychological	-12426
▁lesb	-12427
▁Adela	-12428
▁fabric	-12429
▁honorary	-12430
▁Personnel	-12431
ilogy	-12432
▁Punk	-12433
▁iTunes	-12434
boat	-12435
▁Raid	-12436
▁repet	-12437
▁stair	-12438
▁Crystal	-12439
▁lengthy	-12440
▁Occ	-12441
suing	-12442
▁Malay	-12443
▁ineff	-12444
▁Colomb	-12445
▁Desert	-12446
▁relied	-12447
▁consensus	-12448
rection	-12449
▁lemurs	-12450
▁variant	-12451
▁ultimate	-12452
▁Fun	-12453
▁Wel	-12454
▁sic	-12455
employ	-12456
▁symph	-12457
▁Baptist	-12458
▁loyalty	-12459
▁Luftwaffe	-12460
▁adds	-12461
ographed	-12462
▁ensuing	-12463
▁singers	-12464
▁aristocr	-12465
immer	-12466
▁fears	-12467
▁summar	-12468
▁signals	-12469
▁Mut	-12470
iggins	-12471
▁improv	-12472
▁Bermuda	-12473
▁landings	-12474
▁reserves	-12475
▁unveiled	-12476
▁Rif	-12477
▁Vic	-12478
amped	-12479
asaki	-12480
mother	-12481
▁eldest	-12482
▁intact	-12483
▁phosph	-12484
▁Frances	-12485
▁Crawford	-12486
▁qualities	-12487
▁Metacritic	-12488
▁cave	-12489
▁Newman	-12490
▁Culture	-12491
▁assessment	-12492
▁disappoint	-12493
▁fraud	-12494
▁Dudley	-12495
▁Luther	-12496
▁Flanders	-12497
▁teachers	-12498
▁1868	-12499
▁1872	-12500
▁electro	-12501
▁contempor	-12502
RS	-12503
▁doctors	-12504
▁defenses	-12505
▁ambassador	-12506
GB	-12507
▁Mile	-12508
▁unre	-12509
▁flesh	-12510
▁rocket	-12511
▁Standard	-12512
▁millions	-12513
▁interactions	-12514
▁battlecruisers	-12515
isk	-12516
▁Tucker	-12517
▁harvest	-12518
▁emotions	-12519
▁spectators	-12520
avil	-12521
child	-12522
▁delight	-12523
▁grossed	-12524
▁printing	-12525
▁literally	-12526
▁duck	-12527
▁pounder	-12528
eta	-12529
▁RPG	-12530
alysis	-12531
▁owing	-12532
▁tradem	-12533
▁comparing	-12534
▁twentieth	-12535
rays	-12536
▁buff	-12537
▁essay	-12538
▁Method	-12539
▁anthem	-12540
▁weighed	-12541
▁costumes	-12542
▁songwriting	-12543
aku	-12544
▁amid	-12545
▁brut	-12546
▁clip	-12547
▁sear	-12548
▁lifted	-12549
▁enormous	-12550
▁Aqu	-12551
▁Carn	-12552
▁Cloud	-12553
▁Truman	-12554
oned	-12555
▁Eagle	-12556
through	-12557
▁Choice	-12558
▁McCarthy	-12559
▁Kil	-12560
▁Tib	-12561
grade	-12562
licted	-12563
▁Wolver	-12564
▁explosive	-12565
▁Flames	-12566
▁bacteria	-12567
▁engaging	-12568
unar	-12569
ipping	-12570
▁dealt	-12571
▁trips	-12572
▁batsman	-12573
▁revived	-12574
imity	-12575
▁Food	-12576
▁rally	-12577
Because	-12578
▁Monster	-12579
▁patrols	-12580
▁appealed	-12581
▁instructed	-12582
iki	-12583
▁Pon	-12584
otypes	-12585
igrated	-12586
▁Dakota	-12587
▁stabil	-12588
▁intelligent	-12589
▁politically	-12590
▁insufficient	-12591
▁Range	-12592
▁deals	-12593
▁Cabinet	-12594
▁Ib	-12595
endar	-12596
▁Machine	-12597
▁relating	-12598
▁tensions	-12599
▁instrumentation	-12600
▁cro	-12601
▁Vlad	-12602
▁Want	-12603
▁Angle	-12604
▁telev	-12605
▁Watson	-12606
▁reader	-12607
▁stroke	-12608
▁Soviets	-12609
▁strings	-12610
▁enrolled	-12611
neath	-12612
stown	-12613
▁Mult	-12614
▁True	-12615
▁stom	-12616
▁interf	-12617
▁suited	-12618
▁graphic	-12619
▁diseases	-12620
▁horizontal	-12621
Ste	-12622
ouch	-12623
▁151	-12624
▁Why	-12625
▁cats	-12626
monton	-12627
▁Wellington	-12628
ido	-12629
iary	-12630
orig	-12631
▁raw	-12632
▁ups	-12633
▁metall	-12634
▁hurricanes	-12635
BO	-12636
ulk	-12637
arma	-12638
▁sin	-12639
▁vocalist	-12640
omys	-12641
arted	-12642
▁Clif	-12643
▁Alpha	-12644
▁bitter	-12645
▁referee	-12646
RC	-12647
▁MVP	-12648
keley	-12649
▁widow	-12650
▁slower	-12651
▁Renaissance	-12652
ho	-12653
▁termed	-12654
▁Shelley	-12655
▁chapters	-12656
▁subordin	-12657
▁reminiscent	-12658
▁Professional	-12659
No	-12660
▁Alt	-12661
▁anx	-12662
▁perf	-12663
▁Gibson	-12664
▁exhibited	-12665
▁intersections	-12666
ugs	-12667
▁Ply	-12668
▁digit	-12669
▁Monroe	-12670
▁missile	-12671
▁mushroom	-12672
▁allegations	-12673
▁declaration	-12674
▁Bea	-12675
▁clan	-12676
utonium	-12677
▁Mobile	-12678
▁Expedition	-12679
auna	-12680
▁McN	-12681
▁Berg	-12682
▁Total	-12683
▁wishes	-12684
▁incomple	-12685
▁counsel	-12686
▁involve	-12687
▁mistake	-12688
▁overcome	-12689
▁discipline	-12690
▁etc	-12691
▁hier	-12692
▁incred	-12693
▁tactical	-12694
▁mathematics	-12695
otto	-12696
▁Fischer	-12697
▁extraordin	-12698
▁Hass	-12699
▁Shin	-12700
▁Essex	-12701
emporary	-12702
▁disliked	-12703
▁sacrifice	-12704
▁gallery	-12705
▁Adelaide	-12706
▁cultures	-12707
uilera	-12708
▁shirt	-12709
▁harbor	-12710
▁Aguilera	-12711
▁athletic	-12712
▁quantities	-12713
opol	-12714
▁joins	-12715
bery	-12716
▁Wings	-12717
▁Heaven	-12718
▁Surrey	-12719
▁interference	-12720
orge	-12721
▁subd	-12722
ancock	-12723
▁Assist	-12724
▁Madrid	-12725
▁proceeds	-12726
▁thickness	-12727
edar	-12728
▁hunt	-12729
▁expense	-12730
▁transit	-12731
▁syndrome	-12732
elia	-12733
▁Marx	-12734
▁Urban	-12735
▁fights	-12736
▁caliber	-12737
▁circles	-12738
▁Phillips	-12739
▁nicknamed	-12740
cht	-12741
atem	-12742
▁gam	-12743
▁Meyer	-12744
▁Woods	-12745
▁Romans	-12746
▁supporter	-12747
uits	-12748
▁Henri	-12749
▁machinery	-12750
▁migration	-12751
ht	-12752
▁Selena	-12753
▁assign	-12754
▁nomine	-12755
▁panels	-12756
▁spores	-12757
▁imported	-12758
▁locomotive	-12759
▁123	-12760
▁RNA	-12761
heads	-12762
▁rifle	-12763
▁Timber	-12764
▁repaired	-12765
▁interviewed	-12766
▁Bosnia	-12767
▁Butler	-12768
▁gaming	-12769
▁washed	-12770
▁Newport	-12771
▁Ferdinand	-12772
▁Cut	-12773
▁Spit	-12774
▁frog	-12775
▁fatal	-12776
▁resur	-12777
▁fare	-12778
▁hung	-12779
▁Movement	-12780
▁bankrupt	-12781
▁shopping	-12782
▁molecules	-12783
▁commentators	-12784
agi	-12785
▁joke	-12786
▁custody	-12787
▁unaware	-12788
▁proximity	-12789
ibl	-12790
iden	-12791
▁Surv	-12792
▁Trav	-12793
▁continent	-12794
▁Gonz	-12795
▁fluid	-12796
▁finger	-12797
▁Chandler	-12798
▁ol	-12799
alid	-12800
▁Genesis	-12801
▁currency	-12802
▁mes	-12803
▁Euro	-12804
otilla	-12805
urers	-12806
▁weld	-12807
kinson	-12808
▁Psych	-12809
▁curves	-12810
▁redesign	-12811
▁pronounced	-12812
▁Engineering	-12813
ni	-12814
rint	-12815
▁fir	-12816
olith	-12817
▁Plat	-12818
▁Admiralty	-12819
▁Ltd	-12820
▁allocated	-12821
cock	-12822
▁beer	-12823
▁acquire	-12824
▁Publishing	-12825
Ear	-12826
▁Fa	-12827
▁NL	-12828
▁Aaron	-12829
▁Vienna	-12830
▁rulers	-12831
▁knowing	-12832
▁contested	-12833
▁successive	-12834
▁Norse	-12835
▁relay	-12836
athetic	-12837
▁floors	-12838
▁undergo	-12839
▁separately	-12840
asi	-12841
wyn	-12842
▁UB	-12843
▁Nak	-12844
▁Hond	-12845
▁puzz	-12846
itects	-12847
▁Leigh	-12848
▁Adrian	-12849
▁betray	-12850
▁demanding	-12851
dam	-12852
▁Bass	-12853
▁reef	-12854
▁Money	-12855
▁Riley	-12856
▁Aviation	-12857
▁aviation	-12858
▁memories	-12859
▁populated	-12860
urbs	-12861
▁woods	-12862
▁Spencer	-12863
isor	-12864
xide	-12865
▁Hil	-12866
elfth	-12867
▁Lore	-12868
▁hect	-12869
▁Curtis	-12870
▁maneuver	-12871
▁gathering	-12872
▁discussions	-12873
▁preliminary	-12874
ungle	-12875
▁riot	-12876
▁hatch	-12877
▁Capital	-12878
▁Commerc	-12879
nal	-12880
agons	-12881
▁Sans	-12882
▁disgu	-12883
▁publish	-12884
▁northwestern	-12885
Rec	-12886
▁MC	-12887
▁Lamb	-12888
▁Shan	-12889
▁Ellis	-12890
▁Tasman	-12891
▁comparable	-12892
▁interrupted	-12893
nut	-12894
▁mim	-12895
▁Blake	-12896
▁Leban	-12897
▁zones	-12898
▁Prison	-12899
▁scrapped	-12900
▁1879	-12901
▁Otto	-12902
▁Sche	-12903
▁Until	-12904
▁Knights	-12905
▁Lithuan	-12906
▁Arkansas	-12907
▁Florence	-12908
▁regardless	-12909
Pa	-12910
irk	-12911
▁SH	-12912
▁Come	-12913
▁bills	-12914
▁farms	-12915
▁proud	-12916
▁cylinder	-12917
▁Therefore	-12918
▁screening	-12919
▁photographer	-12920
▁dawn	-12921
▁sect	-12922
icular	-12923
▁demonstrate	-12924
▁cease	-12925
▁Burger	-12926
▁advances	-12927
▁discontinued	-12928
ashing	-12929
▁Barrett	-12930
▁damages	-12931
Meanwhile	-12932
▁massacre	-12933
▁installation	-12934
ebe	-12935
▁CM	-12936
esses	-12937
eward	-12938
▁Mull	-12939
▁Nobel	-12940
▁Abraham	-12941
▁tourism	-12942
▁nineteenth	-12943
imer	-12944
▁Mak	-12945
▁Kerr	-12946
▁Poll	-12947
▁golf	-12948
▁chlor	-12949
▁paved	-12950
▁editing	-12951
▁editorial	-12952
igo	-12953
▁Heath	-12954
Bet	-12955
▁ally	-12956
▁halted	-12957
▁Preston	-12958
▁Romania	-12959
▁dynamic	-12960
▁Orthodox	-12961
wind	-12962
▁WWF	-12963
▁bol	-12964
▁tong	-12965
▁Fellow	-12966
▁sporting	-12967
cious	-12968
▁Brew	-12969
▁Mick	-12970
▁Nept	-12971
▁subsidi	-12972
foundland	-12973
▁GameSpot	-12974
yers	-12975
osity	-12976
▁Right	-12977
▁Bengal	-12978
▁gravity	-12979
▁Hawaiian	-12980
▁licensed	-12981
▁regained	-12982
zac	-12983
aston	-12984
▁cylind	-12985
▁therapy	-12986
▁seemingly	-12987
▁neighbouring	-12988
rez	-12989
urse	-12990
▁Rah	-12991
▁chord	-12992
▁subsc	-12993
istence	-12994
▁Fergus	-12995
▁subtle	-12996
▁Daniels	-12997
▁uprising	-12998
▁sew	-12999
▁Idol	-13000
▁opted	-13001
▁unrest	-13002
▁Baldwin	-13003
▁Stories	-13004
▁crowned	-13005
▁Geoffrey	-13006
▁projected	-13007
▁busy	-13008
▁Turks	-13009
▁grain	-13010
ologically	-13011
▁Beginning	-13012
▁contracted	-13013
▁administered	-13014
iang	-13015
stand	-13016
▁Cool	-13017
▁Perth	-13018
▁Female	-13019
▁citizen	-13020
▁lessons	-13021
▁disputes	-13022
▁descended	-13023
▁protecting	-13024
osc	-13025
▁Maxwell	-13026
▁creates	-13027
▁deployment	-13028
▁functional	-13029
▁instruction	-13030
pit	-13031
▁anger	-13032
▁masses	-13033
▁openly	-13034
▁descendants	-13035
lia	-13036
wig	-13037
▁Marcus	-13038
▁barely	-13039
▁Capitol	-13040
▁privately	-13041
▁Fur	-13042
▁lip	-13043
onnell	-13044
▁Ports	-13045
▁regist	-13046
▁Plymouth	-13047
▁accomplish	-13048
▁Ow	-13049
issa	-13050
oline	-13051
▁Pent	-13052
▁Skinner	-13053
▁coloured	-13054
▁Lancaster	-13055
▁cooperation	-13056
▁CA	-13057
▁Chase	-13058
▁Screen	-13059
▁totally	-13060
▁captivity	-13061
▁northwestward	-13062
oan	-13063
ovsky	-13064
ramid	-13065
▁overh	-13066
▁deeper	-13067
▁Circuit	-13068
▁jumping	-13069
▁volcano	-13070
▁corridor	-13071
ikh	-13072
▁fluor	-13073
▁symmet	-13074
▁JG	-13075
▁Volt	-13076
▁perpet	-13077
▁Hancock	-13078
▁farming	-13079
▁outdoor	-13080
▁McDonald	-13081
▁generals	-13082
▁collision	-13083
▁atmospheric	-13084
▁Ern	-13085
▁Newfoundland	-13086
aceous	-13087
▁planes	-13088
▁rapper	-13089
▁delegation	-13090
▁necessarily	-13091
▁lux	-13092
front	-13093
▁Winc	-13094
▁file	-13095
▁Usher	-13096
▁chess	-13097
▁lacks	-13098
▁Kepler	-13099
▁delays	-13100
▁steady	-13101
▁invented	-13102
▁ambitious	-13103
▁ibn	-13104
▁gamb	-13105
▁misc	-13106
▁orient	-13107
guard	-13108
istle	-13109
▁Stage	-13110
isphere	-13111
▁Senators	-13112
▁coalition	-13113
ervers	-13114
▁reiss	-13115
▁suburb	-13116
▁conting	-13117
▁Buddhist	-13118
Bl	-13119
rav	-13120
blem	-13121
▁Garc	-13122
▁gran	-13123
▁Wrest	-13124
▁eject	-13125
▁nests	-13126
▁Reading	-13127
▁quit	-13128
▁greet	-13129
▁developer	-13130
onstruction	-13131
▁Generation	-13132
▁cream	-13133
achelor	-13134
▁mutual	-13135
▁Mounted	-13136
▁fatalities	-13137
imir	-13138
▁Gaz	-13139
icity	-13140
▁Flood	-13141
▁Former	-13142
▁roller	-13143
▁tracking	-13144
▁declaring	-13145
▁excessive	-13146
▁Electronic	-13147
Se	-13148
▁joy	-13149
▁oak	-13150
▁jokes	-13151
▁membr	-13152
▁Protection	-13153
▁Ky	-13154
▁presum	-13155
▁trophy	-13156
▁270	-13157
▁Chin	-13158
▁Beautiful	-13159
ogs	-13160
▁Motion	-13161
▁Agricult	-13162
▁teammates	-13163
▁Adventures	-13164
PS	-13165
vor	-13166
▁Kes	-13167
▁Logan	-13168
▁Metal	-13169
▁Store	-13170
▁Herman	-13171
▁Productions	-13172
200	-13173
▁lava	-13174
▁Edmonton	-13175
▁prohibited	-13176
▁Wa	-13177
▁Mom	-13178
▁calm	-13179
▁copyr	-13180
▁shops	-13181
▁divine	-13182
▁Allmusic	-13183
▁keen	-13184
graduate	-13185
▁struggling	-13186
hand	-13187
▁Hat	-13188
▁sixty	-13189
▁Archae	-13190
▁Jeremy	-13191
▁unemploy	-13192
▁recognize	-13193
mat	-13194
▁146	-13195
▁Buch	-13196
▁Wald	-13197
▁Shadow	-13198
▁decomp	-13199
▁honours	-13200
▁kitchen	-13201
▁operator	-13202
▁Parachute	-13203
▁aggregate	-13204
▁pregnancy	-13205
▁Commissioner	-13206
▁Dj	-13207
lend	-13208
isans	-13209
ficial	-13210
▁Motor	-13211
▁gains	-13212
▁inject	-13213
▁realizes	-13214
eria	-13215
list	-13216
oths	-13217
▁Wool	-13218
▁puts	-13219
▁shadow	-13220
▁generate	-13221
bel	-13222
entric	-13223
▁cabin	-13224
▁Airborne	-13225
▁eliminate	-13226
▁Combat	-13227
▁ironcl	-13228
▁Suz	-13229
opsis	-13230
▁Sponge	-13231
▁backup	-13232
▁Brigadier	-13233
▁Nashville	-13234
▁storylines	-13235
anto	-13236
▁edges	-13237
▁findings	-13238
▁disappear	-13239
▁merchants	-13240
elfare	-13241
▁trigg	-13242
▁operas	-13243
▁Jennifer	-13244
▁attractive	-13245
▁dug	-13246
▁nam	-13247
▁Bear	-13248
▁Plaza	-13249
▁Senior	-13250
▁Sierra	-13251
▁acquisition	-13252
▁.3	-13253
▁pine	-13254
lessly	-13255
▁Tales	-13256
▁draws	-13257
▁Current	-13258
▁reserved	-13259
▁Relations	-13260
Due	-13261
agic	-13262
raid	-13263
▁Hous	-13264
▁Reyn	-13265
ayette	-13266
▁Tiger	-13267
▁arbit	-13268
▁auction	-13269
▁Resident	-13270
▁surfaces	-13271
▁memorable	-13272
▁unusually	-13273
edge	-13274
▁Esp	-13275
▁Jen	-13276
▁1874	-13277
▁metap	-13278
▁Online	-13279
▁remarkable	-13280
▁Lie	-13281
▁Kens	-13282
▁Tall	-13283
▁Task	-13284
▁ridic	-13285
letcher	-13286
▁Minogue	-13287
▁experts	-13288
▁streams	-13289
▁reversed	-13290
▁incomplete	-13291
▁conjunction	-13292
▁proceedings	-13293
ums	-13294
▁Crom	-13295
▁Suff	-13296
▁shar	-13297
▁Devon	-13298
▁unpop	-13299
▁Panama	-13300
▁scenario	-13301
▁adaptations	-13302
AL	-13303
uy	-13304
ripp	-13305
▁Bot	-13306
▁Fab	-13307
▁View	-13308
▁decomm	-13309
▁grants	-13310
▁caution	-13311
▁package	-13312
▁perfectly	-13313
▁Kem	-13314
▁Hait	-13315
▁Drama	-13316
legiate	-13317
▁sketch	-13318
opal	-13319
Prior	-13320
▁1848	-13321
▁freed	-13322
▁ruins	-13323
▁Palmer	-13324
▁chances	-13325
▁impress	-13326
▁secular	-13327
▁Character	-13328
▁restaurants	-13329
Mar	-13330
▁minim	-13331
▁substance	-13332
▁Chancellor	-13333
▁metropolitan	-13334
yd	-13335
bus	-13336
▁149	-13337
▁keeps	-13338
▁motorway	-13339
▁sufficiently	-13340
lew	-13341
abet	-13342
▁clay	-13343
▁princ	-13344
▁tennis	-13345
▁Chairman	-13346
▁Architect	-13347
▁Industrial	-13348
py	-13349
iast	-13350
ophical	-13351
▁Busch	-13352
▁lobby	-13353
▁pedest	-13354
▁worried	-13355
▁veterans	-13356
▁lifestyle	-13357
▁Bent	-13358
▁Make	-13359
▁soap	-13360
▁Hergé	-13361
▁modes	-13362
▁resort	-13363
▁assessed	-13364
▁detached	-13365
▁floating	-13366
▁allegedly	-13367
▁shed	-13368
▁Serbs	-13369
▁transp	-13370
▁emphasized	-13371
how	-13372
▁pray	-13373
▁Using	-13374
▁transc	-13375
▁tunnels	-13376
▁progression	-13377
▁CC	-13378
asse	-13379
▁Put	-13380
▁Rams	-13381
▁Lynch	-13382
▁topic	-13383
▁postpon	-13384
▁festivals	-13385
taining	-13386
▁Tunnel	-13387
▁hiding	-13388
▁Koreans	-13389
▁demonstration	-13390
▁FM	-13391
▁hur	-13392
▁tum	-13393
ushes	-13394
▁dors	-13395
▁Chall	-13396
▁diving	-13397
▁muzzle	-13398
▁nights	-13399
▁Finnish	-13400
▁Manning	-13401
▁erosion	-13402
▁loading	-13403
▁manifest	-13404
▁incorporates	-13405
abl	-13406
▁141	-13407
aurus	-13408
uxili	-13409
▁Armenia	-13410
▁Formula	-13411
▁climbing	-13412
▁Guatem	-13413
▁speeches	-13414
▁plutonium	-13415
len	-13416
iche	-13417
▁Bowie	-13418
Har	-13419
rolling	-13420
▁Louise	-13421
▁Survey	-13422
▁Junction	-13423
▁attachment	-13424
iti	-13425
pow	-13426
▁Moz	-13427
▁rays	-13428
olades	-13429
▁floods	-13430
▁Caroline	-13431
Throughout	-13432
▁supplement	-13433
avid	-13434
ocene	-13435
inguished	-13436
▁Consequently	-13437
van	-13438
▁210	-13439
▁escal	-13440
▁Arabic	-13441
▁errors	-13442
▁Berkeley	-13443
▁amendment	-13444
▁diagnosed	-13445
▁trap	-13446
▁ranged	-13447
▁tended	-13448
▁centres	-13449
▁upgrade	-13450
▁investigated	-13451
▁flee	-13452
▁Arctic	-13453
▁overth	-13454
▁Windsor	-13455
▁internet	-13456
▁pleasure	-13457
▁prosecut	-13458
▁appreciated	-13459
▁modifications	-13460
▁Spy	-13461
▁Cann	-13462
hening	-13463
▁param	-13464
▁consul	-13465
iability	-13466
▁warrant	-13467
▁introducing	-13468
ivic	-13469
▁sty	-13470
houses	-13471
▁merger	-13472
▁counteratt	-13473
bing	-13474
umar	-13475
▁Sep	-13476
▁Stri	-13477
▁naked	-13478
▁Notable	-13479
▁cameras	-13480
▁consent	-13481
▁inhabited	-13482
▁Mk	-13483
▁haul	-13484
▁mobil	-13485
▁overd	-13486
▁lineup	-13487
▁Paramount	-13488
▁generations	-13489
▁CN	-13490
▁unst	-13491
▁crust	-13492
▁Monday	-13493
▁notion	-13494
official	-13495
▁securing	-13496
▁comfortable	-13497
ema	-13498
ugu	-13499
▁.2	-13500
▁Soft	-13501
▁ease	-13502
ountain	-13503
▁Guards	-13504
▁AllMusic	-13505
▁144	-13506
▁hamlet	-13507
▁nearest	-13508
▁confined	-13509
▁thoughts	-13510
sby	-13511
▁Bron	-13512
▁Holmes	-13513
▁enable	-13514
▁incons	-13515
▁stance	-13516
▁thrust	-13517
▁Contemporary	-13518
▁strengthening	-13519
otus	-13520
▁Myst	-13521
▁Janet	-13522
▁synth	-13523
▁Valent	-13524
▁organs	-13525
▁Maurice	-13526
▁qualify	-13527
▁Broadcasting	-13528
▁Equ	-13529
▁1851	-13530
▁Heat	-13531
▁bonds	-13532
▁inver	-13533
▁metab	-13534
▁reads	-13535
▁Franco	-13536
▁pushing	-13537
imination	-13538
▁EU	-13539
▁fox	-13540
▁Emily	-13541
▁Harper	-13542
▁Griffin	-13543
▁maintains	-13544
▁Jur	-13545
birds	-13546
▁Bast	-13547
▁Spin	-13548
▁Trip	-13549
▁item	-13550
▁Turnpike	-13551
▁electoral	-13552
ulu	-13553
▁Bod	-13554
▁Glass	-13555
▁revel	-13556
▁Legion	-13557
▁stripped	-13558
▁Soundtrack	-13559
raine	-13560
▁artif	-13561
▁Finals	-13562
overning	-13563
▁Advance	-13564
▁Rhodesia	-13565
▁colleges	-13566
▁waterline	-13567
antom	-13568
▁Hoff	-13569
▁muscle	-13570
▁doubles	-13571
▁speaker	-13572
mate	-13573
▁outs	-13574
rators	-13575
▁Cuban	-13576
▁embarr	-13577
▁elderly	-13578
▁Um	-13579
lies	-13580
stad	-13581
▁Laf	-13582
▁Too	-13583
▁obl	-13584
▁butt	-13585
▁Reform	-13586
▁compat	-13587
▁monkey	-13588
▁grandson	-13589
▁graduating	-13590
di	-13591
▁Sr	-13592
orus	-13593
▁ampl	-13594
▁Jacques	-13595
mill	-13596
▁Chop	-13597
▁Appro	-13598
▁monks	-13599
▁ensemble	-13600
CO	-13601
Con	-13602
hero	-13603
▁Gust	-13604
▁flags	-13605
▁enthusiastic	-13606
mons	-13607
▁Sib	-13608
▁Solomon	-13609
ichi	-13610
iots	-13611
ocaust	-13612
▁Maxim	-13613
veloped	-13614
▁McCain	-13615
▁filter	-13616
▁preval	-13617
▁sacred	-13618
▁successes	-13619
▁legitimate	-13620
erek	-13621
▁Yok	-13622
▁Observ	-13623
atoes	-13624
▁Kiss	-13625
▁Lindwall	-13626
▁brigades	-13627
▁carefully	-13628
tage	-13629
▁Hip	-13630
▁cere	-13631
▁Manor	-13632
▁Marath	-13633
▁Mirror	-13634
▁stepped	-13635
holm	-13636
odon	-13637
▁Pall	-13638
▁phyl	-13639
▁Shank	-13640
▁Claire	-13641
▁Illust	-13642
▁layout	-13643
▁rookie	-13644
▁barrier	-13645
▁escapes	-13646
▁Garfield	-13647
Far	-13648
▁Recre	-13649
ielberg	-13650
▁laying	-13651
▁courage	-13652
▁monthly	-13653
▁infected	-13654
▁sexually	-13655
▁incorporate	-13656
▁entertaining	-13657
▁Peg	-13658
avour	-13659
▁tool	-13660
▁witch	-13661
▁Number	-13662
▁eleventh	-13663
▁exceeded	-13664
▁compensation	-13665
anan	-13666
▁ump	-13667
▁Carr	-13668
▁Luis	-13669
▁restr	-13670
osystem	-13671
▁wounds	-13672
▁Borough	-13673
▁honored	-13674
▁darkness	-13675
▁Additional	-13676
▁Hawk	-13677
▁Sold	-13678
▁Wake	-13679
▁satir	-13680
▁Nothing	-13681
▁exhaust	-13682
▁genuine	-13683
▁readily	-13684
▁frontier	-13685
▁promising	-13686
▁280	-13687
▁knock	-13688
▁defeats	-13689
▁healthy	-13690
▁definitely	-13691
US	-13692
nan	-13693
▁Kub	-13694
▁sus	-13695
enhower	-13696
▁pressed	-13697
▁Superman	-13698
▁Dian	-13699
▁soci	-13700
▁Price	-13701
▁Randy	-13702
▁Starr	-13703
▁mistaken	-13704
▁monarchy	-13705
▁invitation	-13706
▁consequently	-13707
inus	-13708
▁Pale	-13709
▁rely	-13710
▁Martha	-13711
RT	-13712
pat	-13713
▁Shar	-13714
rieved	-13715
▁fusion	-13716
▁Hopkins	-13717
istically	-13718
▁Stanford	-13719
▁midnight	-13720
▁maneuvers	-13721
eli	-13722
▁Mam	-13723
hurst	-13724
▁slowed	-13725
▁Bulgaria	-13726
▁missiles	-13727
▁HM	-13728
isle	-13729
umni	-13730
▁NOK	-13731
▁coc	-13732
▁Bott	-13733
▁Gran	-13734
▁diary	-13735
▁drives	-13736
▁thirds	-13737
▁spawned	-13738
▁fragment	-13739
ymn	-13740
aude	-13741
erals	-13742
rified	-13743
▁Edwin	-13744
▁locate	-13745
▁pupils	-13746
▁concludes	-13747
▁sophistic	-13748
▁unpopular	-13749
cut	-13750
▁148	-13751
▁tram	-13752
Though	-13753
▁profits	-13754
▁employee	-13755
▁reflects	-13756
▁disappointment	-13757
▁bend	-13758
▁Basin	-13759
▁reper	-13760
▁Augustus	-13761
▁identification	-13762
▁Yet	-13763
▁fib	-13764
oints	-13765
▁Vern	-13766
▁Sword	-13767
▁blacks	-13768
▁magical	-13769
▁negotiated	-13770
▁destination	-13771
▁inscription	-13772
▁measurements	-13773
imid	-13774
omes	-13775
▁Holl	-13776
▁corp	-13777
▁Delhi	-13778
▁Things	-13779
▁submit	-13780
▁convinc	-13781
[...]
