<unk>	0
<s>	0
</s>	0
<pad>	0
▁t	-0
he	-1
▁a	-2
in	-3
▁the	-4
er	-5
on	-6
▁,	-7
re	-8
▁s	-9
ed	-10
▁w	-11
▁o	-12
nd	-13
at	-14
▁.	-15
or	-16
en	-17
▁c	-18
it	-19
▁f	-20
is	-21
es	-22
ar	-23
▁b	-24
▁of	-25
an	-26
▁in	-27
al	-28
ing	-29
▁p	-30
as	-31
▁and	-32
▁to	-33
ic	-34
ro	-35
▁m	-36
▁d	-37
▁h	-38
ion	-39
le	-40
ou	-41
▁T	-42
▁re	-43
▁=	-44
▁S	-45
il	-46
▁A	-47
ent	-48
▁"	-49
▁1	-50
▁th	-51
st	-52
▁l	-53
el	-54
▁C	-55
▁@	-56
▁e	-57
om	-58
am	-59
▁n	-60
ad	-61
ac	-62
▁was	-63
▁M	-64
▁on	-65
ec	-66
▁B	-67
▁The	-68
ly	-69
▁'	-70
ur	-71
et	-72
id	-73
▁g	-74
ol	-75
im	-76
▁I	-77
-@	-78
▁@-@	-79
▁for	-80
ir	-81
ig	-82
iv	-83
ot	-84
ter	-85
ut	-86
▁H	-87
▁as	-88
us	-89
ow	-90
ith	-91
ay	-92
▁2	-93
▁st	-94
▁P	-95
▁he	-96
ver	-97
ation	-98
▁with	-99
▁be	-100
▁that	-101
▁R	-102
ce	-103
▁D	-104
un	-105
em	-106
▁wh	-107
▁W	-108
▁by	-109
▁F	-110
ch	-111
▁al	-112
th	-113
▁)	-114
▁(	-115
▁is	-116
ul	-117
▁con	-118
▁L	-119
▁at	-120
▁G	-121
ers	-122
ct	-123
▁N	-124
ain	-125
▁19	-126
and	-127
▁an	-128
os	-129
▁it	-130
her	-131
rom	-132
ag	-133
av	-134
um	-135
▁J	-136
est	-137
00	-138
▁his	-139
▁r	-140
▁E	-141
ri	-142
od	-143
▁from	-144
▁O	-145
ist	-146
▁com	-147
ap	-148
▁pro	-149
▁v	-150
op	-151
if	-152
ore	-153
ill	-154
ld	-155
up	-156
ere	-157
ew	-158
res	-159
igh	-160
▁In	-161
ies	-162
▁de	-163
art	-164
ber	-165
ard	-166
ort	-167
▁se	-168
▁were	-169
ich	-170
ate	-171
ak	-172
all	-173
ab	-174
ant	-175
ud	-176
oc	-177
▁ex	-178
ong	-179
qu	-180
▁or	-181
▁ch	-182
gh	-183
ear	-184
ated	-185
▁pl	-186
▁sh	-187
ess	-188
ity	-189
ip	-190
▁K	-191
ive	-192
ame	-193
▁U	-194
▁had	-195
ect	-196
ack	-197
our	-198
▁St	-199
▁su	-200
red	-201
ast	-202
se	-203
▁which	-204
▁k	-205
ment	-206
▁le	-207
ge	-208
und	-209
▁are	-210
ov	-211
ian	-212
ial	-213
▁not	-214
▁sp	-215
ell	-216
ost	-217
▁y	-218
ight	-219
▁tr	-220
ord	-221
ust	-222
ary	-223
ia	-224
ther	-225
rit	-226
pt	-227
ine	-228
▁3	-229
oun	-230
ical	-231
ave	-232
pp	-233
▁Ch	-234
▁un	-235
▁200	-236
cc	-237
▁inc	-238
fter	-239
ould	-240
▁but	-241
irst	-242
ish	-243
ous	-244
ions	-245
▁V	-246
te	-247
▁comp	-248
so	-249
ff	-250
▁20	-251
ide	-252
▁whe	-253
▁ro	-254
ure	-255
▁ar	-256
▁cont	-257
ra	-258
ub	-259
▁;	-260
▁first	-261
ign	-262
▁cl	-263
wo	-264
▁her	-265
ie	-266
▁its	-267
▁their	-268
ue	-269
▁–	-270
og	-271
orm	-272
ass	-273
ork	-274
▁int	-275
▁res	-276
▁:	-277
ok	-278
▁He	-279
ater	-280
▁also	-281
▁ab	-282
▁ad	-283
ome	-284
ond	-285
out	-286
age	-287
ry	-288
mer	-289
ire	-290
hed	-291
▁us	-292
du	-293
▁4	-294
ime	-295
low	-296
ru	-297
▁per	-298
per	-299
ans	-300
▁who	-301
▁one	-302
▁have	-303
▁5	-304
▁Th	-305
▁sc	-306
pl	-307
ally	-308
own	-309
ile	-310
ance	-311
▁rec	-312
▁18	-313
ted	-314
.@	-315
▁@.@	-316
▁two	-317
ition	-318
ugh	-319
ree	-320
ence	-321
uring	-322
port	-323
▁been	-324
▁part	-325
▁bec	-326
ts	-327
▁has	-328
ice	-329
iz	-330
▁ag	-331
▁app	-332
▁Al	-333
▁201	-334
,@	-335
▁@,@	-336
ough	-337
▁en	-338
▁j	-339
▁dis	-340
lud	-341
▁over	-342
▁this	-343
▁ser	-344
ory	-345
▁year	-346
ely	-347
ations	-348
are	-349
ember	-350
ction	-351
ound	-352
ke	-353
▁off	-354
▁after	-355
▁up	-356
ach	-357
▁play	-358
▁des	-359
land	-360
▁It	-361
ace	-362
over	-363
ark	-364
ric	-365
▁out	-366
▁they	-367
▁te	-368
ade	-369
▁other	-370
act	-371
▁man	-372
ib	-373
▁im	-374
ult	-375
▁includ	-376
ress	-377
ced	-378
ail	-379
urn	-380
▁Y	-381
wn	-382
▁would	-383
ens	-384
ind	-385
▁time	-386
▁into	-387
man	-388
▁pre	-389
ang	-390
one	-391
▁On	-392
ep	-393
ward	-394
▁Un	-395
▁him	-396
▁we	-397
oin	-398
we	-399
ite	-400
ates	-401
▁she	-402
▁6	-403
les	-404
ren	-405
▁ev	-406
able	-407
▁att	-408
ased	-409
ilm	-410
ited	-411
amp	-412
end	-413
ever	-414
ied	-415
ase	-416
▁comm	-417
ors	-418
▁inter	-419
rough	-420
ount	-421
oy	-422
form	-423
ons	-424
▁all	-425
▁more	-426
▁work	-427
ood	-428
ces	-429
▁7	-430
ered	-431
old	-432
aw	-433
ings	-434
vel	-435
▁Ar	-436
ild	-437
▁new	-438
▁sec	-439
▁An	-440
▁bet	-441
ick	-442
ose	-443
▁when	-444
▁film	-445
inal	-446
ve	-447
▁fe	-448
ents	-449
ious	-450
ake	-451
way	-452
aus	-453
fer	-454
att	-455
reat	-456
ft	-457
▁cons	-458
iss	-459
round	-460
▁8	-461
▁Mar	-462
▁rem	-463
gan	-464
rib	-465
rop	-466
ved	-467
ason	-468
▁dec	-469
▁during	-470
▁und	-471
orth	-472
ubl	-473
▁again	-474
hip	-475
▁most	-476
▁game	-477
▁9	-478
▁pr	-479
▁As	-480
▁them	-481
▁199	-482
▁only	-483
oth	-484
ween	-485
▁ear	-486
ix	-487
ollow	-488
▁than	-489
ath	-490
▁sup	-491
▁ne	-492
ational	-493
fore	-494
▁Se	-495
▁New	-496
▁about	-497
▁produ	-498
ob	-499
▁cent	-500
▁kn	-501
tern	-502
▁ret	-503
▁char	-504
▁song	-505
▁can	-506
outh	-507
ug	-508
▁between	-509
▁later	-510
ey	-511
▁rele	-512
▁under	-513
▁three	-514
orn	-515
ict	-516
▁col	-517
▁act	-518
hn	-519
ton	-520
iew	-521
▁00	-522
aid	-523
ron	-524
▁through	-525
als	-526
▁qu	-527
orld	-528
▁num	-529
▁En	-530
ook	-531
▁so	-532
▁acc	-533
▁me	-534
▁rel	-535
▁while	-536
▁end	-537
meric	-538
ank	-539
▁Americ	-540
lect	-541
▁fl	-542
ters	-543
▁pos	-544
▁Le	-545
ral	-546
ock	-547
▁sub	-548
▁ass	-549
▁where	-550
ular	-551
ating	-552
▁ver	-553
▁day	-554
▁reg	-555
▁second	-556
▁bu	-557
ener	-558
▁made	-559
▁Com	-560
ames	-561
ision	-562
ived	-563
ck	-564
▁pe	-565
▁record	-566
hes	-567
▁def	-568
bum	-569
▁four	-570
▁Re	-571
son	-572
▁gro	-573
▁follow	-574
▁season	-575
▁000	-576
▁form	-577
▁some	-578
▁ep	-579
▁such	-580
ished	-581
▁am	-582
▁mov	-583
ool	-584
▁before	-585
ained	-586
▁mus	-587
▁there	-588
▁writ	-589
▁Sp	-590
▁Jo	-591
ph	-592
▁spec	-593
ics	-594
ike	-595
▁10	-596
▁years	-597
▁team	-598
iel	-599
▁sy	-600
io	-601
hen	-602
ode	-603
▁This	-604
▁At	-605
▁/	-606
ident	-607
ual	-608
▁lar	-609
▁album	-610
▁ind	-611
owever	-612
ily	-613
▁used	-614
▁ent	-615
▁gr	-616
ros	-617
ning	-618
▁call	-619
▁sur	-620
ific	-621
▁high	-622
▁ac	-623
▁publ	-624
ury	-625
▁Sh	-626
▁being	-627
▁epis	-628
▁then	-629
velop	-630
▁do	-631
led	-632
▁loc	-633
▁exp	-634
ten	-635
ife	-636
▁against	-637
▁17	-638
▁inv	-639
aj	-640
other	-641
ris	-642
▁pres	-643
▁bl	-644
anc	-645
▁number	-646
▁show	-647
▁After	-648
▁charac	-649
▁0	-650
▁sever	-651
▁add	-652
▁set	-653
▁co	-654
ince	-655
ane	-656
▁became	-657
▁rece	-658
ject	-659
▁Brit	-660
ause	-661
▁lead	-662
▁perform	-663
▁including	-664
▁br	-665
▁sing	-666
▁no	-667
▁—	-668
ars	-669
ather	-670
ek	-671
erm	-672
▁United	-673
▁found	-674
▁well	-675
ines	-676
▁rep	-677
▁mon	-678
▁pol	-679
air	-680
▁back	-681
▁both	-682
▁series	-683
▁198	-684
▁cap	-685
▁Sc	-686
ale	-687
▁15	-688
▁12	-689
ober	-690
▁ship	-691
ier	-692
ower	-693
ement	-694
ired	-695
ures	-696
▁Con	-697
its	-698
▁main	-699
▁Wh	-700
ivers	-701
▁194	-702
▁She	-703
ert	-704
▁min	-705
ley	-706
pen	-707
overn	-708
▁did	-709
iet	-710
▁go	-711
der	-712
▁cre	-713
elf	-714
▁develop	-715
▁imp	-716
▁Eng	-717
ram	-718
ities	-719
▁long	-720
▁met	-721
ik	-722
ann	-723
iver	-724
ised	-725
any	-726
ven	-727
olog	-728
ting	-729
ared	-730
▁John	-731
▁mill	-732
ird	-733
▁em	-734
▁air	-735
uch	-736
ful	-737
▁mat	-738
▁episode	-739
tend	-740
az	-741
irect	-742
ll	-743
▁said	-744
▁stud	-745
▁many	-746
▁bro	-747
ute	-748
▁dep	-749
▁could	-750
ative	-751
▁orig	-752
▁car	-753
▁16	-754
▁contin	-755
▁war	-756
▁several	-757
▁American	-758
though	-759
▁dif	-760
▁inst	-761
▁pop	-762
▁Ind	-763
▁Cl	-764
ash	-765
ouse	-766
ield	-767
▁known	-768
▁197	-769
emb	-770
ise	-771
▁196	-772
ually	-773
ty	-774
▁Aust	-775
▁conc	-776
til	-777
▁Br	-778
▁11	-779
iam	-780
view	-781
ins	-782
▁War	-783
erson	-784
▁ob	-785
ued	-786
▁return	-787
▁began	-788
▁sm	-789
▁any	-790
▁comple	-791
▁design	-792
▁desc	-793
▁sign	-794
ern	-795
ople	-796
chool	-797
ross	-798
ange	-799
▁est	-800
my	-801
▁Fr	-802
aking	-803
ccess	-804
▁trans	-805
▁prov	-806
▁De	-807
▁feat	-808
oot	-809
hy	-810
▁inf	-811
▁run	-812
▁early	-813
▁art	-814
▁music	-815
▁dist	-816
▁own	-817
ah	-818
▁near	-819
▁released	-820
ided	-821
▁until	-822
▁Bl	-823
rap	-824
▁called	-825
ized	-826
ism	-827
▁eff	-828
imes	-829
▁Col	-830
▁US	-831
▁resp	-832
▁bel	-833
▁pass	-834
une	-835
ured	-836
stem	-837
▁fin	-838
▁Z	-839
ially	-840
▁May	-841
ists	-842
▁down	-843
ution	-844
enn	-845
▁disc	-846
▁crit	-847
ments	-848
osed	-849
▁direct	-850
▁gener	-851
▁along	-852
xt	-853
▁ins	-854
▁million	-855
▁prev	-856
▁British	-857
▁Ger	-858
▁group	-859
▁offic	-860
▁fam	-861
▁13	-862
▁these	-863
ajor	-864
ium	-865
▁mod	-866
ull	-867
▁may	-868
▁$	-869
ax	-870
▁open	-871
cept	-872
▁mil	-873
eb	-874
▁poin	-875
els	-876
ains	-877
▁Ad	-878
▁land	-879
▁sim	-880
▁hist	-881
gest	-882
▁govern	-883
▁Aug	-884
ger	-885
▁Sept	-886
▁Be	-887
▁success	-888
▁str	-889
▁September	-890
▁August	-891
erv	-892
▁States	-893
▁World	-894
▁oper	-895
▁count	-896
▁attack	-897
uc	-898
ible	-899
▁gu	-900
▁same	-901
▁use	-902
▁Ap	-903
wards	-904
▁describ	-905
▁people	-906
ets	-907
▁character	-908
aced	-909
▁because	-910
▁For	-911
amed	-912
ink	-913
▁All	-914
aining	-915
▁Is	-916
▁like	-917
▁serv	-918
yp	-919
▁14	-920
▁Ju	-921
▁around	-922
▁though	-923
▁start	-924
aving	-925
▁195	-926
▁ed	-927
▁km	-928
▁win	-929
▁const	-930
▁took	-931
▁occ	-932
ues	-933
▁Austral	-934
ruct	-935
▁batt	-936
▁Pl	-937
▁Oct	-938
▁German	-939
ner	-940
▁ann	-941
▁support	-942
ped	-943
▁Nov	-944
▁following	-945
▁six	-946
▁dr	-947
ove	-948
▁north	-949
▁Tr	-950
▁ele	-951
▁193	-952
▁However	-953
▁system	-954
▁appear	-955
▁Q	-956
▁final	-957
▁received	-958
▁class	-959
uss	-960
▁Car	-961
▁October	-962
▁consid	-963
▁prom	-964
▁head	-965
ives	-966
ants	-967
▁Dec	-968
▁191	-969
ility	-970
▁state	-971
▁ever	-972
▁build	-973
ene	-974
▁each	-975
ically	-976
▁five	-977
ling	-978
▁adv	-979
▁ext	-980
anu	-981
▁Pro	-982
▁century	-983
▁York	-984
▁aut	-985
▁area	-986
▁var	-987
ret	-988
▁will	-989
▁They	-990
▁small	-991
ately	-992
rol	-993
▁bo	-994
▁partic	-995
▁life	-996
gin	-997
▁North	-998
iving	-999
▁report	-1000
get	-1001
▁]	-1002
▁[	-1003
ored	-1004
tle	-1005
▁June	-1006
oss	-1007
▁By	-1008
ording	-1009
ril	-1010
▁city	-1011
▁Me	-1012
▁major	-1013
▁King	-1014
▁week	-1015
▁public	-1016
ians	-1017
▁mar	-1018
▁July	-1019
▁%	-1020
ission	-1021
▁conf	-1022
▁band	-1023
ection	-1024
▁ref	-1025
▁November	-1026
med	-1027
urch	-1028
▁Har	-1029
▁rest	-1030
▁Comm	-1031
▁world	-1032
▁since	-1033
▁Will	-1034
inc	-1035
▁med	-1036
▁single	-1037
ina	-1038
raft	-1039
▁April	-1040
esp	-1041
por	-1042
lish	-1043
▁det	-1044
▁March	-1045
▁just	-1046
ried	-1047
▁last	-1048
▁Pr	-1049
ected	-1050
omet	-1051
hest	-1052
ural	-1053
ional	-1054
▁turn	-1055
▁Ed	-1056
▁allow	-1057
aim	-1058
ively	-1059
▁Mc	-1060
▁hel	-1061
ilt	-1062
▁Can	-1063
▁30	-1064
ient	-1065
▁Gr	-1066
▁arr	-1067
▁po	-1068
▁left	-1069
ague	-1070
▁large	-1071
▁line	-1072
▁differ	-1073
idge	-1074
▁care	-1075
▁South	-1076
▁Ge	-1077
cl	-1078
▁south	-1079
▁During	-1080
ales	-1081
ified	-1082
▁book	-1083
▁vers	-1084
▁school	-1085
empt	-1086
▁December	-1087
rist	-1088
▁third	-1089
avy	-1090
▁sl	-1091
ble	-1092
▁incre	-1093
ats	-1094
▁Or	-1095
▁month	-1096
▁due	-1097
▁appro	-1098
ined	-1099
▁played	-1100
..	-1101
▁much	-1102
▁event	-1103
▁25	-1104
▁if	-1105
▁another	-1106
rote	-1107
▁Janu	-1108
▁January	-1109
▁included	-1110
▁192	-1111
▁what	-1112
row	-1113
▁based	-1114
▁place	-1115
eng	-1116
▁short	-1117
aged	-1118
▁II	-1119
by	-1120
▁government	-1121
▁expl	-1122
▁Ph	-1123
ograp	-1124
▁person	-1125
▁wrote	-1126
▁When	-1127
▁track	-1128
ony	-1129
ball	-1130
▁camp	-1131
▁old	-1132
▁tit	-1133
▁name	-1134
apan	-1135
▁death	-1136
▁bre	-1137
ently	-1138
▁port	-1139
alf	-1140
▁ph	-1141
ages	-1142
▁elect	-1143
▁Eu	-1144
▁...	-1145
▁Japan	-1146
▁won	-1147
ience	-1148
ple	-1149
▁child	-1150
ne	-1151
▁lit	-1152
▁prot	-1153
▁kill	-1154
▁eng	-1155
▁story	-1156
▁prog	-1157
ideo	-1158
▁power	-1159
oad	-1160
▁review	-1161
ody	-1162
▁vis	-1163
▁home	-1164
ital	-1165
▁led	-1166
▁Bro	-1167
▁described	-1168
▁previous	-1169
▁requ	-1170
▁cour	-1171
▁family	-1172
▁gun	-1173
▁Te	-1174
oman	-1175
▁way	-1176
ott	-1177
▁named	-1178
▁right	-1179
▁now	-1180
urther	-1181
▁dem	-1182
▁even	-1183
iven	-1184
▁make	-1185
iod	-1186
▁Mus	-1187
▁men	-1188
embers	-1189
ilar	-1190
▁leg	-1191
ged	-1192
iversity	-1193
▁attempt	-1194
ister	-1195
reen	-1196
▁best	-1197
ention	-1198
itions	-1199
omin	-1200
▁repl	-1201
ivision	-1202
▁opp	-1203
▁100	-1204
▁games	-1205
cy	-1206
rench	-1207
aff	-1208
ached	-1209
▁term	-1210
▁Gu	-1211
▁command	-1212
▁top	-1213
ior	-1214
▁hand	-1215
▁poss	-1216
ival	-1217
▁belie	-1218
▁very	-1219
▁dam	-1220
▁those	-1221
▁His	-1222
▁And	-1223
ness	-1224
▁Feb	-1225
ont	-1226
▁Europ	-1227
mp	-1228
ruary	-1229
▁February	-1230
▁iss	-1231
▁still	-1232
▁organ	-1233
▁species	-1234
▁next	-1235
▁Fl	-1236
▁effect	-1237
▁view	-1238
riend	-1239
ances	-1240
self	-1241
▁Christ	-1242
▁par	-1243
▁capt	-1244
▁There	-1245
ps	-1246
▁National	-1247
aken	-1248
▁original	-1249
oci	-1250
▁spe	-1251
ature	-1252
ences	-1253
▁water	-1254
▁addition	-1255
▁join	-1256
ox	-1257
ched	-1258
▁Europe	-1259
▁list	-1260
sh	-1261
▁We	-1262
ery	-1263
▁within	-1264
▁period	-1265
▁members	-1266
lu	-1267
▁mark	-1268
▁built	-1269
▁held	-1270
▁French	-1271
▁deb	-1272
▁exper	-1273
▁release	-1274
▁2010	-1275
▁although	-1276
▁late	-1277
▁former	-1278
hor	-1279
▁great	-1280
▁match	-1281
▁Bar	-1282
rew	-1283
alk	-1284
lev	-1285
▁sold	-1286
▁dest	-1287
augh	-1288
uted	-1289
▁cur	-1290
ney	-1291
▁video	-1292
tended	-1293
line	-1294
▁caus	-1295
▁storm	-1296
ented	-1297
▁West	-1298
ards	-1299
▁cover	-1300
ring	-1301
▁Par	-1302
▁init	-1303
▁role	-1304
▁21	-1305
ropical	-1306
▁William	-1307
▁came	-1308
▁estab	-1309
▁av	-1310
▁days	-1311
▁tri	-1312
▁result	-1313
▁Am	-1314
af	-1315
▁mid	-1316
▁control	-1317
ption	-1318
▁stand	-1319
▁real	-1320
▁polit	-1321
ulation	-1322
ides	-1323
ech	-1324
▁however	-1325
ler	-1326
▁Her	-1327
itary	-1328
au	-1329
oon	-1330
hel	-1331
▁2008	-1332
▁cr	-1333
▁my	-1334
▁2009	-1335
▁prop	-1336
▁few	-1337
▁town	-1338
▁Min	-1339
▁X	-1340
aster	-1341
▁wind	-1342
▁Geor	-1343
ense	-1344
▁you	-1345
▁side	-1346
▁tw	-1347
▁24	-1348
▁continued	-1349
akes	-1350
▁often	-1351
atic	-1352
na	-1353
▁equ	-1354
▁local	-1355
▁sk	-1356
▁2011	-1357
▁Ear	-1358
▁post	-1359
▁among	-1360
▁Man	-1361
▁similar	-1362
▁say	-1363
ham	-1364
ruction	-1365
tal	-1366
▁Air	-1367
omb	-1368
▁Char	-1369
▁Mich	-1370
▁claim	-1371
ead	-1372
▁hum	-1373
elt	-1374
estern	-1375
gy	-1376
▁&	-1377
▁England	-1378
omen	-1379
side	-1380
ator	-1381
reet	-1382
▁No	-1383
br	-1384
▁different	-1385
▁sug	-1386
read	-1387
ract	-1388
let	-1389
▁beh	-1390
▁del	-1391
▁further	-1392
▁typ	-1393
ying	-1394
ese	-1395
▁sent	-1396
▁Rec	-1397
▁level	-1398
ves	-1399
▁considered	-1400
▁take	-1401
▁Dav	-1402
▁law	-1403
ology	-1404
▁fre	-1405
▁2007	-1406
▁22	-1407
ops	-1408
▁career	-1409
▁One	-1410
eter	-1411
par	-1412
ots	-1413
▁production	-1414
esc	-1415
urs	-1416
▁half	-1417
▁Park	-1418
uck	-1419
ices	-1420
▁having	-1421
ampions	-1422
▁City	-1423
ms	-1424
▁English	-1425
▁Acc	-1426
app	-1427
▁El	-1428
ung	-1429
▁moved	-1430
▁east	-1431
▁road	-1432
▁mag	-1433
▁ant	-1434
▁Co	-1435
yl	-1436
▁without	-1437
▁every	-1438
▁west	-1439
▁Although	-1440
me	-1441
ering	-1442
rodu	-1443
▁appe	-1444
▁player	-1445
▁2012	-1446
▁become	-1447
▁position	-1448
▁plan	-1449
▁Cent	-1450
▁history	-1451
▁version	-1452
▁conv	-1453
▁cor	-1454
ondon	-1455
▁Ang	-1456
ront	-1457
bo	-1458
▁Count	-1459
▁cast	-1460
▁influ	-1461
▁London	-1462
▁el	-1463
▁house	-1464
vers	-1465
▁sound	-1466
ches	-1467
ford	-1468
▁commun	-1469
ones	-1470
yle	-1471
▁23	-1472
▁fore	-1473
▁Cal	-1474
▁suggest	-1475
▁club	-1476
ize	-1477
▁strong	-1478
▁invol	-1479
▁Batt	-1480
▁written	-1481
irc	-1482
atter	-1483
▁190	-1484
▁With	-1485
▁less	-1486
▁bas	-1487
▁stat	-1488
▁announ	-1489
aul	-1490
utes	-1491
▁foot	-1492
▁River	-1493
▁order	-1494
ape	-1495
▁refer	-1496
iety	-1497
▁Canad	-1498
rest	-1499
▁prof	-1500
craft	-1501
▁point	-1502
▁given	-1503
sequ	-1504
▁aff	-1505
▁tem	-1506
▁low	-1507
▁trad	-1508
▁hig	-1509
▁want	-1510
▁University	-1511
▁gave	-1512
▁Gener	-1513
▁rad	-1514
iqu	-1515
▁ke	-1516
rent	-1517
▁far	-1518
▁import	-1519
▁never	-1520
▁While	-1521
▁chang	-1522
▁defe	-1523
ailed	-1524
ald	-1525
▁pat	-1526
▁returned	-1527
▁soc	-1528
ories	-1529
▁repres	-1530
▁total	-1531
▁vict	-1532
▁tro	-1533
▁fact	-1534
▁good	-1535
▁High	-1536
▁Pol	-1537
▁company	-1538
▁country	-1539
▁went	-1540
aly	-1541
▁comb	-1542
▁fire	-1543
▁friend	-1544
cess	-1545
▁published	-1546
roy	-1547
▁hour	-1548
ison	-1549
sp	-1550
▁produced	-1551
ges	-1552
levision	-1553
▁find	-1554
▁reported	-1555
aun	-1556
▁origin	-1557
▁youn	-1558
isc	-1559
▁2006	-1560
ably	-1561
▁lost	-1562
▁stated	-1563
▁common	-1564
aign	-1565
▁program	-1566
ille	-1567
▁Ex	-1568
▁particular	-1569
▁light	-1570
▁ord	-1571
ai	-1572
▁adm	-1573
▁Sm	-1574
ington	-1575
con	-1576
▁include	-1577
▁According	-1578
echn	-1579
urric	-1580
▁compet	-1581
▁recorded	-1582
used	-1583
▁building	-1584
hing	-1585
▁press	-1586
gr	-1587
err	-1588
ief	-1589
▁need	-1590
▁project	-1591
▁forces	-1592
▁bus	-1593
▁Sy	-1594
▁nort	-1595
▁ships	-1596
▁should	-1597
▁using	-1598
▁eight	-1599
▁interest	-1600
▁Ab	-1601
▁performance	-1602
aren	-1603
▁service	-1604
▁popular	-1605
▁27	-1606
▁These	-1607
▁ide	-1608
ploy	-1609
▁50	-1610
▁times	-1611
iment	-1612
raw	-1613
▁making	-1614
▁28	-1615
▁aircraft	-1616
▁ten	-1617
▁himself	-1618
▁2013	-1619
oyal	-1620
▁author	-1621
▁father	-1622
ned	-1623
▁military	-1624
tain	-1625
▁fun	-1626
iness	-1627
▁Australia	-1628
▁Sw	-1629
osp	-1630
▁battle	-1631
▁anim	-1632
ampionship	-1633
lear	-1634
▁Sec	-1635
▁Jack	-1636
▁sit	-1637
▁songs	-1638
▁lim	-1639
▁somet	-1640
▁Ass	-1641
atch	-1642
▁fr	-1643
▁read	-1644
outher	-1645
▁Ne	-1646
ae	-1647
▁critic	-1648
▁Pres	-1649
ensive	-1650
▁development	-1651
play	-1652
▁Af	-1653
ither	-1654
ords	-1655
▁how	-1656
▁General	-1657
alth	-1658
▁sw	-1659
itive	-1660
quad	-1661
olution	-1662
▁40	-1663
▁State	-1664
▁Ste	-1665
eder	-1666
outhern	-1667
ases	-1668
▁James	-1669
▁gl	-1670
▁189	-1671
▁26	-1672
▁cross	-1673
▁ground	-1674
▁Dr	-1675
▁ft	-1676
cer	-1677
▁remained	-1678
▁star	-1679
▁Cor	-1680
astern	-1681
acy	-1682
▁characters	-1683
▁Army	-1684
▁national	-1685
▁ste	-1686
▁get	-1687
▁months	-1688
▁suff	-1689
▁present	-1690
▁died	-1691
rick	-1692
oll	-1693
▁gen	-1694
▁developed	-1695
ries	-1696
▁title	-1697
ublic	-1698
rie	-1699
work	-1700
▁sum	-1701
▁Comp	-1702
▁chart	-1703
dom	-1704
▁campaign	-1705
urricane	-1706
▁force	-1707
▁children	-1708
▁League	-1709
fic	-1710
ument	-1711
▁introdu	-1712
ream	-1713
ration	-1714
bs	-1715
▁promot	-1716
▁tour	-1717
ency	-1718
itted	-1719
eth	-1720
▁Bo	-1721
▁signific	-1722
▁across	-1723
isted	-1724
lands	-1725
▁son	-1726
▁away	-1727
▁Gl	-1728
ression	-1729
▁relations	-1730
ael	-1731
▁red	-1732
hern	-1733
▁obs	-1734
▁official	-1735
▁histor	-1736
▁Division	-1737
▁field	-1738
▁fav	-1739
▁pra	-1740
▁felt	-1741
aur	-1742
▁America	-1743
lege	-1744
▁noted	-1745
▁fac	-1746
▁night	-1747
most	-1748
▁announced	-1749
▁reached	-1750
▁intern	-1751
▁Russ	-1752
▁Sim	-1753
▁created	-1754
▁County	-1755
▁areas	-1756
▁destroy	-1757
▁television	-1758
ks	-1759
▁Japanese	-1760
▁2005	-1761
▁station	-1762
▁Road	-1763
▁Rep	-1764
▁coun	-1765
alt	-1766
▁successful	-1767
ressed	-1768
ole	-1769
▁rock	-1770
imately	-1771
▁Sup	-1772
▁arm	-1773
▁Street	-1774
vent	-1775
▁various	-1776
yn	-1777
▁’	-1778
▁val	-1779
▁political	-1780
▁seen	-1781
reg	-1782
▁followed	-1783
▁aver	-1784
▁Mad	-1785
▁too	-1786
▁bar	-1787
▁rank	-1788
▁trav	-1789
▁Mon	-1790
▁performed	-1791
iting	-1792
ising	-1793
▁Rober	-1794
▁cult	-1795
▁served	-1796
▁East	-1797
▁players	-1798
▁2014	-1799
cast	-1800
▁George	-1801
▁29	-1802
iber	-1803
▁Reg	-1804
▁full	-1805
▁decl	-1806
▁cond	-1807
▁rev	-1808
▁begin	-1809
▁prim	-1810
ope	-1811
duct	-1812
▁black	-1813
ality	-1814
ination	-1815
elling	-1816
▁fle	-1817
▁earl	-1818
▁put	-1819
▁circ	-1820
field	-1821
▁cost	-1822
idence	-1823
▁sol	-1824
▁see	-1825
▁process	-1826
omp	-1827
hem	-1828
▁style	-1829
▁Hen	-1830
abor	-1831
▁look	-1832
▁test	-1833
ization	-1834
▁div	-1835
▁seven	-1836
▁enc	-1837
▁To	-1838
▁killed	-1839
▁aud	-1840
ays	-1841
▁help	-1842
▁Phil	-1843
rict	-1844
▁let	-1845
lished	-1846
▁throughout	-1847
▁vol	-1848
▁taken	-1849
▁Ser	-1850
▁tropical	-1851
▁able	-1852
▁Bill	-1853
▁fight	-1854
▁non	-1855
▁discover	-1856
▁agre	-1857
▁little	-1858
ertain	-1859
▁wid	-1860
ecut	-1861
▁cy	-1862
▁becom	-1863
▁significant	-1864
▁age	-1865
▁fem	-1866
▁Em	-1867
ett	-1868
▁meet	-1869
▁ident	-1870
▁hit	-1871
▁special	-1872
▁techn	-1873
ways	-1874
▁writing	-1875
▁er	-1876
oice	-1877
▁struct	-1878
▁established	-1879
▁thought	-1880
irl	-1881
▁broad	-1882
▁cop	-1883
▁body	-1884
▁mm	-1885
enced	-1886
▁front	-1887
▁appeared	-1888
▁does	-1889
▁David	-1890
▁Act	-1891
▁entire	-1892
▁Australian	-1893
▁Part	-1894
▁coll	-1895
epend	-1896
▁coast	-1897
▁points	-1898
▁!	-1899
▁miles	-1900
cil	-1901
▁Per	-1902
aval	-1903
▁award	-1904
▁impro	-1905
▁route	-1906
▁member	-1907
▁Rich	-1908
ought	-1909
ground	-1910
▁women	-1911
▁activ	-1912
▁range	-1913
odes	-1914
▁Mor	-1915
▁caused	-1916
▁started	-1917
▁decided	-1918
ript	-1919
urg	-1920
ivil	-1921
▁You	-1922
▁features	-1923
lected	-1924
▁Afric	-1925
▁general	-1926
▁Med	-1927
▁pain	-1928
▁eventually	-1929
day	-1930
hys	-1931
less	-1932
aves	-1933
iers	-1934
iron	-1935
conom	-1936
▁Royal	-1937
▁race	-1938
ators	-1939
iec	-1940
▁vot	-1941
ming	-1942
ask	-1943
ster	-1944
ana	-1945
▁grow	-1946
▁Pe	-1947
▁manag	-1948
▁arch	-1949
▁feet	-1950
idd	-1951
ogn	-1952
gether	-1953
▁together	-1954
▁added	-1955
rison	-1956
▁hold	-1957
▁House	-1958
▁Hist	-1959
▁cut	-1960
ius	-1961
▁once	-1962
▁188	-1963
ivid	-1964
▁white	-1965
here	-1966
▁My	-1967
▁formed	-1968
ample	-1969
▁tre	-1970
▁located	-1971
lin	-1972
itar	-1973
▁nov	-1974
▁stri	-1975
▁arg	-1976
reek	-1977
▁Sch	-1978
▁modern	-1979
▁conn	-1980
▁instead	-1981
rought	-1982
bert	-1983
▁round	-1984
emy	-1985
▁Qu	-1986
umb	-1987
men	-1988
▁esc	-1989
▁Black	-1990
orts	-1991
aces	-1992
hic	-1993
▁important	-1994
▁mix	-1995
omm	-1996
▁ball	-1997
▁Intern	-1998
ades	-1999
▁crew	-2000
▁pri	-2001
▁saw	-2002
urb	-2003
▁action	-2004
▁completed	-2005
▁31	-2006
cing	-2007
▁redu	-2008
head	-2009
▁playing	-2010
▁Indian	-2011
ects	-2012
▁Other	-2013
oney	-2014
ray	-2015
▁2004	-2016
off	-2017
ament	-2018
cent	-2019
▁insp	-2020
▁population	-2021
▁mater	-2022
▁invest	-2023
ee	-2024
▁base	-2025
▁surv	-2026
▁Michael	-2027
ells	-2028
▁mot	-2029
▁voc	-2030
▁rather	-2031
▁occur	-2032
▁ask	-2033
▁opened	-2034
▁stage	-2035
▁behind	-2036
▁others	-2037
▁186	-2038
ush	-2039
▁fall	-2040
▁guns	-2041
▁brother	-2042
ceed	-2043
asing	-2044
▁ren	-2045
▁comment	-2046
▁lik	-2047
igned	-2048
▁born	-2049
ements	-2050
▁fif	-2051
▁site	-2052
▁2015	-2053
▁live	-2054
▁works	-2055
aps	-2056
▁loss	-2057
▁France	-2058
stit	-2059
▁worked	-2060
▁bomb	-2061
ficult	-2062
▁heavy	-2063
▁miss	-2064
int	-2065
▁ra	-2066
▁pred	-2067
▁School	-2068
▁lack	-2069
▁subsequ	-2070
▁party	-2071
medi	-2072
▁proble	-2073
▁difficult	-2074
▁close	-2075
lection	-2076
wood	-2077
▁construction	-2078
▁Wash	-2079
▁know	-2080
▁Some	-2081
▁relationship	-2082
▁weeks	-2083
▁host	-2084
▁originally	-2085
gg	-2086
▁separ	-2087
▁Ham	-2088
▁upon	-2089
▁associ	-2090
▁pract	-2091
▁Henry	-2092
▁leading	-2093
▁appoin	-2094
nder	-2095
▁Nor	-2096
▁vill	-2097
▁almost	-2098
▁young	-2099
▁Robert	-2100
▁peak	-2101
▁damage	-2102
▁inj	-2103
ara	-2104
istic	-2105
▁scored	-2106
▁San	-2107
▁Port	-2108
▁fourth	-2109
▁inform	-2110
▁2000	-2111
osition	-2112
▁reve	-2113
▁provided	-2114
arch	-2115
▁Best	-2116
▁mer	-2117
▁Ale	-2118
▁Music	-2119
▁case	-2120
▁clos	-2121
▁engine	-2122
anch	-2123
▁goal	-2124
▁reb	-2125
▁creat	-2126
ata	-2127
▁Battle	-2128
▁accept	-2129
▁scene	-2130
▁mi	-2131
lic	-2132
board	-2133
▁human	-2134
▁Vir	-2135
▁dev	-2136
▁Star	-2137
▁brought	-2138
▁Desp	-2139
oring	-2140
ellow	-2141
uk	-2142
▁free	-2143
▁individ	-2144
unk	-2145
▁500	-2146
angu	-2147
▁187	-2148
▁featured	-2149
▁President	-2150
▁Red	-2151
▁mother	-2152
▁least	-2153
▁king	-2154
▁allowed	-2155
▁working	-2156
▁resul	-2157
▁laun	-2158
▁Cour	-2159
▁Paul	-2160
▁average	-2161
ological	-2162
▁towards	-2163
▁wanted	-2164
▁Rou	-2165
▁tradition	-2166
▁indust	-2167
▁region	-2168
▁business	-2169
▁Washington	-2170
ened	-2171
▁troops	-2172
▁placed	-2173
azine	-2174
ule	-2175
▁quick	-2176
▁either	-2177
▁respect	-2178
▁office	-2179
▁critics	-2180
▁Que	-2181
▁avail	-2182
▁ve	-2183
antic	-2184
▁reach	-2185
▁Cap	-2186
▁mult	-2187
▁example	-2188
▁Play	-2189
▁runs	-2190
▁Mil	-2191
▁profess	-2192
▁material	-2193
▁hon	-2194
▁econom	-2195
▁recogn	-2196
aut	-2197
▁wife	-2198
▁Hol	-2199
ula	-2200
iff	-2201
▁estim	-2202
earch	-2203
▁army	-2204
▁foc	-2205
▁neg	-2206
oid	-2207
chie	-2208
▁Despite	-2209
ential	-2210
▁2003	-2211
iol	-2212
▁Bel	-2213
▁sex	-2214
▁Follow	-2215
arm	-2216
rey	-2217
▁sour	-2218
▁generally	-2219
ength	-2220
▁joined	-2221
▁ce	-2222
▁mass	-2223
▁rail	-2224
▁Ag	-2225
quadron	-2226
▁Thom	-2227
▁proper	-2228
▁dou	-2229
ama	-2230
▁current	-2231
▁Angel	-2232
ica	-2233
▁Hill	-2234
ino	-2235
▁events	-2236
▁represent	-2237
▁believed	-2238
to	-2239
▁Cup	-2240
ving	-2241
ourn	-2242
▁particip	-2243
▁bill	-2244
▁ter	-2245
▁Following	-2246
▁Hall	-2247
▁fig	-2248
enes	-2249
▁Game	-2250
▁First	-2251
▁Mary	-2252
sc	-2253
uff	-2254
▁victory	-2255
▁replaced	-2256
▁35	-2257
▁Great	-2258
be	-2259
▁designed	-2260
▁mph	-2261
artment	-2262
▁rul	-2263
▁soon	-2264
▁nomin	-2265
itch	-2266
iction	-2267
▁island	-2268
▁Lou	-2269
itte	-2270
▁fund	-2271
ze	-2272
▁hours	-2273
▁European	-2274
▁employ	-2275
▁Two	-2276
ky	-2277
xic	-2278
▁president	-2279
erous	-2280
▁involved	-2281
go	-2282
oms	-2283
▁surf	-2284
▁Ke	-2285
▁Je	-2286
▁finished	-2287
▁stru	-2288
aled	-2289
ification	-2290
▁Championship	-2291
merc	-2292
▁Gro	-2293
aper	-2294
asion	-2295
▁break	-2296
west	-2297
inist	-2298
▁saying	-2299
fall	-2300
uel	-2301
oor	-2302
▁hor	-2303
▁court	-2304
▁shot	-2305
▁opening	-2306
▁threat	-2307
▁score	-2308
▁Mart	-2309
▁Roman	-2310
▁regular	-2311
ago	-2312
emor	-2313
key	-2314
▁director	-2315
▁length	-2316
▁desp	-2317
▁indic	-2318
▁conduct	-2319
▁largest	-2320
▁La	-2321
▁Scott	-2322
▁contrib	-2323
▁possible	-2324
ecutive	-2325
▁unc	-2326
▁highway	-2327
▁Route	-2328
▁minutes	-2329
▁southern	-2330
▁ill	-2331
▁Dan	-2332
▁dro	-2333
▁z	-2334
ville	-2335
BC	-2336
▁Mal	-2337
▁exc	-2338
▁highest	-2339
▁ly	-2340
▁remov	-2341
ishing	-2342
▁earlier	-2343
▁From	-2344
▁initially	-2345
▁2001	-2346
▁Don	-2347
ander	-2348
of	-2349
▁hom	-2350
▁available	-2351
▁particularly	-2352
▁percent	-2353
▁Atl	-2354
antry	-2355
anned	-2356
now	-2357
▁training	-2358
co	-2359
ude	-2360
▁sequ	-2361
leg	-2362
▁hard	-2363
▁Republic	-2364
▁Sing	-2365
cher	-2366
▁forced	-2367
▁Cro	-2368
▁exist	-2369
▁must	-2370
▁Met	-2371
inn	-2372
ply	-2373
▁grad	-2374
▁Wil	-2375
▁contr	-2376
arn	-2377
▁Charles	-2378
▁Kingdom	-2379
▁Navy	-2380
ights	-2381
▁Val	-2382
▁park	-2383
hib	-2384
iding	-2385
▁ended	-2386
▁respons	-2387
▁Mac	-2388
asy	-2389
▁quar	-2390
ography	-2391
▁turned	-2392
ateg	-2393
▁Thomas	-2394
▁social	-2395
▁International	-2396
ipp	-2397
oul	-2398
▁wall	-2399
▁Off	-2400
uture	-2401
▁studio	-2402
rian	-2403
iforn	-2404
▁change	-2405
▁langu	-2406
▁Virgin	-2407
▁passed	-2408
▁praised	-2409
ems	-2410
▁Dep	-2411
▁hy	-2412
▁McC	-2413
▁White	-2414
▁increased	-2415
▁piec	-2416
▁object	-2417
▁priv	-2418
▁But	-2419
▁hurricane	-2420
bor	-2421
▁Mag	-2422
▁educ	-2423
▁regard	-2424
▁northern	-2425
atural	-2426
▁Brown	-2427
heast	-2428
▁2002	-2429
▁Res	-2430
▁keep	-2431
▁central	-2432
▁Church	-2433
▁phys	-2434
iation	-2435
▁novel	-2436
▁Ber	-2437
▁Canada	-2438
▁relig	-2439
▁appearance	-2440
▁units	-2441
▁Californ	-2442
▁speed	-2443
sel	-2444
itor	-2445
▁super	-2446
ership	-2447
▁past	-2448
▁Pal	-2449
▁church	-2450
▁stop	-2451
▁immedi	-2452
ended	-2453
anks	-2454
ocr	-2455
▁Smith	-2456
▁Rock	-2457
▁ordered	-2458
▁meas	-2459
▁sym	-2460
▁Cam	-2461
▁treat	-2462
▁disp	-2463
▁Bay	-2464
aughter	-2465
uter	-2466
▁Sen	-2467
ios	-2468
▁taking	-2469
ference	-2470
▁Richard	-2471
ittee	-2472
▁independ	-2473
▁signed	-2474
▁love	-2475
▁move	-2476
▁quest	-2477
anding	-2478
▁California	-2479
▁Alex	-2480
▁achie	-2481
ston	-2482
ilities	-2483
▁better	-2484
▁Sam	-2485
etwork	-2486
rem	-2487
▁Union	-2488
val	-2489
aker	-2490
pped	-2491
ique	-2492
▁pers	-2493
▁Sl	-2494
▁Govern	-2495
ecess	-2496
den	-2497
arily	-2498
▁winds	-2499
▁Island	-2500
▁commerc	-2501
▁Ir	-2502
▁enough	-2503
▁positive	-2504
agon	-2505
▁inn	-2506
▁wat	-2507
apt	-2508
▁according	-2509
▁Court	-2510
▁spent	-2511
ears	-2512
▁hous	-2513
▁God	-2514
▁going	-2515
rated	-2516
rup	-2517
▁Mo	-2518
▁above	-2519
▁outside	-2520
elled	-2521
▁slow	-2522
▁ap	-2523
nel	-2524
ump	-2525
▁films	-2526
▁pot	-2527
▁feel	-2528
ume	-2529
▁told	-2530
ids	-2531
▁football	-2532
▁Vict	-2533
▁Award	-2534
▁Cong	-2535
▁previously	-2536
▁recording	-2537
▁states	-2538
▁clear	-2539
quare	-2540
▁1990	-2541
▁mean	-2542
▁Mill	-2543
▁Associ	-2544
▁nine	-2545
▁Up	-2546
uation	-2547
▁failed	-2548
▁subject	-2549
▁assist	-2550
▁come	-2551
▁Company	-2552
usion	-2553
▁required	-2554
▁pur	-2555
▁elements	-2556
▁Jos	-2557
▁prob	-2558
osing	-2559
reng	-2560
▁60	-2561
▁Germany	-2562
▁India	-2563
alion	-2564
com	-2565
▁ey	-2566
edy	-2567
▁reviews	-2568
▁interview	-2569
▁cru	-2570
▁lower	-2571
▁parts	-2572
▁Cr	-2573
▁Stud	-2574
tr	-2575
▁45	-2576
▁itself	-2577
atin	-2578
▁Art	-2579
▁think	-2580
▁Peter	-2581
▁pay	-2582
▁Christian	-2583
▁directed	-2584
ida	-2585
oph	-2586
▁Mark	-2587
▁nar	-2588
▁abs	-2589
for	-2590
▁despite	-2591
itz	-2592
▁sil	-2593
▁flow	-2594
▁cred	-2595
▁esp	-2596
▁Gold	-2597
▁contract	-2598
▁185	-2599
▁Ac	-2600
▁That	-2601
▁debut	-2602
ands	-2603
▁phot	-2604
▁Mer	-2605
▁rain	-2606
ibility	-2607
▁Times	-2608
▁NY	-2609
ready	-2610
▁access	-2611
erved	-2612
isl	-2613
▁beginning	-2614
▁groups	-2615
▁Tom	-2616
▁College	-2617
oke	-2618
het	-2619
▁viol	-2620
nes	-2621
▁section	-2622
▁beg	-2623
▁UK	-2624
▁whose	-2625
onna	-2626
▁Sov	-2627
asons	-2628
▁claimed	-2629
hester	-2630
ows	-2631
▁asked	-2632
▁Cast	-2633
▁Western	-2634
▁international	-2635
▁lines	-2636
▁transfer	-2637
bers	-2638
▁Pat	-2639
▁rap	-2640
▁cou	-2641
▁streng	-2642
▁give	-2643
▁Soviet	-2644
▁screen	-2645
onse	-2646
airs	-2647
rief	-2648
▁additional	-2649
aint	-2650
▁future	-2651
ability	-2652
▁league	-2653
▁key	-2654
▁whom	-2655
▁Mexic	-2656
▁Frank	-2657
▁poor	-2658
▁Span	-2659
ma	-2660
▁gold	-2661
▁Film	-2662
berg	-2663
▁Awards	-2664
acted	-2665
▁introduced	-2666
▁travel	-2667
▁bi	-2668
▁fort	-2669
▁che	-2670
▁evidence	-2671
▁op	-2672
lying	-2673
▁prem	-2674
▁sea	-2675
▁idea	-2676
▁quickly	-2677
ki	-2678
▁don	-2679
▁Grand	-2680
igan	-2681
▁Dem	-2682
▁already	-2683
van	-2684
▁center	-2685
▁bridge	-2686
▁Do	-2687
▁frequ	-2688
▁Force	-2689
onst	-2690
▁election	-2691
▁product	-2692
▁Most	-2693
▁occup	-2694
▁Ben	-2695
▁Soc	-2696
▁1970	-2697
▁except	-2698
▁deal	-2699
atory	-2700
usp	-2701
ecially	-2702
▁pil	-2703
▁Coun	-2704
▁usually	-2705
▁arrived	-2706
▁musical	-2707
▁1980	-2708
▁western	-2709
anded	-2710
eum	-2711
irth	-2712
▁pen	-2713
▁radio	-2714
mar	-2715
▁Britain	-2716
▁block	-2717
▁32	-2718
▁cal	-2719
liam	-2720
▁civil	-2721
ergy	-2722
aring	-2723
eal	-2724
ully	-2725
▁female	-2726
▁sometimes	-2727
ex	-2728
▁study	-2729
▁Rob	-2730
▁cycl	-2731
▁response	-2732
back	-2733
▁food	-2734
▁money	-2735
▁decision	-2736
▁magazine	-2737
▁especially	-2738
▁Day	-2739
▁issue	-2740
ship	-2741
▁Later	-2742
▁env	-2743
liament	-2744
▁Over	-2745
▁Pac	-2746
▁Hot	-2747
▁Victor	-2748
▁surface	-2749
ites	-2750
▁flood	-2751
▁might	-2752
▁lab	-2753
▁liter	-2754
▁carried	-2755
▁shows	-2756
▁guitar	-2757
▁Chic	-2758
▁community	-2759
▁estimated	-2760
bour	-2761
▁construct	-2762
▁remain	-2763
unt	-2764
▁remaining	-2765
▁eastern	-2766
▁1999	-2767
▁minor	-2768
▁defeated	-2769
▁determ	-2770
▁Virginia	-2771
▁Early	-2772
▁approx	-2773
▁larger	-2774
eck	-2775
inent	-2776
▁becoming	-2777
ession	-2778
aries	-2779
▁complete	-2780
▁Mount	-2781
▁police	-2782
▁wood	-2783
▁suggested	-2784
porary	-2785
▁media	-2786
▁pressure	-2787
▁entered	-2788
▁shoot	-2789
▁Bur	-2790
▁Franc	-2791
▁teams	-2792
▁Im	-2793
▁commercial	-2794
▁latter	-2795
▁lyric	-2796
▁market	-2797
▁Los	-2798
▁consider	-2799
▁students	-2800
▁doc	-2801
▁Just	-2802
▁surround	-2803
ift	-2804
▁investig	-2805
erve	-2806
ss	-2807
▁brief	-2808
asc	-2809
▁concern	-2810
▁36	-2811
▁personal	-2812
▁Second	-2813
▁80	-2814
▁lo	-2815
▁certain	-2816
ulf	-2817
▁discuss	-2818
▁prison	-2819
▁Tex	-2820
▁If	-2821
ena	-2822
▁acqu	-2823
inct	-2824
▁Inf	-2825
▁effects	-2826
▁Jackson	-2827
▁complet	-2828
▁appointed	-2829
▁bur	-2830
▁episodes	-2831
▁summer	-2832
▁hop	-2833
ederal	-2834
▁prior	-2835
alled	-2836
gen	-2837
acing	-2838
incip	-2839
▁Fle	-2840
change	-2841
▁der	-2842
▁staff	-2843
enth	-2844
▁size	-2845
▁emer	-2846
▁changes	-2847
ises	-2848
▁Louis	-2849
▁Flor	-2850
▁commission	-2851
▁sat	-2852
▁winning	-2853
▁Oly	-2854
▁limited	-2855
▁tar	-2856
▁scenes	-2857
imate	-2858
▁fleet	-2859
▁leaving	-2860
▁destroyed	-2861
▁Olymp	-2862
▁river	-2863
ulated	-2864
▁draw	-2865
▁Club	-2866
NA	-2867
▁Spanish	-2868
▁self	-2869
▁den	-2870
▁rights	-2871
▁provide	-2872
▁writer	-2873
ournal	-2874
igade	-2875
▁type	-2876
idents	-2877
▁polic	-2878
▁fail	-2879
ires	-2880
▁date	-2881
vey	-2882
han	-2883
▁territ	-2884
▁proposed	-2885
ension	-2886
▁influence	-2887
▁trib	-2888
▁girl	-2889
▁Party	-2890
▁75	-2891
▁overall	-2892
▁arrang	-2893
▁transport	-2894
ests	-2895
▁1960	-2896
▁structure	-2897
▁184	-2898
ties	-2899
▁tax	-2900
iser	-2901
▁equip	-2902
su	-2903
▁contro	-2904
▁division	-2905
▁kil	-2906
sy	-2907
▁script	-2908
▁Green	-2909
inese	-2910
▁300	-2911
▁Association	-2912
▁agreed	-2913
▁room	-2914
▁intended	-2915
iral	-2916
ores	-2917
▁Edward	-2918
▁running	-2919
▁anti	-2920
▁jud	-2921
▁Chicago	-2922
▁bow	-2923
▁daughter	-2924
yr	-2925
▁broadcast	-2926
▁nearly	-2927
▁purch	-2928
▁supported	-2929
ending	-2930
▁big	-2931
▁research	-2932
▁Many	-2933
▁Pri	-2934
▁deep	-2935
▁wide	-2936
▁establish	-2937
▁Adm	-2938
▁helped	-2939
imum	-2940
atives	-2941
▁married	-2942
▁movement	-2943
▁1998	-2944
▁awarded	-2945
▁Chinese	-2946
tt	-2947
II	-2948
aded	-2949
▁Du	-2950
▁Council	-2951
▁lay	-2952
▁multip	-2953
▁Song	-2954
AF	-2955
▁Oper	-2956
▁create	-2957
▁favor	-2958
▁display	-2959
▁intens	-2960
atively	-2961
lo	-2962
▁di	-2963
▁bird	-2964
▁dark	-2965
▁Enter	-2966
que	-2967
▁susp	-2968
rd	-2969
▁diss	-2970
▁stars	-2971
pris	-2972
teen	-2973
ga	-2974
▁longer	-2975
iles	-2976
▁Cont	-2977
▁language	-2978
▁Ev	-2979
▁higher	-2980
sen	-2981
▁planned	-2982
▁compared	-2983
▁captured	-2984
▁increasing	-2985
dle	-2986
▁fans	-2987
▁Ro	-2988
▁stay	-2989
ha	-2990
▁course	-2991
▁conclud	-2992
▁changed	-2993
selves	-2994
▁experience	-2995
▁Johnson	-2996
▁approximately	-2997
▁Serv	-2998
▁related	-2999
▁done	-3000
▁feature	-3001
▁fifth	-3002
▁cat	-3003
▁living	-3004
▁themselves	-3005
omer	-3006
▁Emp	-3007
ounds	-3008
ronic	-3009
▁producer	-3010
▁History	-3011
enty	-3012
▁Kore	-3013
tained	-3014
▁Ital	-3015
▁temper	-3016
▁tracks	-3017
▁mostly	-3018
▁space	-3019
▁Pacific	-3020
▁Lit	-3021
▁withd	-3022
isions	-3023
abit	-3024
burg	-3025
▁Billboard	-3026
▁thus	-3027
▁70	-3028
▁33	-3029
▁-	-3030
▁woman	-3031
▁operations	-3032
▁remains	-3033
▁dead	-3034
▁Back	-3035
▁paren	-3036
▁bring	-3037
▁quarter	-3038
▁our	-3039
▁natural	-3040
▁Super	-3041
▁whether	-3042
▁Not	-3043
olic	-3044
thing	-3045
umn	-3046
▁Bet	-3047
▁imm	-3048
▁weap	-3049
▁probably	-3050
▁soldiers	-3051
▁Final	-3052
▁dram	-3053
▁concept	-3054
andon	-3055
▁Sal	-3056
▁copies	-3057
▁App	-3058
▁Scot	-3059
imin	-3060
▁ult	-3061
▁buildings	-3062
▁leader	-3063
▁syn	-3064
▁extended	-3065
▁1997	-3066
▁Since	-3067
▁voice	-3068
▁Inter	-3069
▁lyrics	-3070
▁face	-3071
▁Atlantic	-3072
▁forward	-3073
can	-3074
▁depart	-3075
▁boy	-3076
▁complex	-3077
oint	-3078
▁board	-3079
▁Mont	-3080
▁react	-3081
▁issued	-3082
▁battles	-3083
▁chall	-3084
riage	-3085
iant	-3086
▁really	-3087
▁countries	-3088
▁heav	-3089
vin	-3090
iring	-3091
▁suffered	-3092
ospital	-3093
▁Congress	-3094
▁cm	-3095
▁Lake	-3096
▁Love	-3097
▁goals	-3098
▁includes	-3099
▁Florida	-3100
▁Sever	-3101
▁immediately	-3102
raz	-3103
▁Kn	-3104
▁attend	-3105
▁Sun	-3106
ams	-3107
▁Both	-3108
▁Fort	-3109
▁deg	-3110
▁breed	-3111
▁mixed	-3112
▁manager	-3113
▁private	-3114
▁capital	-3115
▁officers	-3116
che	-3117
▁likely	-3118
▁Jew	-3119
▁Jim	-3120
hood	-3121
▁emb	-3122
▁37	-3123
▁cann	-3124
▁Big	-3125
▁distrib	-3126
lebr	-3127
▁Queen	-3128
▁Old	-3129
▁removed	-3130
▁Texas	-3131
▁initial	-3132
▁increase	-3133
▁plant	-3134
▁mach	-3135
▁Sea	-3136
venue	-3137
▁health	-3138
▁subsequently	-3139
▁leave	-3140
▁plans	-3141
▁always	-3142
ibr	-3143
uz	-3144
▁focus	-3145
▁Town	-3146
▁services	-3147
▁network	-3148
▁status	-3149
▁coin	-3150
hold	-3151
▁via	-3152
ections	-3153
▁compan	-3154
▁location	-3155
▁visit	-3156
▁China	-3157
▁Dist	-3158
▁mount	-3159
bury	-3160
▁Another	-3161
▁Law	-3162
urt	-3163
▁problems	-3164
▁Mr	-3165
order	-3166
▁Lord	-3167
rial	-3168
▁offered	-3169
▁instr	-3170
▁flag	-3171
▁Earth	-3172
▁terms	-3173
▁model	-3174
▁How	-3175
▁norm	-3176
uth	-3177
▁approach	-3178
aily	-3179
▁colon	-3180
ny	-3181
▁village	-3182
▁something	-3183
▁administ	-3184
▁tons	-3185
▁carry	-3186
ounted	-3187
stant	-3188
ging	-3189
▁fell	-3190
▁mur	-3191
▁Camp	-3192
▁majority	-3193
ironment	-3194
ria	-3195
▁tow	-3196
▁professional	-3197
▁Canadian	-3198
▁183	-3199
orning	-3200
ctor	-3201
ili	-3202
▁Trans	-3203
ously	-3204
▁Tor	-3205
▁Boy	-3206
amer	-3207
▁Its	-3208
adium	-3209
▁tor	-3210
▁Rail	-3211
▁Africa	-3212
ari	-3213
▁got	-3214
ograph	-3215
▁cause	-3216
ills	-3217
▁consist	-3218
uries	-3219
▁damaged	-3220
▁inters	-3221
▁meeting	-3222
▁Wood	-3223
well	-3224
▁Tour	-3225
▁appears	-3226
▁job	-3227
▁confir	-3228
▁counter	-3229
▁minute	-3230
▁adop	-3231
aches	-3232
etic	-3233
▁Step	-3234
▁Pet	-3235
▁ranked	-3236
▁ran	-3237
▁composed	-3238
▁individual	-3239
▁Center	-3240
▁Squadron	-3241
▁revealed	-3242
▁Highway	-3243
▁meth	-3244
▁attacks	-3245
▁flight	-3246
▁Russian	-3247
itect	-3248
cean	-3249
▁sch	-3250
reater	-3251
▁plot	-3252
▁raised	-3253
▁discovered	-3254
▁Tur	-3255
ware	-3256
▁respectively	-3257
▁financ	-3258
ys	-3259
▁makes	-3260
umed	-3261
▁Mur	-3262
ify	-3263
▁Carol	-3264
ij	-3265
▁numerous	-3266
▁Central	-3267
▁Kent	-3268
▁1995	-3269
▁Sir	-3270
▁Martin	-3271
▁associated	-3272
ien	-3273
oes	-3274
▁takes	-3275
▁Angeles	-3276
▁altern	-3277
▁III	-3278
▁Ol	-3279
reak	-3280
▁inspired	-3281
▁needed	-3282
▁domin	-3283
aging	-3284
mon	-3285
▁lived	-3286
▁90	-3287
▁Ant	-3288
▁launched	-3289
▁yet	-3290
▁anc	-3291
▁nature	-3292
ription	-3293
olk	-3294
▁occurred	-3295
▁Bow	-3296
▁contains	-3297
▁vehic	-3298
fact	-3299
▁coach	-3300
▁shown	-3301
▁cand	-3302
▁bene	-3303
▁pow	-3304
estival	-3305
▁attempted	-3306
▁attacked	-3307
ails	-3308
▁moving	-3309
uments	-3310
▁conditions	-3311
▁upper	-3312
uals	-3313
▁DV	-3314
ault	-3315
▁amb	-3316
▁sales	-3317
▁dig	-3318
▁accomp	-3319
ective	-3320
▁Group	-3321
▁Year	-3322
▁collect	-3323
▁2016	-3324
joy	-3325
▁TV	-3326
▁issues	-3327
▁Miss	-3328
▁1996	-3329
▁Rh	-3330
aught	-3331
▁birth	-3332
▁34	-3333
down	-3334
▁1950	-3335
gely	-3336
itt	-3337
▁whole	-3338
▁information	-3339
▁exam	-3340
▁Str	-3341
de	-3342
▁slight	-3343
▁yards	-3344
▁Empire	-3345
▁Rad	-3346
arian	-3347
▁Mel	-3348
▁referred	-3349
▁38	-3350
▁box	-3351
urity	-3352
lor	-3353
▁critical	-3354
▁mom	-3355
uing	-3356
▁numbers	-3357
▁finally	-3358
▁incor	-3359
▁smaller	-3360
▁elected	-3361
▁selected	-3362
▁resulted	-3363
▁defeat	-3364
reme	-3365
▁Rev	-3366
▁scient	-3367
▁grant	-3368
▁portray	-3369
▁active	-3370
▁qual	-3371
▁singer	-3372
▁sen	-3373
vert	-3374
▁Des	-3375
▁bad	-3376
▁princip	-3377
win	-3378
▁Out	-3379
▁standard	-3380
imb	-3381
ste	-3382
▁celebr	-3383
▁secret	-3384
▁mission	-3385
▁industry	-3386
▁sal	-3387
uated	-3388
▁1994	-3389
▁Italian	-3390
iest	-3391
▁largely	-3392
▁grand	-3393
▁Penn	-3394
▁operation	-3395
▁Under	-3396
▁pit	-3397
enant	-3398
itation	-3399
▁assigned	-3400
▁link	-3401
ortun	-3402
▁cer	-3403
▁ens	-3404
eph	-3405
▁earned	-3406
▁analy	-3407
▁saf	-3408
▁legisl	-3409
▁Del	-3410
▁commented	-3411
▁thr	-3412
▁ang	-3413
▁expected	-3414
▁male	-3415
▁prec	-3416
amb	-3417
▁Corps	-3418
itude	-3419
▁roy	-3420
▁DVD	-3421
▁audience	-3422
▁listed	-3423
▁i	-3424
▁covered	-3425
ken	-3426
▁artic	-3427
izing	-3428
▁unable	-3429
▁Crit	-3430
▁purp	-3431
▁sched	-3432
▁traditional	-3433
oe	-3434
▁Ter	-3435
▁education	-3436
▁trade	-3437
irection	-3438
▁friends	-3439
▁artist	-3440
▁double	-3441
▁newsp	-3442
▁heart	-3443
▁refused	-3444
▁closed	-3445
▁sem	-3446
▁underst	-3447
▁Viet	-3448
▁Gar	-3449
▁attention	-3450
▁recover	-3451
▁primary	-3452
▁method	-3453
ounts	-3454
▁request	-3455
use	-3456
▁sister	-3457
▁prevent	-3458
aine	-3459
▁kind	-3460
▁talk	-3461
▁Michigan	-3462
ogue	-3463
▁reason	-3464
onic	-3465
ighter	-3466
▁letter	-3467
▁officer	-3468
▁below	-3469
anced	-3470
▁contem	-3471
▁1940	-3472
▁Dis	-3473
▁enjoy	-3474
▁Wales	-3475
▁ability	-3476
▁depression	-3477
▁meant	-3478
kin	-3479
▁declared	-3480
▁performances	-3481
▁plat	-3482
hips	-3483
ider	-3484
ples	-3485
▁walk	-3486
oly	-3487
▁giving	-3488
▁Nort	-3489
undred	-3490
▁word	-3491
▁fighting	-3492
▁blood	-3493
▁commander	-3494
▁religious	-3495
▁More	-3496
▁180	-3497
▁books	-3498
▁compl	-3499
oud	-3500
▁Mass	-3501
▁theat	-3502
tered	-3503
▁middle	-3504
isher	-3505
▁Cath	-3506
▁sett	-3507
▁rate	-3508
▁max	-3509
▁hot	-3510
▁records	-3511
▁49	-3512
iled	-3513
▁matches	-3514
▁names	-3515
▁Democr	-3516
▁constit	-3517
▁Acad	-3518
▁produce	-3519
▁question	-3520
aped	-3521
▁Bec	-3522
▁Test	-3523
▁competition	-3524
antasy	-3525
▁serious	-3526
▁Cle	-3527
▁Care	-3528
▁Pre	-3529
▁centre	-3530
▁unit	-3531
▁Ox	-3532
▁Team	-3533
▁vocals	-3534
▁disapp	-3535
▁Minister	-3536
bridge	-3537
▁Several	-3538
odies	-3539
▁mention	-3540
▁Zeal	-3541
utch	-3542
▁1992	-3543
iences	-3544
▁account	-3545
ounded	-3546
▁touch	-3547
▁Major	-3548
▁abandon	-3549
▁Long	-3550
▁rapid	-3551
icted	-3552
▁energy	-3553
ady	-3554
shire	-3555
▁necess	-3556
▁Arch	-3557
rug	-3558
ector	-3559
road	-3560
▁Midd	-3561
▁kilomet	-3562
icient	-3563
quar	-3564
▁dra	-3565
ervation	-3566
▁constructed	-3567
ims	-3568
▁traff	-3569
▁Kenn	-3570
▁Er	-3571
▁Lu	-3572
▁dut	-3573
▁vir	-3574
ening	-3575
▁Cons	-3576
▁theme	-3577
▁Bu	-3578
▁Fore	-3579
▁ris	-3580
▁mor	-3581
ona	-3582
echan	-3583
▁Wal	-3584
▁royal	-3585
▁41	-3586
▁nearby	-3587
▁highly	-3588
ishop	-3589
▁pick	-3590
▁Zealand	-3591
▁Time	-3592
▁separate	-3593
▁train	-3594
oses	-3595
▁har	-3596
▁continue	-3597
▁chief	-3598
▁Fox	-3599
▁effort	-3600
▁presented	-3601
ares	-3602
▁combat	-3603
edic	-3604
rier	-3605
▁prep	-3606
▁drum	-3607
▁positions	-3608
▁Mexico	-3609
▁reduced	-3610
▁annual	-3611
▁African	-3612
▁controvers	-3613
▁cas	-3614
▁Four	-3615
▁directly	-3616
ansion	-3617
▁Chris	-3618
ieut	-3619
▁1930	-3620
▁levels	-3621
▁means	-3622
ibly	-3623
▁tur	-3624
▁400	-3625
▁notes	-3626
▁attended	-3627
▁neigh	-3628
▁tried	-3629
▁practice	-3630
▁sevent	-3631
▁forest	-3632
▁compos	-3633
▁Matt	-3634
▁cle	-3635
emorial	-3636
ether	-3637
▁Haw	-3638
▁edition	-3639
▁Sum	-3640
ining	-3641
▁twenty	-3642
▁fast	-3643
▁accepted	-3644
▁nuc	-3645
▁1993	-3646
▁Madonna	-3647
vement	-3648
▁stating	-3649
ette	-3650
▁Chart	-3651
▁1991	-3652
▁metal	-3653
▁Wall	-3654
▁architect	-3655
oper	-3656
▁watch	-3657
▁So	-3658
▁movie	-3659
▁text	-3660
▁repe	-3661
▁candid	-3662
cel	-3663
rical	-3664
anes	-3665
▁Scotland	-3666
▁concert	-3667
▁advance	-3668
stitute	-3669
▁Bob	-3670
track	-3671
▁Jones	-3672
acher	-3673
osen	-3674
▁pair	-3675
▁179	-3676
▁direction	-3677
ado	-3678
▁rein	-3679
▁seem	-3680
▁Their	-3681
▁schools	-3682
ersey	-3683
▁legal	-3684
▁55	-3685
▁dism	-3686
▁reject	-3687
ping	-3688
▁rare	-3689
lict	-3690
aver	-3691
▁marriage	-3692
▁thick	-3693
wide	-3694
▁Department	-3695
▁oil	-3696
▁Greek	-3697
▁horse	-3698
illery	-3699
eway	-3700
▁recomm	-3701
▁efforts	-3702
▁managed	-3703
▁asp	-3704
▁Manc	-3705
▁Dar	-3706
▁college	-3707
sis	-3708
oo	-3709
▁purs	-3710
icip	-3711
▁resulting	-3712
▁ending	-3713
▁Cross	-3714
▁avoid	-3715
ieutenant	-3716
▁wing	-3717
utions	-3718
▁showed	-3719
▁Sar	-3720
▁Three	-3721
▁dropped	-3722
▁responsible	-3723
▁Infantry	-3724
▁Tre	-3725
▁inside	-3726
▁nation	-3727
inem	-3728
▁kept	-3729
▁cases	-3730
▁environment	-3731
band	-3732
light	-3733
irit	-3734
▁182	-3735
▁cust	-3736
▁culture	-3737
▁Ann	-3738
▁Foot	-3739
▁meaning	-3740
▁Bost	-3741
▁Arab	-3742
▁cyclone	-3743
▁Dou	-3744
awn	-3745
house	-3746
▁begins	-3747
▁incorpor	-3748
▁Hel	-3749
▁variety	-3750
illed	-3751
▁morning	-3752
▁rat	-3753
ceeded	-3754
▁39	-3755
▁houses	-3756
uit	-3757
▁cerem	-3758
▁forms	-3759
isation	-3760
▁dom	-3761
▁championship	-3762
▁Service	-3763
▁words	-3764
▁Leg	-3765
▁Post	-3766
▁Creek	-3767
peror	-3768
▁arrest	-3769
▁ge	-3770
like	-3771
▁Stone	-3772
▁Williams	-3773
▁schol	-3774
▁Records	-3775
▁inches	-3776
▁marked	-3777
▁Hung	-3778
▁Secret	-3779
▁continues	-3780
▁yard	-3781
▁181	-3782
▁science	-3783
▁48	-3784
MS	-3785
▁symb	-3786
▁perm	-3787
cend	-3788
▁uses	-3789
▁Parliament	-3790
▁economic	-3791
▁bank	-3792
▁Go	-3793
ecting	-3794
▁source	-3795
▁BC	-3796
▁spl	-3797
gypt	-3798
▁42	-3799
▁News	-3800
▁Games	-3801
▁quality	-3802
ka	-3803
iated	-3804
▁defend	-3805
writ	-3806
olf	-3807
thel	-3808
▁lear	-3809
▁hundred	-3810
▁settle	-3811
▁Stan	-3812
ulations	-3813
▁conducted	-3814
▁Arm	-3815
▁starting	-3816
▁Mic	-3817
▁impact	-3818
▁Sur	-3819
▁your	-3820
cle	-3821
▁strugg	-3822
▁specific	-3823
▁allowing	-3824
thur	-3825
▁Egypt	-3826
▁Society	-3827
▁Fin	-3828
▁1942	-3829
▁presence	-3830
▁ple	-3831
▁Book	-3832
bed	-3833
▁beat	-3834
▁amount	-3835
▁viewers	-3836
▁du	-3837
ait	-3838
▁sides	-3839
▁metres	-3840
aph	-3841
▁dance	-3842
wh	-3843
▁chap	-3844
▁rule	-3845
▁exhib	-3846
▁suppl	-3847
▁Prince	-3848
▁univers	-3849
▁Southern	-3850
▁Stephen	-3851
▁distinct	-3852
▁multiple	-3853
▁transferred	-3854
▁potential	-3855
▁raid	-3856
▁Committee	-3857
▁foreign	-3858
een	-3859
▁Oxford	-3860
▁contrast	-3861
▁Win	-3862
▁peaked	-3863
▁Latin	-3864
▁Oh	-3865
ols	-3866
irm	-3867
▁enemy	-3868
ingu	-3869
▁Jer	-3870
▁captain	-3871
▁becomes	-3872
▁traffic	-3873
itiz	-3874
arent	-3875
▁owned	-3876
▁Tri	-3877
▁founded	-3878
▁greater	-3879
▁things	-3880
▁mess	-3881
▁Like	-3882
▁Georg	-3883
▁Admiral	-3884
▁vocal	-3885
▁portion	-3886
▁Spec	-3887
▁concluded	-3888
gl	-3889
▁65	-3890
▁castle	-3891
▁Joseph	-3892
▁scoring	-3893
▁property	-3894
▁respond	-3895
▁stories	-3896
sych	-3897
▁encoun	-3898
▁Boston	-3899
▁attempts	-3900
▁opt	-3901
▁relatively	-3902
▁Manchester	-3903
▁Chief	-3904
▁Sat	-3905
▁primarily	-3906
iance	-3907
▁demonst	-3908
▁Harrison	-3909
inet	-3910
▁federal	-3911
▁financial	-3912
▁Because	-3913
▁Before	-3914
▁Hal	-3915
▁Jeff	-3916
▁actually	-3917
▁animals	-3918
▁Brad	-3919
▁Captain	-3920
▁Class	-3921
ressive	-3922
▁Hurricane	-3923
▁observed	-3924
▁Swed	-3925
▁collection	-3926
fect	-3927
▁Sol	-3928
ellig	-3929
▁opportun	-3930
▁titled	-3931
▁Vietn	-3932
▁tourn	-3933
▁featuring	-3934
▁47	-3935
▁Kh	-3936
▁lif	-3937
▁Form	-3938
▁writers	-3939
ita	-3940
istics	-3941
▁write	-3942
kn	-3943
▁1944	-3944
aud	-3945
▁journal	-3946
▁strength	-3947
▁Sil	-3948
▁weaken	-3949
▁inch	-3950
▁wor	-3951
▁Bridge	-3952
ours	-3953
▁Ever	-3954
▁distance	-3955
▁paid	-3956
▁spot	-3957
▁premi	-3958
▁mechan	-3959
▁situation	-3960
▁Tw	-3961
▁parents	-3962
▁Commission	-3963
▁Battalion	-3964
▁independent	-3965
▁figure	-3966
umber	-3967
▁Ott	-3968
▁share	-3969
▁acting	-3970
▁companies	-3971
right	-3972
▁Def	-3973
▁divided	-3974
▁actor	-3975
eds	-3976
▁Fred	-3977
▁onto	-3978
▁Little	-3979
▁Tim	-3980
▁Paris	-3981
ani	-3982
▁collabor	-3983
▁Den	-3984
▁Produ	-3985
▁slightly	-3986
▁mind	-3987
▁target	-3988
▁piece	-3989
▁Series	-3990
▁Life	-3991
▁function	-3992
▁52	-3993
▁selling	-3994
▁46	-3995
perial	-3996
▁Columb	-3997
▁reform	-3998
▁64	-3999
▁powerful	-4000
▁Bat	-4001
ricket	-4002
▁innings	-4003
▁concent	-4004
▁Carl	-4005
▁rating	-4006
▁torped	-4007
▁Entertain	-4008
thlet	-4009
▁lot	-4010
▁plays	-4011
▁broke	-4012
▁rough	-4013
▁today	-4014
▁BBC	-4015
▁era	-4016
ils	-4017
▁Ver	-4018
▁Youn	-4019
chest	-4020
▁actions	-4021
istry	-4022
▁Croat	-4023
▁waters	-4024
oration	-4025
▁mel	-4026
▁ultimately	-4027
▁cho	-4028
▁trial	-4029
▁square	-4030
▁maximum	-4031
▁dise	-4032
▁Luc	-4033
▁43	-4034
udd	-4035
▁Histor	-4036
uge	-4037
ada	-4038
▁pilot	-4039
▁tend	-4040
▁bound	-4041
annel	-4042
▁Academy	-4043
▁completely	-4044
astic	-4045
▁Max	-4046
▁sought	-4047
acts	-4048
rown	-4049
▁interp	-4050
▁1920	-4051
▁1945	-4052
rel	-4053
▁policy	-4054
▁scale	-4055
sw	-4056
anna	-4057
▁Mod	-4058
▁blue	-4059
▁Pan	-4060
▁society	-4061
force	-4062
▁mainly	-4063
lam	-4064
▁44	-4065
▁behav	-4066
▁Museum	-4067
▁log	-4068
▁Saint	-4069
▁Line	-4070
rupt	-4071
▁1941	-4072
▁designated	-4073
▁ess	-4074
▁hus	-4075
load	-4076
mas	-4077
▁officials	-4078
▁struck	-4079
▁conver	-4080
mond	-4081
▁activity	-4082
▁combined	-4083
▁influenced	-4084
ux	-4085
▁transl	-4086
olved	-4087
▁wear	-4088
cers	-4089
▁search	-4090
stein	-4091
ylvan	-4092
▁Italy	-4093
▁Entertainment	-4094
▁150	-4095
▁vess	-4096
▁Pop	-4097
while	-4098
▁thir	-4099
▁calling	-4100
▁thous	-4101
▁gar	-4102
ees	-4103
▁alongside	-4104
▁Way	-4105
▁northeast	-4106
▁seconds	-4107
▁batter	-4108
under	-4109
▁Brigade	-4110
▁sout	-4111
▁Americans	-4112
▁corn	-4113
▁sources	-4114
▁winter	-4115
orses	-4116
▁background	-4117
itan	-4118
▁Lee	-4119
▁webs	-4120
alle	-4121
▁Ire	-4122
▁seg	-4123
aga	-4124
▁Hor	-4125
▁recent	-4126
▁theory	-4127
mark	-4128
▁suc	-4129
▁ice	-4130
▁gained	-4131
▁nominated	-4132
rative	-4133
▁electric	-4134
▁crow	-4135
▁Gre	-4136
▁platform	-4137
▁artists	-4138
▁Conf	-4139
▁problem	-4140
▁Van	-4141
▁mem	-4142
▁Regiment	-4143
iano	-4144
▁encour	-4145
▁Tod	-4146
▁widely	-4147
▁Wind	-4148
▁naval	-4149
▁systems	-4150
▁promoted	-4151
quarters	-4152
aven	-4153
▁confirmed	-4154
ini	-4155
▁news	-4156
▁reaching	-4157
ya	-4158
▁Ireland	-4159
▁proved	-4160
▁results	-4161
▁Avenue	-4162
illa	-4163
osaur	-4164
HL	-4165
ibrary	-4166
▁passing	-4167
▁albums	-4168
rate	-4169
▁Fleet	-4170
▁explained	-4171
▁greatest	-4172
adel	-4173
▁conflict	-4174
▁subsequent	-4175
▁Add	-4176
▁invasion	-4177
ota	-4178
▁wick	-4179
▁content	-4180
▁1989	-4181
▁charge	-4182
▁coming	-4183
▁sixth	-4184
▁peace	-4185
▁resist	-4186
▁hero	-4187
▁northwest	-4188
▁county	-4189
ube	-4190
▁shortly	-4191
▁1943	-4192
▁weather	-4193
▁Good	-4194
▁versions	-4195
▁adj	-4196
▁serve	-4197
▁causing	-4198
oured	-4199
▁says	-4200
▁sust	-4201
▁Orig	-4202
pe	-4203
hew	-4204
▁expressed	-4205
▁path	-4206
▁reception	-4207
▁Ell	-4208
▁Victoria	-4209
tation	-4210
▁ir	-4211
▁seek	-4212
▁burn	-4213
▁Ray	-4214
iced	-4215
itness	-4216
▁residents	-4217
▁Catholic	-4218
▁emot	-4219
▁border	-4220
▁Bus	-4221
▁Tropical	-4222
▁soundtrack	-4223
TV	-4224
▁cities	-4225
▁sn	-4226
▁Charl	-4227
▁Valley	-4228
▁seasons	-4229
▁appearances	-4230
aling	-4231
▁favour	-4232
▁sense	-4233
omy	-4234
ategory	-4235
▁Norm	-4236
▁Ty	-4237
onn	-4238
▁Work	-4239
▁Alb	-4240
▁sexual	-4241
▁require	-4242
▁51	-4243
▁chem	-4244
▁Nin	-4245
town	-4246
▁hospital	-4247
▁green	-4248
▁identified	-4249
▁physical	-4250
▁Sant	-4251
▁older	-4252
▁Light	-4253
ips	-4254
ancy	-4255
▁Aut	-4256
▁hands	-4257
▁Though	-4258
ih	-4259
▁true	-4260
▁offer	-4261
▁tells	-4262
▁document	-4263
▁Live	-4264
▁dedic	-4265
bit	-4266
▁kg	-4267
ighth	-4268
▁Middle	-4269
▁iron	-4270
▁artillery	-4271
▁represented	-4272
▁Commun	-4273
bon	-4274
▁weapons	-4275
▁Liber	-4276
▁ahead	-4277
▁Through	-4278
▁Football	-4279
arden	-4280
▁pun	-4281
unction	-4282
eption	-4283
ym	-4284
▁Show	-4285
▁Dev	-4286
▁negot	-4287
▁gas	-4288
ylvania	-4289
▁heavily	-4290
▁Upon	-4291
▁eas	-4292
ero	-4293
za	-4294
▁Far	-4295
▁supp	-4296
▁Lo	-4297
abeth	-4298
▁Dutch	-4299
AS	-4300
▁defense	-4301
itable	-4302
▁student	-4303
▁image	-4304
▁spread	-4305
▁alone	-4306
▁apparent	-4307
▁studies	-4308
▁officially	-4309
▁Direct	-4310
▁Week	-4311
▁Jul	-4312
▁Ma	-4313
▁husband	-4314
known	-4315
▁district	-4316
▁executive	-4317
▁Bey	-4318
▁Tay	-4319
▁Young	-4320
▁Sub	-4321
▁farm	-4322
▁Eliz	-4323
▁instit	-4324
essions	-4325
▁debuted	-4326
▁Dun	-4327
▁Albert	-4328
▁Top	-4329
▁prominent	-4330
▁capture	-4331
▁consisted	-4332
▁injury	-4333
▁send	-4334
▁pack	-4335
▁wild	-4336
▁equipment	-4337
▁organization	-4338
▁fired	-4339
▁bit	-4340
▁pattern	-4341
▁argued	-4342
▁stone	-4343
▁aired	-4344
▁resc	-4345
▁figures	-4346
▁prepar	-4347
AA	-4348
▁instrument	-4349
▁surpris	-4350
▁exped	-4351
▁growth	-4352
▁Ill	-4353
▁couple	-4354
acity	-4355
▁doing	-4356
▁returning	-4357
▁Civil	-4358
▁Homer	-4359
▁hun	-4360
▁Bond	-4361
▁Ry	-4362
pool	-4363
▁contemporary	-4364
▁Kr	-4365
ockey	-4366
▁pict	-4367
▁Vol	-4368
▁poet	-4369
▁Rog	-4370
▁ring	-4371
ushed	-4372
▁pal	-4373
▁weight	-4374
▁cert	-4375
▁Men	-4376
urban	-4377
▁Av	-4378
▁drug	-4379
▁laid	-4380
▁leaders	-4381
▁doub	-4382
▁affected	-4383
▁Northern	-4384
▁pieces	-4385
▁matter	-4386
▁Di	-4387
▁floor	-4388
▁magn	-4389
▁habit	-4390
lines	-4391
bur	-4392
lers	-4393
▁Ram	-4394
▁step	-4395
▁eth	-4396
▁propos	-4397
▁maintained	-4398
▁Fre	-4399
resp	-4400
▁earth	-4401
▁visited	-4402
▁occasion	-4403
▁tun	-4404
appen	-4405
▁rang	-4406
▁Mat	-4407
▁here	-4408
▁comes	-4409
▁speech	-4410
▁shell	-4411
▁communic	-4412
▁Daniel	-4413
▁crowd	-4414
▁criticized	-4415
▁Dam	-4416
▁600	-4417
▁Storm	-4418
ports	-4419
▁activities	-4420
▁termin	-4421
▁stra	-4422
▁Carolina	-4423
▁Fer	-4424
ental	-4425
▁attract	-4426
inson	-4427
acement	-4428
▁citiz	-4429
▁exec	-4430
ifying	-4431
▁tournament	-4432
▁reign	-4433
▁ox	-4434
▁toward	-4435
▁singles	-4436
▁Gal	-4437
▁Sk	-4438
▁emph	-4439
emic	-4440
▁hall	-4441
▁Jon	-4442
▁trees	-4443
▁reference	-4444
ocked	-4445
▁Scottish	-4446
▁formation	-4447
▁senior	-4448
elve	-4449
▁1987	-4450
▁adapt	-4451
▁surre	-4452
▁setting	-4453
▁worldwide	-4454
▁Hard	-4455
▁medical	-4456
▁territory	-4457
▁Government	-4458
▁trying	-4459
▁1988	-4460
▁stations	-4461
rog	-4462
▁Marsh	-4463
▁Bre	-4464
▁System	-4465
▁bud	-4466
▁appl	-4467
ruit	-4468
▁Fantasy	-4469
▁birds	-4470
▁pan	-4471
estic	-4472
▁delay	-4473
▁Writ	-4474
▁Operation	-4475
ners	-4476
▁Holly	-4477
▁Background	-4478
▁machine	-4479
▁Governor	-4480
▁claims	-4481
▁fellow	-4482
▁doll	-4483
▁Ocean	-4484
▁District	-4485
embly	-4486
▁historian	-4487
▁murder	-4488
▁guest	-4489
▁bul	-4490
▁rainfall	-4491
▁risk	-4492
▁dog	-4493
▁Field	-4494
▁fully	-4495
▁Penns	-4496
▁accident	-4497
▁cell	-4498
eld	-4499
▁Rom	-4500
▁value	-4501
ivity	-4502
▁load	-4503
▁therefore	-4504
▁god	-4505
▁Duke	-4506
▁Home	-4507
uled	-4508
▁split	-4509
eed	-4510
▁chosen	-4511
▁treatment	-4512
▁Colon	-4513
▁Guard	-4514
▁university	-4515
▁53	-4516
gian	-4517
▁twice	-4518
omers	-4519
uct	-4520
amber	-4521
▁Studios	-4522
▁Tem	-4523
▁terr	-4524
velopment	-4525
▁frequently	-4526
uls	-4527
▁Polish	-4528
▁contest	-4529
▁reports	-4530
▁supply	-4531
orne	-4532
▁Kar	-4533
▁Girl	-4534
▁leaves	-4535
rael	-4536
▁Short	-4537
▁governor	-4538
stone	-4539
resh	-4540
▁sens	-4541
▁Senate	-4542
▁remark	-4543
▁paper	-4544
stitution	-4545
aved	-4546
▁label	-4547
▁Eastern	-4548
▁agg	-4549
▁dyn	-4550
ampion	-4551
▁Beat	-4552
ordin	-4553
▁faced	-4554
▁walls	-4555
▁hyd	-4556
▁opin	-4557
iot	-4558
▁follows	-4559
eller	-4560
ror	-4561
▁billion	-4562
▁Lew	-4563
anger	-4564
ledge	-4565
▁operated	-4566
▁Rod	-4567
▁Ros	-4568
▁manu	-4569
ading	-4570
▁grew	-4571
▁surrounding	-4572
▁Andrew	-4573
▁Mean	-4574
▁degree	-4575
▁contained	-4576
▁85	-4577
onents	-4578
▁horses	-4579
▁planet	-4580
▁herself	-4581
▁manufact	-4582
▁Christmas	-4583
▁condition	-4584
▁MD	-4585
▁accompan	-4586
▁ut	-4587
ayer	-4588
▁wounded	-4589
▁escape	-4590
▁swe	-4591
▁typically	-4592
▁Allied	-4593
▁Os	-4594
▁passes	-4595
rect	-4596
▁color	-4597
orter	-4598
▁simply	-4599
edd	-4600
isco	-4601
illy	-4602
▁fuel	-4603
▁master	-4604
▁Wilson	-4605
▁sle	-4606
▁brown	-4607
▁Night	-4608
▁railway	-4609
▁Corn	-4610
▁Bart	-4611
▁element	-4612
▁draft	-4613
utation	-4614
gend	-4615
▁Taylor	-4616
ety	-4617
▁lives	-4618
▁editor	-4619
▁orders	-4620
▁1986	-4621
▁arms	-4622
ala	-4623
▁Elizabeth	-4624
▁Jud	-4625
▁serving	-4626
▁bal	-4627
antly	-4628
▁nothing	-4629
▁Alexander	-4630
▁chose	-4631
▁authority	-4632
▁opposed	-4633
▁workers	-4634
▁vote	-4635
▁camer	-4636
▁consecutive	-4637
isters	-4638
▁cannot	-4639
▁moment	-4640
▁Each	-4641
▁Mike	-4642
▁newly	-4643
▁Joe	-4644
ricult	-4645
izes	-4646
▁native	-4647
▁unknown	-4648
ancing	-4649
▁participated	-4650
ias	-4651
aming	-4652
ucky	-4653
▁growing	-4654
pass	-4655
▁website	-4656
▁casual	-4657
agn	-4658
▁54	-4659
uous	-4660
▁phil	-4661
▁emphas	-4662
▁entr	-4663
▁attrib	-4664
▁fan	-4665
▁producers	-4666
fully	-4667
▁newspaper	-4668
▁rear	-4669
ographer	-4670
igg	-4671
▁bass	-4672
▁Of	-4673
▁fair	-4674
▁losing	-4675
▁Castle	-4676
▁adopted	-4677
▁advanced	-4678
▁filming	-4679
▁Festival	-4680
mit	-4681
▁extra	-4682
▁heard	-4683
▁Hum	-4684
▁severe	-4685
▁Pennsylvania	-4686
▁offensive	-4687
▁feed	-4688
ilies	-4689
andy	-4690
▁fiction	-4691
azz	-4692
enge	-4693
imens	-4694
▁opposition	-4695
▁Exp	-4696
▁extend	-4697
▁spirit	-4698
▁Jac	-4699
▁Det	-4700
▁capacity	-4701
▁95	-4702
enger	-4703
▁Pers	-4704
▁Islands	-4705
▁sequence	-4706
▁What	-4707
▁basis	-4708
▁actors	-4709
▁council	-4710
then	-4711
▁psych	-4712
▁ends	-4713
▁guard	-4714
pton	-4715
▁Reception	-4716
▁Sound	-4717
▁56	-4718
▁weak	-4719
▁squadron	-4720
▁Che	-4721
ype	-4722
▁silver	-4723
▁Gi	-4724
▁prin	-4725
▁advant	-4726
▁abandoned	-4727
▁Irish	-4728
▁177	-4729
rong	-4730
▁Further	-4731
orship	-4732
▁compar	-4733
tar	-4734
▁rival	-4735
ev	-4736
▁WW	-4737
▁rom	-4738
▁extr	-4739
▁prompt	-4740
rid	-4741
▁Inst	-4742
▁Blue	-4743
▁Wat	-4744
▁flying	-4745
ables	-4746
▁Tech	-4747
▁honor	-4748
isers	-4749
▁Harry	-4750
ager	-4751
▁elev	-4752
▁creating	-4753
more	-4754
▁kick	-4755
▁bey	-4756
gu	-4757
▁Card	-4758
▁Tra	-4759
ocated	-4760
▁Spain	-4761
▁filmed	-4762
▁Ret	-4763
▁launch	-4764
▁coal	-4765
▁Jersey	-4766
▁regarded	-4767
▁Pen	-4768
▁happen	-4769
▁normal	-4770
▁expansion	-4771
▁ast	-4772
▁enter	-4773
▁individuals	-4774
▁criticism	-4775
▁poll	-4776
lement	-4777
▁homes	-4778
▁agreement	-4779
▁SS	-4780
▁beyond	-4781
▁incident	-4782
hi	-4783
▁Land	-4784
▁Gall	-4785
▁failure	-4786
▁178	-4787
▁Coast	-4788
▁Fam	-4789
▁evac	-4790
▁spect	-4791
▁Square	-4792
▁deploy	-4793
▁dismiss	-4794
▁famous	-4795
apers	-4796
▁eye	-4797
add	-4798
onc	-4799
▁spring	-4800
▁chair	-4801
▁sail	-4802
▁sports	-4803
▁measure	-4804
▁97	-4805
▁challeng	-4806
▁1939	-4807
▁possibly	-4808
▁historical	-4809
▁negative	-4810
TC	-4811
▁liber	-4812
▁inte	-4813
uses	-4814
▁boat	-4815
▁bodies	-4816
ef	-4817
gar	-4818
▁achieved	-4819
▁strike	-4820
min	-4821
▁Are	-4822
▁believe	-4823
▁contact	-4824
▁76	-4825
▁mob	-4826
▁progress	-4827
▁roles	-4828
▁Us	-4829
▁Public	-4830
▁Production	-4831
▁unf	-4832
ote	-4833
▁killing	-4834
▁narrow	-4835
▁retired	-4836
anda	-4837
imet	-4838
▁ideas	-4839
ifications	-4840
▁Institute	-4841
▁Bab	-4842
ano	-4843
▁Lind	-4844
ienced	-4845
BA	-4846
▁disease	-4847
▁Israel	-4848
rich	-4849
▁ur	-4850
▁torpedo	-4851
mosp	-4852
▁Wild	-4853
onent	-4854
▁CD	-4855
▁benef	-4856
▁rid	-4857
▁briefly	-4858
▁vo	-4859
FA	-4860
▁drive	-4861
▁1985	-4862
▁Revolution	-4863
▁Due	-4864
▁Broad	-4865
▁Arthur	-4866
▁effective	-4867
▁1968	-4868
▁imag	-4869
▁task	-4870
▁armed	-4871
▁tower	-4872
▁applic	-4873
▁diam	-4874
▁Elect	-4875
▁budget	-4876
▁receive	-4877
▁repeated	-4878
▁necessary	-4879
▁administration	-4880
▁granted	-4881
▁perman	-4882
▁personnel	-4883
▁Mul	-4884
▁roads	-4885
▁rejected	-4886
▁tree	-4887
▁Meanwhile	-4888
edom	-4889
▁table	-4890
▁twelve	-4891
▁Cat	-4892
▁Republican	-4893
▁kilometres	-4894
aith	-4895
▁End	-4896
▁Germ	-4897
▁pet	-4898
▁improved	-4899
▁leadership	-4900
▁Bul	-4901
▁Doctor	-4902
▁Person	-4903
▁mis	-4904
▁Album	-4905
▁gross	-4906
iny	-4907
avalry	-4908
▁interchange	-4909
▁Clark	-4910
▁extensive	-4911
▁column	-4912
iner	-4913
▁inh	-4914
▁data	-4915
▁Cub	-4916
▁Ohio	-4917
▁yellow	-4918
imal	-4919
kins	-4920
ourney	-4921
▁66	-4922
▁turns	-4923
▁infantry	-4924
▁purpose	-4925
▁plants	-4926
▁straight	-4927
▁Sund	-4928
▁management	-4929
▁lands	-4930
▁express	-4931
iments	-4932
▁landing	-4933
▁defin	-4934
▁Ul	-4935
▁paralle	-4936
▁describes	-4937
▁Mid	-4938
▁expanded	-4939
▁seat	-4940
▁Secretary	-4941
▁Board	-4942
▁solo	-4943
▁Ly	-4944
▁choice	-4945
▁successfully	-4946
▁franch	-4947
▁61	-4948
▁broken	-4949
▁mile	-4950
lusion	-4951
▁Liver	-4952
▁Braz	-4953
▁crossing	-4954
▁learn	-4955
adelph	-4956
▁didn	-4957
▁Head	-4958
▁1984	-4959
▁fought	-4960
▁Philadelph	-4961
▁deliver	-4962
▁explos	-4963
▁intellig	-4964
iday	-4965
ocks	-4966
▁animal	-4967
▁organized	-4968
▁Hy	-4969
▁caught	-4970
▁excl	-4971
oln	-4972
uate	-4973
▁vehicles	-4974
▁commissioned	-4975
▁Les	-4976
▁suggests	-4977
▁acquired	-4978
la	-4979
▁800	-4980
▁Fe	-4981
▁places	-4982
▁committee	-4983
▁chor	-4984
haps	-4985
etball	-4986
▁roof	-4987
▁ancient	-4988
▁Even	-4989
▁drama	-4990
▁Georgia	-4991
set	-4992
▁creation	-4993
hol	-4994
▁Never	-4995
▁Cambridge	-4996
▁types	-4997
▁Ash	-4998
stream	-4999
▁glob	-5000
▁Philadelphia	-5001
▁article	-5002
▁gives	-5003
▁seventh	-5004
▁comedy	-5005
ico	-5006
▁unsu	-5007
▁nuclear	-5008
▁prefer	-5009
▁Burn	-5010
▁Hit	-5011
▁Mir	-5012
iable	-5013
▁wave	-5014
▁soft	-5015
▁Bell	-5016
▁fat	-5017
iate	-5018
▁row	-5019
appy	-5020
▁Bru	-5021
▁Sher	-5022
▁authorities	-5023
▁headquarters	-5024
▁120	-5025
▁Const	-5026
▁Mov	-5027
▁contain	-5028
attle	-5029
etts	-5030
▁Also	-5031
war	-5032
▁commonly	-5033
▁centuries	-5034
▁determined	-5035
▁RA	-5036
▁genus	-5037
▁islands	-5038
▁1967	-5039
iations	-5040
▁Addition	-5041
▁mentioned	-5042
▁IS	-5043
▁Russia	-5044
▁recently	-5045
rif	-5046
▁looking	-5047
iana	-5048
▁bott	-5049
▁controlled	-5050
igr	-5051
▁beaut	-5052
restling	-5053
▁SR	-5054
umes	-5055
▁roll	-5056
▁street	-5057
erc	-5058
akers	-5059
▁Prot	-5060
▁Common	-5061
▁sets	-5062
▁families	-5063
▁Among	-5064
▁household	-5065
▁Liverpool	-5066
▁Wars	-5067
▁upgr	-5068
▁security	-5069
▁finds	-5070
▁experiment	-5071
▁Cy	-5072
▁aim	-5073
▁suppor	-5074
ura	-5075
▁Nintend	-5076
▁57	-5077
▁decre	-5078
▁advert	-5079
▁standing	-5080
▁Rel	-5081
▁drop	-5082
ima	-5083
▁acad	-5084
▁illust	-5085
▁Nintendo	-5086
▁Lar	-5087
▁singing	-5088
oted	-5089
▁withdraw	-5090
▁Linc	-5091
▁battalion	-5092
▁Columbia	-5093
▁unique	-5094
▁reflect	-5095
▁Prime	-5096
▁Earl	-5097
itled	-5098
uting	-5099
▁Ep	-5100
fort	-5101
agement	-5102
▁Arg	-5103
▁containing	-5104
▁Gil	-5105
▁height	-5106
▁cultural	-5107
▁entirely	-5108
▁deck	-5109
▁Jenn	-5110
▁fish	-5111
▁orchest	-5112
▁dial	-5113
arts	-5114
▁finish	-5115
▁62	-5116
▁Lincoln	-5117
▁protect	-5118
▁contributed	-5119
▁Singap	-5120
▁Chap	-5121
▁themes	-5122
▁Korean	-5123
▁provides	-5124
▁Asia	-5125
▁younger	-5126
▁Development	-5127
ishes	-5128
▁touchdown	-5129
▁defence	-5130
▁flooding	-5131
▁unp	-5132
▁Lieutenant	-5133
▁1983	-5134
▁Brazil	-5135
acks	-5136
roll	-5137
▁mist	-5138
▁strik	-5139
▁atmosp	-5140
▁titles	-5141
▁awards	-5142
▁purchased	-5143
oma	-5144
▁Rol	-5145
▁Jewish	-5146
amin	-5147
▁la	-5148
outs	-5149
▁sac	-5150
ipl	-5151
▁arrival	-5152
▁powers	-5153
▁scheduled	-5154
▁Francisco	-5155
▁Child	-5156
▁defensive	-5157
▁resemb	-5158
▁hol	-5159
▁accompanied	-5160
▁Singapore	-5161
▁ceremony	-5162
inity	-5163
▁1964	-5164
▁quite	-5165
respond	-5166
▁expedition	-5167
▁Hay	-5168
illing	-5169
▁convers	-5170
▁People	-5171
▁unus	-5172
▁worth	-5173
▁thing	-5174
▁1969	-5175
▁perfect	-5176
▁locations	-5177
▁existing	-5178
icial	-5179
▁interact	-5180
▁performing	-5181
water	-5182
▁Carey	-5183
▁advantage	-5184
room	-5185
atures	-5186
▁Office	-5187
▁dedicated	-5188
▁Six	-5189
▁try	-5190
▁computer	-5191
▁philos	-5192
▁Pot	-5193
▁extrem	-5194
▁Disney	-5195
▁intensity	-5196
Station	-5197
▁occupied	-5198
▁1914	-5199
▁Su	-5200
▁store	-5201
ulate	-5202
gn	-5203
laim	-5204
ava	-5205
▁58	-5206
▁why	-5207
▁squad	-5208
▁PlayStation	-5209
▁Dark	-5210
▁1918	-5211
▁74	-5212
▁HMS	-5213
▁mounted	-5214
▁Tam	-5215
▁bat	-5216
▁Order	-5217
▁Lis	-5218
▁fresh	-5219
▁1982	-5220
agan	-5221
▁Hun	-5222
ashion	-5223
▁Ven	-5224
▁1971	-5225
▁Anderson	-5226
▁cricket	-5227
▁nob	-5228
▁closely	-5229
▁Steve	-5230
▁mouth	-5231
▁firm	-5232
▁consists	-5233
▁currently	-5234
▁fix	-5235
▁Key	-5236
▁1966	-5237
▁Ur	-5238
▁session	-5239
▁Hon	-5240
▁Lewis	-5241
▁1972	-5242
▁Miller	-5243
▁Conference	-5244
▁Balt	-5245
▁industrial	-5246
▁1979	-5247
▁simple	-5248
wall	-5249
▁Byz	-5250
▁Turn	-5251
▁tail	-5252
▁72	-5253
▁piano	-5254
▁Once	-5255
▁facilities	-5256
racted	-5257
▁elimin	-5258
▁supporting	-5259
yles	-5260
▁drawn	-5261
▁Olympic	-5262
▁lic	-5263
▁cold	-5264
▁Brook	-5265
▁Radio	-5266
▁belong	-5267
▁trains	-5268
▁protection	-5269
▁boats	-5270
▁graph	-5271
▁rated	-5272
▁Die	-5273
▁Bad	-5274
ilton	-5275
▁Grant	-5276
▁egg	-5277
▁Brian	-5278
▁Kel	-5279
▁tim	-5280
▁rise	-5281
▁defined	-5282
▁Byzant	-5283
▁selection	-5284
ao	-5285
▁steam	-5286
rons	-5287
▁1965	-5288
▁regions	-5289
▁submar	-5290
▁Railway	-5291
▁protected	-5292
uzz	-5293
▁Conn	-5294
▁calls	-5295
▁NHL	-5296
▁Emperor	-5297
▁structures	-5298
▁motion	-5299
▁comic	-5300
mouth	-5301
▁throw	-5302
hens	-5303
▁aid	-5304
▁cry	-5305
▁trail	-5306
▁focused	-5307
▁opportunity	-5308
▁engaged	-5309
▁receiving	-5310
▁labor	-5311
▁shark	-5312
▁analysis	-5313
▁shooting	-5314
▁1975	-5315
▁Mah	-5316
▁citizens	-5317
▁correspond	-5318
▁hair	-5319
▁lap	-5320
ola	-5321
▁pros	-5322
iration	-5323
▁notable	-5324
▁strengthen	-5325
och	-5326
▁sport	-5327
▁Gulf	-5328
▁observ	-5329
▁adap	-5330
▁motor	-5331
▁Jr	-5332
usc	-5333
▁experienced	-5334
▁Shak	-5335
▁Germans	-5336
▁Serb	-5337
▁providing	-5338
▁conference	-5339
▁Press	-5340
▁holding	-5341
▁Hollywood	-5342
▁Walter	-5343
▁Mot	-5344
▁Only	-5345
▁visual	-5346
ults	-5347
▁1974	-5348
▁resident	-5349
▁Davis	-5350
▁dry	-5351
▁hired	-5352
▁59	-5353
▁charts	-5354
▁southeast	-5355
▁eyes	-5356
▁viewed	-5357
▁mountain	-5358
unior	-5359
▁Summer	-5360
▁rapidly	-5361
ifically	-5362
▁Bas	-5363
▁recognized	-5364
▁branch	-5365
▁merch	-5366
▁volume	-5367
▁1973	-5368
▁transform	-5369
opher	-5370
▁Democratic	-5371
▁Pu	-5372
▁99	-5373
▁Barb	-5374
▁scholars	-5375
▁Review	-5376
▁sites	-5377
vention	-5378
inger	-5379
zer	-5380
▁casualties	-5381
▁rob	-5382
▁gain	-5383
▁shared	-5384
uan	-5385
▁teach	-5386
▁mut	-5387
▁Water	-5388
▁Special	-5389
▁Between	-5390
▁concer	-5391
▁publication	-5392
▁vac	-5393
▁Jean	-5394
▁parallel	-5395
inth	-5396
▁prote	-5397
▁temperature	-5398
▁Inc	-5399
▁digital	-5400
▁1976	-5401
▁Bor	-5402
▁Att	-5403
▁economy	-5404
▁Mu	-5405
▁Sa	-5406
essed	-5407
burgh	-5408
▁moder	-5409
▁developing	-5410
FL	-5411
▁Rome	-5412
▁Gib	-5413
▁edge	-5414
▁reaction	-5415
sey	-5416
▁steel	-5417
standing	-5418
▁intersection	-5419
▁cool	-5420
▁Princ	-5421
▁cart	-5422
friend	-5423
olt	-5424
▁approved	-5425
▁symbol	-5426
▁secondary	-5427
▁Fall	-5428
▁chance	-5429
oncé	-5430
▁63	-5431
▁Lady	-5432
▁von	-5433
▁Bank	-5434
▁Kir	-5435
▁wa	-5436
▁losses	-5437
▁Down	-5438
▁prepared	-5439
omew	-5440
▁belief	-5441
▁substant	-5442
▁letters	-5443
▁Daily	-5444
▁significantly	-5445
▁Gord	-5446
▁witness	-5447
▁Women	-5448
▁Musl	-5449
▁Lab	-5450
▁enl	-5451
ingly	-5452
▁bands	-5453
▁Var	-5454
▁77	-5455
iful	-5456
▁harm	-5457
▁73	-5458
rence	-5459
▁sort	-5460
▁Po	-5461
▁Greg	-5462
▁save	-5463
ns	-5464
▁domestic	-5465
▁UN	-5466
iter	-5467
▁Tro	-5468
▁Prov	-5469
▁myth	-5470
▁rac	-5471
▁knew	-5472
iger	-5473
▁franchise	-5474
▁ven	-5475
▁goes	-5476
▁literature	-5477
▁Beyoncé	-5478
▁Nap	-5479
▁unsuccess	-5480
▁instruct	-5481
▁actress	-5482
▁southwest	-5483
▁Syd	-5484
▁Ka	-5485
▁technology	-5486
▁roughly	-5487
▁250	-5488
▁heads	-5489
▁survey	-5490
▁card	-5491
▁advent	-5492
▁descend	-5493
yer	-5494
▁mic	-5495
igation	-5496
ographic	-5497
theless	-5498
▁painting	-5499
awa	-5500
▁anything	-5501
ients	-5502
▁cars	-5503
▁adult	-5504
▁Command	-5505
▁semi	-5506
▁Colonel	-5507
▁projects	-5508
break	-5509
▁urban	-5510
▁assault	-5511
▁lb	-5512
▁exact	-5513
achus	-5514
▁pitch	-5515
▁brothers	-5516
▁gameplay	-5517
▁resistance	-5518
eral	-5519
▁Naz	-5520
unte	-5521
▁hyp	-5522
▁storyline	-5523
▁Supreme	-5524
▁shape	-5525
▁Indust	-5526
▁Point	-5527
▁reasons	-5528
▁rules	-5529
▁employed	-5530
▁Kentucky	-5531
vest	-5532
▁core	-5533
▁daily	-5534
▁tank	-5535
▁injured	-5536
▁1946	-5537
▁watched	-5538
▁1981	-5539
▁Nick	-5540
▁shall	-5541
▁Station	-5542
asty	-5543
osa	-5544
iminal	-5545
onder	-5546
▁cab	-5547
▁popularity	-5548
box	-5549
▁agent	-5550
ologist	-5551
▁composition	-5552
▁ign	-5553
ropri	-5554
▁perhaps	-5555
▁adding	-5556
▁enjoyed	-5557
▁IV	-5558
▁renamed	-5559
▁sand	-5560
▁Spring	-5561
▁opinion	-5562
▁isol	-5563
▁getting	-5564
▁declined	-5565
▁Independ	-5566
▁Norway	-5567
▁fit	-5568
amm	-5569
▁compris	-5570
▁reputation	-5571
▁67	-5572
▁Mos	-5573
▁connected	-5574
mann	-5575
▁estate	-5576
▁shaped	-5577
gers	-5578
▁retire	-5579
▁Fair	-5580
▁1917	-5581
▁museum	-5582
▁undert	-5583
▁Ten	-5584
▁drew	-5585
▁regarding	-5586
▁Whit	-5587
▁poem	-5588
▁Olympics	-5589
▁stages	-5590
▁lov	-5591
istan	-5592
inking	-5593
▁converted	-5594
worth	-5595
▁views	-5596
▁Bern	-5597
▁Massachus	-5598
▁rend	-5599
▁Theat	-5600
heim	-5601
▁nor	-5602
itors	-5603
▁Sand	-5604
avel	-5605
ceived	-5606
▁agricult	-5607
▁allows	-5608
▁Philipp	-5609
onym	-5610
ador	-5611
▁Golden	-5612
▁distingu	-5613
▁alternative	-5614
ua	-5615
omic	-5616
▁Ross	-5617
▁calc	-5618
▁Massachusetts	-5619
▁Base	-5620
▁Main	-5621
ulpt	-5622
▁headed	-5623
▁Ob	-5624
▁nick	-5625
▁journey	-5626
bound	-5627
istol	-5628
▁depth	-5629
▁Abb	-5630
▁Walk	-5631
▁missing	-5632
▁increasingly	-5633
▁cited	-5634
▁Prem	-5635
▁Mas	-5636
▁sun	-5637
▁stadium	-5638
▁approached	-5639
osl	-5640
rets	-5641
▁turning	-5642
▁68	-5643
▁Airport	-5644
▁Dream	-5645
verse	-5646
▁responded	-5647
▁96	-5648
▁planning	-5649
▁easily	-5650
▁knowledge	-5651
▁exerc	-5652
▁wealth	-5653
▁Sus	-5654
▁1948	-5655
▁160	-5656
▁overl	-5657
enc	-5658
▁82	-5659
▁cells	-5660
ipe	-5661
▁fashion	-5662
▁escort	-5663
eper	-5664
▁succeeded	-5665
▁Ron	-5666
athan	-5667
era	-5668
▁equal	-5669
▁About	-5670
psons	-5671
▁collected	-5672
rett	-5673
▁safety	-5674
▁existence	-5675
▁constitution	-5676
▁Cur	-5677
▁rebu	-5678
ules	-5679
▁Gra	-5680
oir	-5681
▁Let	-5682
▁Plan	-5683
▁Simpsons	-5684
▁auth	-5685
ilding	-5686
ignment	-5687
▁introduction	-5688
▁models	-5689
▁occas	-5690
▁sustained	-5691
▁trip	-5692
▁learned	-5693
▁Imp	-5694
▁700	-5695
▁Hart	-5696
▁colle	-5697
unicip	-5698
▁operating	-5699
▁promotion	-5700
▁tall	-5701
▁Han	-5702
▁Init	-5703
▁1978	-5704
ba	-5705
▁carrying	-5706
▁Ball	-5707
▁baseball	-5708
▁Songs	-5709
▁exchange	-5710
apes	-5711
▁showing	-5712
ii	-5713
▁rhy	-5714
▁limit	-5715
rin	-5716
▁Run	-5717
▁buried	-5718
▁youth	-5719
▁Imperial	-5720
▁87	-5721
wise	-5722
▁humans	-5723
▁Vietnam	-5724
▁credited	-5725
gal	-5726
mitted	-5727
uration	-5728
▁flu	-5729
▁depend	-5730
come	-5731
▁pul	-5732
▁arranged	-5733
▁Ottoman	-5734
▁improve	-5735
▁Sel	-5736
zen	-5737
▁seems	-5738
▁weakened	-5739
▁1915	-5740
▁designs	-5741
▁Cape	-5742
inary	-5743
▁impl	-5744
▁Shortly	-5745
▁proceed	-5746
▁producing	-5747
iat	-5748
▁joint	-5749
▁Poland	-5750
▁athlet	-5751
▁hydro	-5752
▁paint	-5753
▁freeway	-5754
▁Ken	-5755
▁1977	-5756
▁earliest	-5757
▁Sydney	-5758
▁lasted	-5759
▁shel	-5760
▁Maryland	-5761
▁landfall	-5762
▁settlement	-5763
▁note	-5764
▁Moore	-5765
▁description	-5766
▁retained	-5767
▁acres	-5768
▁69	-5769
▁Who	-5770
leton	-5771
state	-5772
▁78	-5773
▁appoint	-5774
▁Loc	-5775
▁van	-5776
▁Stew	-5777
▁laws	-5778
▁MTV	-5779
▁flat	-5780
▁Naval	-5781
▁genre	-5782
▁Pict	-5783
▁Ha	-5784
▁Bal	-5785
▁bed	-5786
ivalent	-5787
▁programs	-5788
▁assistant	-5789
▁replace	-5790
eman	-5791
▁ton	-5792
▁Roy	-5793
▁install	-5794
▁reserve	-5795
▁playoff	-5796
▁statement	-5797
▁applied	-5798
put	-5799
ivered	-5800
ources	-5801
issance	-5802
▁McG	-5803
iling	-5804
▁violence	-5805
▁1963	-5806
insula	-5807
▁scientific	-5808
▁coastal	-5809
▁consc	-5810
▁trust	-5811
ader	-5812
bell	-5813
iform	-5814
▁entrance	-5815
▁err	-5816
▁virt	-5817
▁catch	-5818
án	-5819
▁hits	-5820
▁91	-5821
otic	-5822
▁neut	-5823
▁Jes	-5824
▁tick	-5825
▁consequ	-5826
▁Ca	-5827
▁aw	-5828
ato	-5829
osis	-5830
▁maintain	-5831
othes	-5832
iege	-5833
reets	-5834
▁Arts	-5835
▁exclus	-5836
▁patrol	-5837
▁items	-5838
▁battery	-5839
▁candidate	-5840
▁indicated	-5841
▁Jay	-5842
tical	-5843
▁towns	-5844
▁sculpt	-5845
▁gradually	-5846
▁distribution	-5847
▁1916	-5848
▁politics	-5849
▁synt	-5850
▁Bowl	-5851
▁delivered	-5852
math	-5853
▁stopped	-5854
eler	-5855
▁filled	-5856
▁AD	-5857
▁Edu	-5858
▁independence	-5859
engers	-5860
▁sections	-5861
▁94	-5862
▁details	-5863
▁Mulder	-5864
▁stream	-5865
▁Confeder	-5866
▁tact	-5867
apped	-5868
▁combination	-5869
onia	-5870
▁select	-5871
▁supplies	-5872
oard	-5873
▁ways	-5874
▁cinem	-5875
eke	-5876
time	-5877
▁parties	-5878
▁engines	-5879
▁Pass	-5880
▁emp	-5881
▁camera	-5882
▁prisoners	-5883
▁Bra	-5884
▁Gordon	-5885
▁ban	-5886
ads	-5887
▁Fire	-5888
▁glass	-5889
▁IG	-5890
▁Rem	-5891
▁appeal	-5892
▁Stadium	-5893
▁1919	-5894
▁aware	-5895
▁Rhodes	-5896
▁register	-5897
▁campus	-5898
hr	-5899
▁1962	-5900
▁bask	-5901
▁acts	-5902
ushing	-5903
emies	-5904
▁extremely	-5905
ira	-5906
rell	-5907
▁entitled	-5908
▁98	-5909
▁secure	-5910
ora	-5911
izations	-5912
▁alle	-5913
▁Ari	-5914
▁finding	-5915
▁Bos	-5916
lee	-5917
▁decade	-5918
▁online	-5919
▁ty	-5920
▁81	-5921
▁Well	-5922
poration	-5923
iversary	-5924
▁Theatre	-5925
▁winner	-5926
idden	-5927
▁evening	-5928
inois	-5929
▁71	-5930
▁investigation	-5931
eless	-5932
▁1938	-5933
▁threatened	-5934
▁bought	-5935
▁message	-5936
▁adapted	-5937
▁survived	-5938
▁knots	-5939
▁somew	-5940
▁uns	-5941
▁Staff	-5942
va	-5943
▁studied	-5944
▁proposal	-5945
▁writes	-5946
▁Univers	-5947
▁address	-5948
ella	-5949
▁tal	-5950
▁arc	-5951
▁deaths	-5952
▁Justice	-5953
ender	-5954
▁Here	-5955
▁ruled	-5956
▁routes	-5957
▁regiment	-5958
▁consum	-5959
▁download	-5960
ashed	-5961
▁Prof	-5962
▁wars	-5963
▁Instead	-5964
▁relief	-5965
▁Constant	-5966
▁males	-5967
▁fear	-5968
▁reduce	-5969
▁religion	-5970
icks	-5971
▁voted	-5972
▁Bir	-5973
ieval	-5974
▁specifically	-5975
▁Band	-5976
▁spons	-5977
▁revolution	-5978
ropol	-5979
▁crown	-5980
▁phase	-5981
iro	-5982
▁AC	-5983
phoon	-5984
▁kingdom	-5985
▁recalled	-5986
▁89	-5987
▁portrayed	-5988
▁Age	-5989
▁fict	-5990
▁Jan	-5991
ansas	-5992
▁duty	-5993
▁Kim	-5994
▁soul	-5995
▁controversy	-5996
iques	-5997
ighters	-5998
▁implement	-5999
rec	-6000
▁emerg	-6001
▁causes	-6002
▁Memorial	-6003
ctions	-6004
▁everything	-6005
▁Tony	-6006
▁breeding	-6007
▁references	-6008
▁1956	-6009
▁stret	-6010
ervative	-6011
▁sell	-6012
▁ago	-6013
▁Anth	-6014
▁convin	-6015
▁capable	-6016
▁bottom	-6017
▁importance	-6018
▁teacher	-6019
aka	-6020
▁175	-6021
▁meters	-6022
▁Singles	-6023
▁Nic	-6024
bourne	-6025
▁entry	-6026
▁ble	-6027
▁offers	-6028
▁tanks	-6029
senal	-6030
ician	-6031
▁sufficient	-6032
▁owner	-6033
▁130	-6034
aints	-6035
▁opera	-6036
aked	-6037
▁Director	-6038
▁arrested	-6039
▁Cop	-6040
▁Circ	-6041
entially	-6042
▁admitted	-6043
▁ec	-6044
▁internal	-6045
▁Bon	-6046
▁Adams	-6047
▁nomination	-6048
acter	-6049
▁corner	-6050
▁88	-6051
BN	-6052
▁et	-6053
▁Nel	-6054
▁Vill	-6055
chers	-6056
▁crossed	-6057
▁products	-6058
▁1936	-6059
▁Alan	-6060
▁climb	-6061
▁Critical	-6062
▁equipped	-6063
▁Dougl	-6064
▁installed	-6065
▁Kong	-6066
▁concerns	-6067
anean	-6068
▁overse	-6069
▁IGN	-6070
▁Hamilton	-6071
▁invited	-6072
▁Jord	-6073
▁Power	-6074
▁preced	-6075
▁Engine	-6076
▁convoy	-6077
▁ones	-6078
▁starts	-6079
▁Beach	-6080
▁principal	-6081
▁interested	-6082
▁Jane	-6083
wich	-6084
▁recommended	-6085
lan	-6086
▁conqu	-6087
▁crime	-6088
▁Maria	-6089
▁remainder	-6090
adow	-6091
▁Simon	-6092
▁McK	-6093
▁79	-6094
▁medal	-6095
▁actual	-6096
▁Your	-6097
▁UTC	-6098
▁Moon	-6099
▁mort	-6100
▁retreat	-6101
▁Kennedy	-6102
▁shut	-6103
▁autom	-6104
ructure	-6105
▁tell	-6106
▁acid	-6107
espread	-6108
▁FA	-6109
▁Plot	-6110
▁charged	-6111
▁Coll	-6112
▁objects	-6113
▁bor	-6114
▁funds	-6115
▁price	-6116
▁apart	-6117
BS	-6118
▁composer	-6119
▁1961	-6120
▁door	-6121
▁solid	-6122
▁Forest	-6123
hat	-6124
▁consisting	-6125
▁females	-6126
aug	-6127
▁promote	-6128
▁alt	-6129
▁unl	-6130
▁stock	-6131
▁VII	-6132
▁fly	-6133
▁Gram	-6134
▁Adam	-6135
▁page	-6136
▁Alf	-6137
▁considerable	-6138
▁vent	-6139
ilation	-6140
▁Video	-6141
▁dates	-6142
▁milit	-6143
▁NBA	-6144
ela	-6145
▁Indones	-6146
▁Found	-6147
▁Ve	-6148
entions	-6149
▁snow	-6150
▁1953	-6151
▁typical	-6152
met	-6153
▁Id	-6154
▁Cart	-6155
▁Death	-6156
▁Nether	-6157
ko	-6158
ali	-6159
▁Today	-6160
▁grounds	-6161
▁extension	-6162
▁nest	-6163
erted	-6164
▁duties	-6165
▁integr	-6166
▁correct	-6167
▁gall	-6168
▁someone	-6169
▁Prog	-6170
▁evolution	-6171
▁Military	-6172
▁rural	-6173
▁Eric	-6174
▁Sunday	-6175
▁Indiana	-6176
▁eighth	-6177
▁Transport	-6178
vements	-6179
▁Howard	-6180
▁penal	-6181
▁decades	-6182
▁hotel	-6183
▁92	-6184
▁images	-6185
▁driving	-6186
▁reading	-6187
rete	-6188
▁blow	-6189
▁Project	-6190
▁identity	-6191
▁Norwe	-6192
▁Scully	-6193
▁Ast	-6194
▁Ok	-6195
▁occurs	-6196
▁sole	-6197
after	-6198
▁zone	-6199
osite	-6200
▁manner	-6201
▁challenge	-6202
ati	-6203
▁lane	-6204
▁skin	-6205
▁remix	-6206
▁aspects	-6207
▁permanent	-6208
▁Hitler	-6209
▁brigade	-6210
▁Od	-6211
▁1947	-6212
bro	-6213
▁ham	-6214
upt	-6215
▁dated	-6216
▁1958	-6217
▁spin	-6218
▁volcan	-6219
▁Five	-6220
▁frag	-6221
▁noting	-6222
▁Leon	-6223
▁Portug	-6224
▁subs	-6225
▁restaur	-6226
▁supporters	-6227
▁slowly	-6228
▁84	-6229
▁Hou	-6230
▁posted	-6231
▁WWE	-6232
▁colour	-6233
hetic	-6234
▁clean	-6235
▁1910	-6236
wick	-6237
▁describing	-6238
▁1957	-6239
▁Research	-6240
ensus	-6241
▁Marc	-6242
▁involving	-6243
veland	-6244
osaurus	-6245
cknow	-6246
ivals	-6247
▁Cult	-6248
▁entering	-6249
▁speak	-6250
▁Science	-6251
▁vessels	-6252
▁enemies	-6253
▁1937	-6254
▁equivalent	-6255
▁Sav	-6256
arp	-6257
▁classes	-6258
▁Assembly	-6259
▁Gun	-6260
▁dress	-6261
aware	-6262
▁Ryan	-6263
▁Pear	-6264
▁Rose	-6265
▁debate	-6266
▁settled	-6267
▁obtained	-6268
▁department	-6269
▁93	-6270
▁Bry	-6271
▁accur	-6272
▁aer	-6273
iley	-6274
▁Constitution	-6275
▁Turk	-6276
▁armor	-6277
▁Magazine	-6278
▁parliament	-6279
▁basic	-6280
risis	-6281
▁Rolling	-6282
▁purchase	-6283
▁songwrit	-6284
▁Gen	-6285
regon	-6286
▁Mountain	-6287
▁110	-6288
BI	-6289
agues	-6290
▁Pit	-6291
▁Gill	-6292
▁Argent	-6293
▁Bol	-6294
▁oldest	-6295
▁Cleveland	-6296
▁faith	-6297
▁din	-6298
▁concerned	-6299
▁departure	-6300
▁widespread	-6301
erto	-6302
▁income	-6303
▁decline	-6304
▁pup	-6305
bar	-6306
▁attached	-6307
▁connection	-6308
▁Illinois	-6309
iterr	-6310
▁Space	-6311
▁formal	-6312
▁recognition	-6313
▁Hug	-6314
▁folk	-6315
▁certified	-6316
▁Throughout	-6317
▁accused	-6318
▁Douglas	-6319
▁Lenn	-6320
heastern	-6321
iller	-6322
▁memorial	-6323
▁outer	-6324
▁sequel	-6325
▁derived	-6326
hus	-6327
▁Weekly	-6328
cation	-6329
▁mode	-6330
▁deleg	-6331
orney	-6332
▁Rele	-6333
hered	-6334
▁Andy	-6335
▁wearing	-6336
▁assumed	-6337
▁decor	-6338
▁1959	-6339
▁swim	-6340
▁disturb	-6341
▁tele	-6342
▁Jordan	-6343
▁Oregon	-6344
▁acclaim	-6345
▁acknow	-6346
▁hip	-6347
▁Stanley	-6348
western	-6349
aki	-6350
▁hosted	-6351
▁committed	-6352
▁Arsenal	-6353
ommod	-6354
▁Pier	-6355
▁Third	-6356
AT	-6357
▁returns	-6358
▁Now	-6359
▁warm	-6360
▁Stand	-6361
ubb	-6362
▁valley	-6363
▁sessions	-6364
▁populations	-6365
ekend	-6366
▁torn	-6367
▁Disc	-6368
▁foss	-6369
agonist	-6370
▁denied	-6371
▁Recording	-6372
▁fine	-6373
▁Freder	-6374
▁segment	-6375
▁Treat	-6376
▁Roger	-6377
iterranean	-6378
▁Feder	-6379
▁Beatles	-6380
▁champion	-6381
▁Media	-6382
▁Family	-6383
▁temple	-6384
▁charges	-6385
▁literary	-6386
▁Kevin	-6387
nic	-6388
icit	-6389
▁Norwegian	-6390
▁thousands	-6391
▁Bruce	-6392
▁terminus	-6393
▁1954	-6394
▁1955	-6395
▁Philip	-6396
▁transition	-6397
▁Mediterranean	-6398
idges	-6399
▁flo	-6400
▁regional	-6401
▁supposed	-6402
▁cong	-6403
▁86	-6404
▁Bristol	-6405
▁wickets	-6406
alog	-6407
iously	-6408
aret	-6409
ooth	-6410
▁canc	-6411
▁demand	-6412
ione	-6413
▁Tenn	-6414
reck	-6415
▁Kat	-6416
▁ISBN	-6417
▁shots	-6418
aired	-6419
▁strongly	-6420
▁Ira	-6421
▁Low	-6422
▁circulation	-6423
▁Sky	-6424
▁hang	-6425
▁intelligence	-6426
hedral	-6427
▁sailed	-6428
▁possibility	-6429
▁passengers	-6430
udden	-6431
achel	-6432
▁hope	-6433
▁animated	-6434
▁generation	-6435
heme	-6436
▁circum	-6437
▁thirty	-6438
▁fictional	-6439
▁freedom	-6440
▁downtown	-6441
▁commit	-6442
▁Federal	-6443
▁answ	-6444
ophy	-6445
fl	-6446
emed	-6447
▁behavior	-6448
▁Channel	-6449
▁minister	-6450
▁Mexican	-6451
▁hill	-6452
▁rich	-6453
▁replacement	-6454
▁Rain	-6455
▁begun	-6456
▁commanded	-6457
oz	-6458
eing	-6459
▁moves	-6460
▁destruction	-6461
▁cloud	-6462
▁assistance	-6463
▁poly	-6464
▁missions	-6465
▁criminal	-6466
▁exception	-6467
atinum	-6468
▁brain	-6469
▁costs	-6470
ras	-6471
▁fruit	-6472
▁missed	-6473
▁highlight	-6474
▁Bush	-6475
▁bringing	-6476
▁tied	-6477
rations	-6478
▁crash	-6479
▁Within	-6480
▁Korea	-6481
▁intention	-6482
▁Tar	-6483
ker	-6484
▁feeling	-6485
ategy	-6486
▁speaking	-6487
mes	-6488
▁Additionally	-6489
▁Lisa	-6490
▁protest	-6491
▁unusual	-6492
▁finishing	-6493
▁alleged	-6494
▁Fame	-6495
▁Master	-6496
▁properties	-6497
▁incorporated	-6498
▁demol	-6499
▁intercept	-6500
rophy	-6501
▁stayed	-6502
▁opposite	-6503
▁attributed	-6504
▁volunte	-6505
oh	-6506
▁emerged	-6507
▁breaking	-6508
▁serves	-6509
uro	-6510
▁Dig	-6511
▁recovered	-6512
▁1952	-6513
▁sons	-6514
▁atmosphere	-6515
elsh	-6516
onto	-6517
▁Row	-6518
ige	-6519
aire	-6520
▁Web	-6521
organ	-6522
▁shop	-6523
▁Morris	-6524
▁theatre	-6525
▁Color	-6526
▁chorus	-6527
▁occasionally	-6528
▁driven	-6529
▁Norman	-6530
othing	-6531
▁Phill	-6532
▁Scient	-6533
▁Conc	-6534
▁strateg	-6535
borne	-6536
▁classic	-6537
oral	-6538
▁ready	-6539
▁Robinson	-6540
iva	-6541
▁regularly	-6542
▁effectively	-6543
▁dipl	-6544
▁cavalry	-6545
▁Prior	-6546
▁establishment	-6547
▁prey	-6548
▁spok	-6549
▁courts	-6550
▁methods	-6551
olec	-6552
riers	-6553
▁sounds	-6554
▁vary	-6555
▁1933	-6556
▁dang	-6557
▁Similar	-6558
▁Television	-6559
▁Int	-6560
▁Hawai	-6561
pective	-6562
▁FI	-6563
▁Around	-6564
▁Unlike	-6565
▁materials	-6566
▁completion	-6567
▁176	-6568
▁Dal	-6569
▁Construction	-6570
▁shore	-6571
▁Morgan	-6572
▁superv	-6573
▁divers	-6574
▁responsibility	-6575
enses	-6576
▁dissip	-6577
▁attracted	-6578
▁surviving	-6579
wan	-6580
▁fields	-6581
▁warning	-6582
▁accommod	-6583
▁province	-6584
▁persu	-6585
▁Nelson	-6586
▁heat	-6587
▁entertain	-6588
▁Az	-6589
▁dream	-6590
▁global	-6591
▁classified	-6592
▁Premier	-6593
▁differences	-6594
oslav	-6595
▁Francis	-6596
▁divisions	-6597
▁technical	-6598
▁Sweden	-6599
▁83	-6600
▁interpret	-6601
▁Bah	-6602
▁Iron	-6603
▁1935	-6604
thm	-6605
ompl	-6606
sole	-6607
▁tom	-6608
lets	-6609
▁USA	-6610
▁Finn	-6611
▁Patrick	-6612
▁cruiser	-6613
nold	-6614
▁passage	-6615
▁quant	-6616
isms	-6617
abled	-6618
▁aboard	-6619
▁Ford	-6620
▁Lanc	-6621
▁clubs	-6622
▁ratings	-6623
▁neither	-6624
▁association	-6625
▁eleven	-6626
pet	-6627
▁stood	-6628
▁musicians	-6629
▁rooms	-6630
▁Nich	-6631
▁Budd	-6632
▁Cas	-6633
▁reinforce	-6634
aza	-6635
▁1951	-6636
▁none	-6637
ece	-6638
oyd	-6639
▁1949	-6640
▁Temple	-6641
abb	-6642
▁desire	-6643
▁Toronto	-6644
▁Pur	-6645
▁check	-6646
▁climate	-6647
▁separated	-6648
▁Ow	-6649
▁Ho	-6650
▁shif	-6651
▁Welsh	-6652
▁outbreak	-6653
ja	-6654
uty	-6655
▁classification	-6656
nce	-6657
weight	-6658
▁Nations	-6659
▁vehicle	-6660
▁ancest	-6661
▁seemed	-6662
▁Byzantine	-6663
inton	-6664
oli	-6665
umin	-6666
▁Anne	-6667
▁Techn	-6668
▁predecess	-6669
▁Anton	-6670
▁medic	-6671
▁votes	-6672
▁chemical	-6673
▁picture	-6674
▁reality	-6675
▁battleships	-6676
ji	-6677
▁memory	-6678
▁CE	-6679
teenth	-6680
▁hoped	-6681
▁Allen	-6682
▁movements	-6683
▁requested	-6684
isf	-6685
ez	-6686
▁Profess	-6687
char	-6688
▁raise	-6689
▁historians	-6690
▁Netherlands	-6691
nings	-6692
▁Journal	-6693
▁Matthew	-6694
omot	-6695
▁rose	-6696
▁Every	-6697
▁difficulty	-6698
▁basketball	-6699
pper	-6700
▁Mit	-6701
ewhere	-6702
agle	-6703
▁communities	-6704
▁restored	-6705
▁sam	-6706
▁ille	-6707
▁Ak	-6708
▁mo	-6709
▁expect	-6710
▁remember	-6711
▁programme	-6712
▁Dog	-6713
▁nav	-6714
▁Jews	-6715
▁premiere	-6716
▁Dean	-6717
▁delayed	-6718
burn	-6719
▁pure	-6720
▁relative	-6721
▁discovery	-6722
▁Nar	-6723
▁teen	-6724
▁DE	-6725
▁kid	-6726
▁inspiration	-6727
▁Open	-6728
▁greatly	-6729
▁otherwise	-6730
pping	-6731
▁anniversary	-6732
▁vide	-6733
▁injuries	-6734
▁USS	-6735
▁Hell	-6736
▁Again	-6737
▁accounts	-6738
▁neighbor	-6739
▁squ	-6740
▁Design	-6741
▁obl	-6742
▁Jacob	-6743
▁funding	-6744
▁surrounded	-6745
▁flank	-6746
▁spoke	-6747
▁Pow	-6748
▁praise	-6749
▁batting	-6750
▁needs	-6751
▁depict	-6752
▁penalty	-6753
▁1900	-6754
▁Iraq	-6755
▁PA	-6756
▁Whe	-6757
▁partner	-6758
▁massive	-6759
▁Der	-6760
▁fal	-6761
▁weapon	-6762
▁claiming	-6763
▁die	-6764
▁dens	-6765
anny	-6766
▁Thomp	-6767
▁crop	-6768
▁Ba	-6769
▁suit	-6770
▁Cab	-6771
▁forming	-6772
▁strategy	-6773
▁Sax	-6774
▁tries	-6775
ami	-6776
▁Bishop	-6777
▁Marine	-6778
▁assemb	-6779
▁Es	-6780
osh	-6781
▁astron	-6782
▁wrong	-6783
▁Domin	-6784
▁documentary	-6785
▁legend	-6786
▁ru	-6787
▁accompl	-6788
▁crosses	-6789
▁worst	-6790
▁Raj	-6791
▁Croatian	-6792
ici	-6793
yard	-6794
▁fled	-6795
CA	-6796
don	-6797
▁stands	-6798
▁Thompson	-6799
RA	-6800
▁Marg	-6801
▁temporary	-6802
▁architecture	-6803
ban	-6804
▁girls	-6805
▁Sports	-6806
▁determine	-6807
abil	-6808
▁tra	-6809
ca	-6810
▁dismissed	-6811
gets	-6812
▁gal	-6813
▁involvement	-6814
irt	-6815
▁Armen	-6816
▁Russell	-6817
uble	-6818
uther	-6819
▁recru	-6820
▁bombard	-6821
▁sale	-6822
ester	-6823
▁plane	-6824
formula	-6825
▁remn	-6826
▁category	-6827
real	-6828
▁Last	-6829
▁Glob	-6830
▁Centre	-6831
▁inner	-6832
▁adaptation	-6833
▁ensure	-6834
▁convinced	-6835
▁Dick	-6836
▁weekend	-6837
▁NFL	-6838
▁Oak	-6839
▁Puerto	-6840
▁hear	-6841
▁sight	-6842
▁lat	-6843
inder	-6844
▁Heart	-6845
▁Islam	-6846
▁somewhat	-6847
▁resources	-6848
▁Holy	-6849
▁interests	-6850
▁ash	-6851
going	-6852
▁reserv	-6853
▁rot	-6854
▁Kelly	-6855
▁Carter	-6856
▁medieval	-6857
▁immediate	-6858
▁displ	-6859
▁ha	-6860
▁scheme	-6861
▁shr	-6862
▁library	-6863
▁streets	-6864
▁presidential	-6865
oster	-6866
▁absor	-6867
▁Hop	-6868
▁cul	-6869
▁consp	-6870
▁Rick	-6871
▁Trib	-6872
▁falling	-6873
▁ray	-6874
▁Along	-6875
▁Cooper	-6876
▁carbon	-6877
▁colonial	-6878
agre	-6879
▁Modern	-6880
▁techniques	-6881
▁ninth	-6882
▁fighter	-6883
▁throne	-6884
▁Niel	-6885
▁starred	-6886
onds	-6887
▁scrap	-6888
▁appropri	-6889
▁classical	-6890
▁Brother	-6891
▁Mars	-6892
▁races	-6893
▁academic	-6894
body	-6895
▁Hend	-6896
▁eggs	-6897
▁adults	-6898
▁bright	-6899
▁hal	-6900
▁Network	-6901
▁commemor	-6902
▁passenger	-6903
▁ow	-6904
▁surviv	-6905
▁Hungarian	-6906
▁loyal	-6907
▁Winter	-6908
▁Front	-6909
▁ori	-6910
▁photograph	-6911
▁meets	-6912
itzer	-6913
▁lake	-6914
▁Wright	-6915
▁premiered	-6916
▁submarine	-6917
▁1913	-6918
▁Ele	-6919
▁absence	-6920
▁reviewer	-6921
▁Dor	-6922
▁Thus	-6923
▁seeing	-6924
▁Sn	-6925
▁Batman	-6926
▁fitted	-6927
▁else	-6928
edding	-6929
▁renew	-6930
▁superior	-6931
▁Spe	-6932
icide	-6933
wealth	-6934
▁sed	-6935
▁alien	-6936
▁engineer	-6937
▁favorite	-6938
▁interior	-6939
▁Free	-6940
▁Parker	-6941
▁Wy	-6942
osure	-6943
▁NC	-6944
ronze	-6945
▁ic	-6946
night	-6947
▁airport	-6948
▁partn	-6949
▁Labor	-6950
▁deemed	-6951
▁attacking	-6952
▁Harris	-6953
▁appearing	-6954
▁visible	-6955
▁Gard	-6956
▁conclusion	-6957
ania	-6958
▁1926	-6959
▁dating	-6960
▁romantic	-6961
▁Jam	-6962
acent	-6963
▁Bang	-6964
▁synthes	-6965
▁dub	-6966
▁characteristics	-6967
▁AI	-6968
▁elections	-6969
▁leads	-6970
▁operate	-6971
▁encouraged	-6972
ran	-6973
▁1927	-6974
▁facility	-6975
▁afterwards	-6976
▁retirement	-6977
▁DNA	-6978
▁landed	-6979
▁Library	-6980
▁colony	-6981
▁temperatures	-6982
▁convection	-6983
▁Murray	-6984
▁everyone	-6985
▁1921	-6986
ses	-6987
▁Pak	-6988
▁municip	-6989
bec	-6990
▁suffering	-6991
▁credit	-6992
▁legislation	-6993
▁1934	-6994
▁lies	-6995
▁holds	-6996
▁modified	-6997
▁Education	-6998
▁06	-6999
▁rum	-7000
▁painted	-7001
▁Knight	-7002
▁controversial	-7003
using	-7004
▁gone	-7005
▁Nob	-7006
asure	-7007
lyn	-7008
▁doct	-7009
▁wings	-7010
▁believes	-7011
ossible	-7012
utt	-7013
▁distributed	-7014
▁Houston	-7015
ixon	-7016
vens	-7017
▁attempting	-7018
▁code	-7019
urches	-7020
▁Police	-7021
roit	-7022
▁Late	-7023
▁Commander	-7024
▁standards	-7025
▁rescue	-7026
▁Berlin	-7027
▁looked	-7028
▁Palace	-7029
▁authors	-7030
ivan	-7031
▁Gri	-7032
▁secured	-7033
▁depicted	-7034
▁Simp	-7035
▁cancer	-7036
▁monarch	-7037
▁dominated	-7038
ogen	-7039
▁1912	-7040
▁battleship	-7041
aser	-7042
▁habitat	-7043
▁Advent	-7044
▁anyone	-7045
▁continuing	-7046
▁buy	-7047
▁judge	-7048
arsh	-7049
▁longest	-7050
▁pin	-7051
▁Santa	-7052
eor	-7053
apse	-7054
scape	-7055
coming	-7056
▁Swedish	-7057
▁biggest	-7058
▁Gh	-7059
▁unsuccessful	-7060
▁Commonwealth	-7061
▁grass	-7062
▁chairman	-7063
▁graphics	-7064
ito	-7065
oen	-7066
▁archae	-7067
▁trained	-7068
mun	-7069
rig	-7070
▁union	-7071
▁900	-7072
▁pound	-7073
emet	-7074
ugoslav	-7075
▁Roberts	-7076
▁Ut	-7077
chang	-7078
▁Story	-7079
▁Simpson	-7080
▁Tok	-7081
▁wins	-7082
▁sudden	-7083
▁arrangement	-7084
ultane	-7085
▁carrier	-7086
anth	-7087
▁1932	-7088
▁Cry	-7089
▁neck	-7090
▁Hospital	-7091
▁railroad	-7092
encies	-7093
▁Indians	-7094
▁nickn	-7095
▁jump	-7096
▁acknowled	-7097
igration	-7098
▁od	-7099
▁informed	-7100
▁measures	-7101
▁RAAF	-7102
eenth	-7103
▁san	-7104
rait	-7105
▁Get	-7106
▁representing	-7107
▁fer	-7108
▁map	-7109
emetery	-7110
ache	-7111
inals	-7112
apping	-7113
▁releases	-7114
▁Obs	-7115
▁belt	-7116
atically	-7117
▁Corporation	-7118
eline	-7119
▁achieve	-7120
oming	-7121
ture	-7122
▁Warner	-7123
▁garrison	-7124
▁sees	-7125
▁Cook	-7126
▁Yugoslav	-7127
▁formerly	-7128
▁Jason	-7129
▁generated	-7130
▁grade	-7131
▁convention	-7132
▁NBC	-7133
▁closer	-7134
▁deployed	-7135
▁styles	-7136
▁emergency	-7137
book	-7138
uster	-7139
▁Anthony	-7140
▁Ey	-7141
▁bats	-7142
ternal	-7143
▁Silver	-7144
tenance	-7145
▁Social	-7146
▁alleg	-7147
▁questions	-7148
▁moderate	-7149
aska	-7150
▁gets	-7151
▁trials	-7152
▁Mort	-7153
▁festival	-7154
▁molec	-7155
▁siege	-7156
▁historic	-7157
▁influential	-7158
▁cycle	-7159
▁emotional	-7160
▁Est	-7161
▁Croatia	-7162
▁veter	-7163
opes	-7164
▁Yan	-7165
▁Detroit	-7166
fare	-7167
▁novels	-7168
▁owners	-7169
hire	-7170
▁Lyn	-7171
▁successor	-7172
▁influences	-7173
▁Merc	-7174
▁narrative	-7175
▁Gaga	-7176
▁RAF	-7177
▁1929	-7178
po	-7179
olph	-7180
▁Bou	-7181
▁thin	-7182
▁Track	-7183
▁journalist	-7184
vis	-7185
▁1911	-7186
▁childhood	-7187
▁experiences	-7188
otype	-7189
▁Bure	-7190
▁excess	-7191
▁stead	-7192
▁Author	-7193
iography	-7194
▁Chamber	-7195
▁constant	-7196
▁defended	-7197
▁discussed	-7198
▁legs	-7199
▁Gilbert	-7200
▁Princess	-7201
▁apparently	-7202
▁08	-7203
▁Belg	-7204
▁alco	-7205
▁pregn	-7206
owa	-7207
▁instruments	-7208
▁mathem	-7209
hess	-7210
▁eat	-7211
▁assass	-7212
▁treated	-7213
▁victims	-7214
aws	-7215
▁Spears	-7216
▁environmental	-7217
▁giant	-7218
▁veget	-7219
▁executed	-7220
▁coins	-7221
▁detail	-7222
▁1931	-7223
yo	-7224
tic	-7225
▁diplom	-7226
▁1922	-7227
▁ster	-7228
▁Asian	-7229
▁offices	-7230
fire	-7231
▁140	-7232
▁Cru	-7233
▁factors	-7234
▁Jesus	-7235
har	-7236
▁depos	-7237
arked	-7238
▁mine	-7239
imore	-7240
▁hunting	-7241
▁enters	-7242
▁wooden	-7243
▁Melbourne	-7244
▁concur	-7245
▁bear	-7246
▁Somers	-7247
▁Nielsen	-7248
achment	-7249
noon	-7250
▁Pope	-7251
▁hundreds	-7252
aft	-7253
usted	-7254
▁maint	-7255
▁Hin	-7256
▁resigned	-7257
▁Vice	-7258
▁ride	-7259
▁Ult	-7260
▁Clinton	-7261
▁Xbox	-7262
▁skills	-7263
▁Desc	-7264
▁channel	-7265
▁gay	-7266
▁reveals	-7267
▁uniform	-7268
aste	-7269
▁ocean	-7270
▁Nevertheless	-7271
▁09	-7272
▁chapter	-7273
▁Evans	-7274
▁pointed	-7275
▁Category	-7276
▁bab	-7277
▁ridge	-7278
▁spend	-7279
▁watching	-7280
▁Guy	-7281
▁prevented	-7282
stances	-7283
▁clim	-7284
▁Stewart	-7285
iliar	-7286
▁preferred	-7287
▁PC	-7288
▁Muslim	-7289
▁Atlant	-7290
▁pushed	-7291
agu	-7292
▁format	-7293
▁locomot	-7294
▁languages	-7295
▁footage	-7296
▁happened	-7297
▁opponents	-7298
▁difference	-7299
▁Li	-7300
▁flew	-7301
▁drums	-7302
▁formally	-7303
▁thereafter	-7304
▁Heavy	-7305
▁facing	-7306
▁reportedly	-7307
▁Tower	-7308
▁resign	-7309
▁relationships	-7310
▁intense	-7311
▁thousand	-7312
▁Samuel	-7313
▁handed	-7314
▁Turkish	-7315
▁device	-7316
▁Origin	-7317
▁notably	-7318
▁Carib	-7319
▁Express	-7320
▁pull	-7321
icians	-7322
ogether	-7323
PA	-7324
rees	-7325
▁firing	-7326
▁animation	-7327
▁Wing	-7328
▁chain	-7329
▁Lennon	-7330
▁inhabit	-7331
▁existed	-7332
▁visitors	-7333
text	-7334
▁Sarah	-7335
tty	-7336
▁gather	-7337
▁vision	-7338
▁surrender	-7339
▁employees	-7340
▁Greece	-7341
▁Baltimore	-7342
▁Real	-7343
ais	-7344
▁accompany	-7345
orous	-7346
▁Austria	-7347
▁bon	-7348
▁Albums	-7349
una	-7350
▁linked	-7351
▁departed	-7352
▁exposed	-7353
▁participate	-7354
▁hearing	-7355
▁boil	-7356
▁Queens	-7357
▁poetry	-7358
20	-7359
▁dialogue	-7360
▁Benn	-7361
onies	-7362
▁Bird	-7363
▁Tal	-7364
▁extent	-7365
ching	-7366
bean	-7367
▁announce	-7368
▁detailed	-7369
spec	-7370
▁170	-7371
▁Colorado	-7372
▁substantial	-7373
▁learning	-7374
usic	-7375
▁audio	-7376
▁Organ	-7377
▁instance	-7378
▁universe	-7379
▁rebell	-7380
▁Lev	-7381
▁cruisers	-7382
IA	-7383
▁residential	-7384
▁Lane	-7385
▁beach	-7386
▁Writing	-7387
rum	-7388
ropolitan	-7389
▁impressed	-7390
▁Edd	-7391
▁bes	-7392
resent	-7393
▁periods	-7394
▁Initially	-7395
▁Hans	-7396
▁Rey	-7397
▁Marshall	-7398
endment	-7399
prise	-7400
▁huge	-7401
▁Foundation	-7402
iens	-7403
orage	-7404
▁publisher	-7405
▁Malays	-7406
uts	-7407
ullivan	-7408
▁taught	-7409
▁easy	-7410
hatt	-7411
raph	-7412
▁Dave	-7413
▁afternoon	-7414
▁util	-7415
▁plate	-7416
▁enthus	-7417
▁fil	-7418
stic	-7419
▁Stock	-7420
▁Frederick	-7421
▁territories	-7422
▁driver	-7423
▁stem	-7424
▁Chronic	-7425
▁testing	-7426
lie	-7427
▁videos	-7428
▁imprison	-7429
▁Ark	-7430
▁05	-7431
▁reviewers	-7432
boy	-7433
▁1928	-7434
▁happy	-7435
▁Wrestling	-7436
ois	-7437
▁tests	-7438
▁Aud	-7439
▁Having	-7440
iami	-7441
▁upd	-7442
▁tempor	-7443
rant	-7444
▁Raw	-7445
▁hat	-7446
itter	-7447
phy	-7448
▁understand	-7449
▁Banks	-7450
▁teeth	-7451
DS	-7452
unes	-7453
▁ske	-7454
▁sky	-7455
▁isolated	-7456
▁negotiations	-7457
▁x	-7458
▁vessel	-7459
▁Somerset	-7460
mad	-7461
▁feud	-7462
▁stable	-7463
▁diameter	-7464
▁inher	-7465
▁Ern	-7466
▁vul	-7467
ribed	-7468
▁sympt	-7469
▁agents	-7470
▁picked	-7471
▁reprodu	-7472
▁Horse	-7473
▁Horn	-7474
▁Bed	-7475
▁mart	-7476
▁Mario	-7477
▁1925	-7478
▁Anna	-7479
▁bridges	-7480
▁encountered	-7481
elle	-7482
▁goods	-7483
▁Release	-7484
▁withdrew	-7485
▁Lim	-7486
▁factor	-7487
▁Sym	-7488
▁diagn	-7489
▁sleep	-7490
▁teamm	-7491
▁junior	-7492
▁simultane	-7493
▁aged	-7494
▁founder	-7495
▁Mun	-7496
▁consol	-7497
▁dangerous	-7498
raf	-7499
▁Cz	-7500
▁normally	-7501
▁upgraded	-7502
▁reun	-7503
▁Anglo	-7504
▁Giants	-7505
▁Know	-7506
▁Jess	-7507
▁keeping	-7508
▁behavi	-7509
▁specimens	-7510
▁Miami	-7511
ican	-7512
orial	-7513
▁1890	-7514
▁pounds	-7515
▁Seattle	-7516
ogan	-7517
▁medium	-7518
ds	-7519
▁satell	-7520
▁window	-7521
icop	-7522
roke	-7523
▁frequent	-7524
▁lob	-7525
▁1924	-7526
▁sure	-7527
▁relie	-7528
▁tie	-7529
etime	-7530
▁ethnic	-7531
▁lowest	-7532
▁partly	-7533
▁collaps	-7534
oto	-7535
▁crisis	-7536
▁Championships	-7537
▁resear	-7538
▁engineering	-7539
▁toll	-7540
▁Player	-7541
▁prohib	-7542
▁Soon	-7543
▁traveled	-7544
▁apprec	-7545
▁Ot	-7546
▁whereas	-7547
▁organizations	-7548
▁proced	-7549
▁designer	-7550
▁lose	-7551
▁rarely	-7552
▁refers	-7553
sea	-7554
amese	-7555
▁diet	-7556
▁doesn	-7557
▁turrets	-7558
uv	-7559
▁technique	-7560
▁tone	-7561
▁Treaty	-7562
▁Iowa	-7563
▁outf	-7564
▁deter	-7565
▁spending	-7566
▁finale	-7567
▁mir	-7568
▁Alab	-7569
▁criticised	-7570
▁Ts	-7571
▁Trek	-7572
▁vice	-7573
▁advice	-7574
▁permission	-7575
▁vic	-7576
▁maintenance	-7577
usal	-7578
mission	-7579
▁Ra	-7580
otes	-7581
▁insc	-7582
▁platinum	-7583
▁uncertain	-7584
▁difficulties	-7585
▁Buck	-7586
borough	-7587
▁underw	-7588
▁policies	-7589
▁partially	-7590
▁Alabama	-7591
▁bypass	-7592
zy	-7593
▁Human	-7594
▁agree	-7595
▁verse	-7596
▁restric	-7597
▁Forces	-7598
▁compete	-7599
▁complic	-7600
▁mainstream	-7601
▁fur	-7602
▁indicate	-7603
▁ranking	-7604
▁personality	-7605
iece	-7606
lock	-7607
▁ca	-7608
▁recordings	-7609
alo	-7610
iy	-7611
uscript	-7612
▁Caribbean	-7613
olas	-7614
▁comments	-7615
▁excell	-7616
▁proport	-7617
igen	-7618
ennis	-7619
inction	-7620
▁remove	-7621
▁ax	-7622
helm	-7623
▁finals	-7624
▁liqu	-7625
▁refuge	-7626
▁anticip	-7627
ologists	-7628
▁Mississ	-7629
▁Lawrence	-7630
▁concerts	-7631
▁safe	-7632
▁chronic	-7633
igs	-7634
▁Napole	-7635
ygen	-7636
▁seats	-7637
▁windows	-7638
ilst	-7639
gery	-7640
▁unn	-7641
▁1923	-7642
▁Yanke	-7643
▁Charlie	-7644
kes	-7645
▁ML	-7646
urance	-7647
▁restrict	-7648
oked	-7649
▁falls	-7650
▁rates	-7651
attered	-7652
▁recommend	-7653
▁strip	-7654
▁extreme	-7655
▁fighters	-7656
▁honour	-7657
▁pitched	-7658
▁repair	-7659
▁Minnes	-7660
▁covers	-7661
aria	-7662
▁Ext	-7663
▁recur	-7664
▁representative	-7665
▁Then	-7666
▁Canal	-7667
▁symp	-7668
▁divor	-7669
▁Senator	-7670
▁Crown	-7671
▁moral	-7672
▁monument	-7673
▁jur	-7674
▁mamm	-7675
▁alter	-7676
▁tenth	-7677
xual	-7678
▁truth	-7679
▁prompted	-7680
▁phen	-7681
▁phr	-7682
▁brand	-7683
away	-7684
▁describe	-7685
▁Buff	-7686
▁hockey	-7687
▁Bros	-7688
▁forcing	-7689
▁Sab	-7690
▁tot	-7691
▁destroyers	-7692
chell	-7693
▁minimum	-7694
▁Ministry	-7695
▁Ian	-7696
▁shear	-7697
▁reconst	-7698
roc	-7699
▁Township	-7700
▁Garden	-7701
▁churches	-7702
▁neighborhood	-7703
▁diff	-7704
▁friendly	-7705
▁Cre	-7706
▁boys	-7707
▁hull	-7708
▁overs	-7709
▁Grammy	-7710
▁examples	-7711
▁bases	-7712
▁Hungary	-7713
▁drawing	-7714
▁Nazi	-7715
power	-7716
▁travelled	-7717
iac	-7718
▁Hand	-7719
▁Country	-7720
▁bombers	-7721
▁pric	-7722
▁tub	-7723
▁McD	-7724
▁dynasty	-7725
▁Call	-7726
▁doctor	-7727
▁adjacent	-7728
▁inaug	-7729
▁housing	-7730
▁displayed	-7731
▁Benj	-7732
▁approval	-7733
isd	-7734
▁Health	-7735
▁07	-7736
▁Return	-7737
▁Australians	-7738
anium	-7739
▁Belgium	-7740
MA	-7741
▁Fran	-7742
▁Dance	-7743
▁credits	-7744
icy	-7745
▁USD	-7746
▁Hamp	-7747
▁creator	-7748
▁Christopher	-7749
gro	-7750
▁grown	-7751
▁joining	-7752
▁listing	-7753
▁tribute	-7754
▁Diego	-7755
▁collapse	-7756
▁partnership	-7757
aya	-7758
▁Blood	-7759
▁protagonist	-7760
▁Medal	-7761
▁Polit	-7762
▁Shakesp	-7763
rain	-7764
▁Event	-7765
▁changing	-7766
gas	-7767
▁acted	-7768
▁moments	-7769
▁creative	-7770
▁designation	-7771
▁explo	-7772
▁powered	-7773
FC	-7774
▁copy	-7775
alions	-7776
ugby	-7777
olis	-7778
▁fung	-7779
▁Children	-7780
▁MP	-7781
onnaissance	-7782
▁asks	-7783
▁refere	-7784
▁turb	-7785
▁radar	-7786
▁trend	-7787
▁Cold	-7788
▁storms	-7789
▁villages	-7790
▁instrumental	-7791
jo	-7792
▁appointment	-7793
▁arts	-7794
▁dollars	-7795
▁orb	-7796
▁1905	-7797
▁treaty	-7798
▁Much	-7799
▁scientists	-7800
▁1908	-7801
▁advis	-7802
ls	-7803
velt	-7804
▁canal	-7805
▁possession	-7806
▁CR	-7807
▁Roc	-7808
▁Op	-7809
▁rounds	-7810
▁survive	-7811
▁victories	-7812
▁Guardian	-7813
▁paintings	-7814
▁Mach	-7815
▁Legacy	-7816
▁Benjamin	-7817
▁Represent	-7818
▁eliminated	-7819
▁Nat	-7820
▁covering	-7821
▁mand	-7822
▁1909	-7823
imeter	-7824
ounced	-7825
▁Roose	-7826
▁truck	-7827
▁minimal	-7828
▁ju	-7829
▁Cred	-7830
▁orbit	-7831
▁els	-7832
▁precip	-7833
▁telling	-7834
▁elsewhere	-7835
▁Vietnamese	-7836
▁Hockey	-7837
▁Michel	-7838
▁Record	-7839
▁newspapers	-7840
▁benefit	-7841
▁surprise	-7842
mers	-7843
▁innov	-7844
col	-7845
uda	-7846
▁seeking	-7847
▁arriving	-7848
▁Hills	-7849
▁helping	-7850
icts	-7851
▁occupation	-7852
idi	-7853
▁wheel	-7854
▁suicide	-7855
▁grav	-7856
▁rhythm	-7857
▁purposes	-7858
▁Minnesota	-7859
▁Laure	-7860
▁values	-7861
▁dispute	-7862
▁Rand	-7863
ivated	-7864
▁occasions	-7865
▁DC	-7866
▁Hud	-7867
▁unlike	-7868
ogy	-7869
▁ped	-7870
otten	-7871
▁Khan	-7872
▁Alfred	-7873
▁Dead	-7874
▁loan	-7875
▁smooth	-7876
▁Dur	-7877
▁twin	-7878
ecraft	-7879
itud	-7880
▁pool	-7881
rupted	-7882
▁option	-7883
▁gard	-7884
active	-7885
▁Manhatt	-7886
▁manuscript	-7887
▁fishing	-7888
▁struggle	-7889
▁Interstate	-7890
▁marry	-7891
▁Walker	-7892
▁Manhattan	-7893
ES	-7894
▁soil	-7895
▁Franklin	-7896
ods	-7897
▁Kurt	-7898
chen	-7899
▁brick	-7900
▁Ll	-7901
▁Lin	-7902
▁wet	-7903
▁murd	-7904
forced	-7905
▁balance	-7906
ouri	-7907
▁degrees	-7908
▁gat	-7909
▁Roosevelt	-7910
▁preserved	-7911
rim	-7912
▁schedule	-7913
bra	-7914
ographical	-7915
rows	-7916
▁Administ	-7917
rad	-7918
▁Hind	-7919
sters	-7920
▁Trust	-7921
▁Perform	-7922
atus	-7923
▁1907	-7924
▁Peninsula	-7925
▁publicly	-7926
▁Ah	-7927
▁Flight	-7928
▁categ	-7929
▁cryst	-7930
atherine	-7931
▁cooper	-7932
▁violent	-7933
enh	-7934
▁candidates	-7935
▁resumed	-7936
iders	-7937
▁flash	-7938
▁emperor	-7939
▁neighbour	-7940
ée	-7941
▁pilots	-7942
▁wedding	-7943
▁competed	-7944
Ar	-7945
▁125	-7946
▁survivors	-7947
▁Kansas	-7948
munition	-7949
▁105	-7950
▁164	-7951
▁abilities	-7952
▁Industry	-7953
roid	-7954
▁Lam	-7955
▁dies	-7956
▁procl	-7957
▁neutral	-7958
overs	-7959
▁span	-7960
▁discip	-7961
▁Shel	-7962
▁Mississipp	-7963
incial	-7964
▁Satur	-7965
▁intensified	-7966
30	-7967
▁beautiful	-7968
▁impossible	-7969
entional	-7970
▁Portland	-7971
▁alignment	-7972
▁Comb	-7973
▁teaching	-7974
ishment	-7975
▁coordin	-7976
▁defeating	-7977
▁advoc	-7978
▁argument	-7979
▁Anim	-7980
▁Thor	-7981
▁cook	-7982
▁multi	-7983
▁wrest	-7984
▁assisted	-7985
li	-7986
ante	-7987
▁Ban	-7988
▁custom	-7989
▁concrete	-7990
▁Nash	-7991
▁poison	-7992
▁electronic	-7993
▁lists	-7994
▁consult	-7995
▁helicop	-7996
▁nations	-7997
acle	-7998
oking	-7999
▁Beck	-8000
▁grey	-8001
▁Hotel	-8002
rome	-8003
▁prosp	-8004
▁Building	-8005
▁Set	-8006
▁Tun	-8007
▁rivers	-8008
▁serial	-8009
▁Fal	-8010
▁Born	-8011
▁Hong	-8012
▁lem	-8013
▁absol	-8014
▁opponent	-8015
▁assists	-8016
▁interesting	-8017
▁elabor	-8018
▁foundation	-8019
▁agricultural	-8020
rot	-8021
▁businesses	-8022
▁Aff	-8023
ensions	-8024
▁Ice	-8025
▁Digital	-8026
▁suitable	-8027
▁Bull	-8028
▁Cole	-8029
▁simpl	-8030
▁backing	-8031
▁1880	-8032
▁Lith	-8033
▁overt	-8034
▁oxygen	-8035
▁tunnel	-8036
▁submitted	-8037
▁danc	-8038
▁signing	-8039
▁understanding	-8040
▁Div	-8041
▁Fried	-8042
▁mines	-8043
▁fifteen	-8044
eare	-8045
ilty	-8046
▁scholar	-8047
▁encounter	-8048
obile	-8049
▁symptoms	-8050
▁165	-8051
▁citing	-8052
▁Gab	-8053
odore	-8054
▁waves	-8055
▁behalf	-8056
cop	-8057
▁sunk	-8058
▁percentage	-8059
▁Shakespeare	-8060
itated	-8061
ulating	-8062
▁Area	-8063
▁Halo	-8064
▁Native	-8065
▁forests	-8066
eu	-8067
▁AR	-8068
▁parish	-8069
▁Tenness	-8070
▁situated	-8071
▁spiritual	-8072
▁forty	-8073
▁ninet	-8074
▁Blues	-8075
▁signs	-8076
▁Rap	-8077
▁closing	-8078
▁sank	-8079
▁subjects	-8080
▁Son	-8081
▁Hindu	-8082
▁Ward	-8083
▁ammunition	-8084
▁voiced	-8085
▁Athlet	-8086
ila	-8087
▁usual	-8088
▁Alexand	-8089
▁illness	-8090
▁Campbell	-8091
▁repairs	-8092
▁Offic	-8093
onymous	-8094
▁Sullivan	-8095
▁resolution	-8096
▁01	-8097
ctic	-8098
▁Brun	-8099
rix	-8100
▁Steven	-8101
▁Hero	-8102
▁Cob	-8103
▁asking	-8104
▁corpor	-8105
▁functions	-8106
▁Hu	-8107
uman	-8108
▁Rang	-8109
▁disaster	-8110
▁imperial	-8111
▁collaboration	-8112
▁attendance	-8113
▁Wolf	-8114
▁assess	-8115
zz	-8116
▁04	-8117
▁lieutenant	-8118
▁restaurant	-8119
▁Vinc	-8120
▁evil	-8121
▁Lucas	-8122
alities	-8123
▁Egyptian	-8124
▁audiences	-8125
▁Margaret	-8126
▁controll	-8127
▁feelings	-8128
▁underground	-8129
rams	-8130
▁junction	-8131
▁Friend	-8132
▁worship	-8133
▁deliber	-8134
▁flights	-8135
▁nom	-8136
▁Kings	-8137
▁affairs	-8138
▁suspended	-8139
▁skull	-8140
▁Si	-8141
▁Ple	-8142
father	-8143
▁Mississippi	-8144
face	-8145
▁Tennessee	-8146
▁Dw	-8147
▁exit	-8148
▁VI	-8149
▁Stevens	-8150
▁Race	-8151
▁Apple	-8152
▁willing	-8153
▁earthqu	-8154
▁targets	-8155
▁1906	-8156
▁cargo	-8157
▁Louisiana	-8158
▁recre	-8159
▁affair	-8160
▁funeral	-8161
▁Montreal	-8162
▁Box	-8163
▁Lad	-8164
▁poorly	-8165
▁operational	-8166
▁Historic	-8167
▁1904	-8168
▁Dest	-8169
▁abol	-8170
▁measured	-8171
odge	-8172
▁documents	-8173
▁compilation	-8174
▁Missouri	-8175
isp	-8176
▁aimed	-8177
▁filed	-8178
iveness	-8179
▁Labour	-8180
▁pron	-8181
▁Warren	-8182
▁Wol	-8183
▁Palest	-8184
▁registered	-8185
▁360	-8186
uable	-8187
▁circuit	-8188
▁1870	-8189
asters	-8190
▁mountains	-8191
▁Depression	-8192
▁Philippines	-8193
sex	-8194
▁lect	-8195
▁initi	-8196
▁string	-8197
▁elder	-8198
▁favorable	-8199
▁Tag	-8200
▁Prom	-8201
▁statue	-8202
▁liked	-8203
▁anch	-8204
▁Mitchell	-8205
▁recognised	-8206
▁explosion	-8207
▁adopt	-8208
▁Harvey	-8209
▁prol	-8210
▁professor	-8211
▁represents	-8212
▁temporarily	-8213
▁Billy	-8214
▁entertainment	-8215
lah	-8216
▁sector	-8217
▁rout	-8218
▁replacing	-8219
ipped	-8220
rator	-8221
▁sequences	-8222
ta	-8223
▁McL	-8224
▁Critics	-8225
▁fifty	-8226
▁jazz	-8227
amps	-8228
aron	-8229
▁wreck	-8230
▁offering	-8231
▁shells	-8232
▁Dom	-8233
▁artwork	-8234
inea	-8235
overe	-8236
▁wore	-8237
▁Small	-8238
▁margin	-8239
▁interpre	-8240
▁residence	-8241
▁preparation	-8242
ception	-8243
▁Dragon	-8244
▁Graham	-8245
ateur	-8246
▁Independent	-8247
▁Mack	-8248
species	-8249
amic	-8250
▁reflected	-8251
ifer	-8252
▁wel	-8253
weet	-8254
▁reluct	-8255
▁alliance	-8256
▁directors	-8257
▁restoration	-8258
▁Czech	-8259
▁prime	-8260
▁expensive	-8261
▁Non	-8262
▁bot	-8263
orders	-8264
▁cyl	-8265
▁Business	-8266
▁terror	-8267
▁touring	-8268
▁overw	-8269
▁alcohol	-8270
▁amongst	-8271
▁Joh	-8272
▁completing	-8273
▁Near	-8274
issions	-8275
▁thinking	-8276
▁suggesting	-8277
▁UE	-8278
▁Fem	-8279
▁py	-8280
▁banks	-8281
▁nucle	-8282
▁cancelled	-8283
ylan	-8284
ancell	-8285
artney	-8286
inental	-8287
▁rebuilt	-8288
bishop	-8289
▁coverage	-8290
▁Nag	-8291
▁rig	-8292
atics	-8293
▁Kirk	-8294
▁horror	-8295
ques	-8296
▁Ariz	-8297
▁pulled	-8298
▁escaped	-8299
▁Cuba	-8300
▁Seven	-8301
▁wasn	-8302
▁Guide	-8303
▁amounts	-8304
▁decides	-8305
rm	-8306
dale	-8307
▁erupt	-8308
agen	-8309
▁Grey	-8310
▁reven	-8311
andal	-8312
▁dimens	-8313
▁Edge	-8314
▁lacked	-8315
idel	-8316
▁Mes	-8317
ellect	-8318
▁racing	-8319
▁tribes	-8320
SP	-8321
osm	-8322
uary	-8323
▁cous	-8324
▁dramatic	-8325
▁bay	-8326
▁subt	-8327
▁Magn	-8328
▁Phoen	-8329
▁clearly	-8330
▁patterns	-8331
TA	-8332
▁communication	-8333
phony	-8334
overeign	-8335
▁predomin	-8336
▁Files	-8337
▁engagement	-8338
▁Cow	-8339
▁ownership	-8340
▁argues	-8341
▁familiar	-8342
▁Ring	-8343
▁Tamil	-8344
▁Vis	-8345
▁frig	-8346
▁marks	-8347
▁garden	-8348
quir	-8349
▁Arizona	-8350
▁armored	-8351
▁ben	-8352
▁perspective	-8353
▁Mess	-8354
▁colonies	-8355
▁saved	-8356
▁Indies	-8357
▁Ku	-8358
▁Persian	-8359
▁drove	-8360
▁Saturday	-8361
▁contributions	-8362
▁Snow	-8363
▁wicket	-8364
▁cod	-8365
▁Maur	-8366
▁Sony	-8367
▁Hem	-8368
▁merchant	-8369
▁solution	-8370
urally	-8371
▁tru	-8372
▁fastest	-8373
▁artistic	-8374
▁administrative	-8375
▁Dylan	-8376
▁remnants	-8377
rage	-8378
▁playoffs	-8379
▁print	-8380
ski	-8381
▁characterized	-8382
unch	-8383
▁Ren	-8384
idency	-8385
eron	-8386
▁rit	-8387
ieties	-8388
▁boundary	-8389
▁Josh	-8390
▁Scout	-8391
▁execut	-8392
▁rising	-8393
▁Ye	-8394
▁crews	-8395
▁false	-8396
▁kings	-8397
▁militia	-8398
▁severely	-8399
▁institutions	-8400
okes	-8401
▁seed	-8402
▁Marie	-8403
orious	-8404
▁armament	-8405
▁tag	-8406
▁badly	-8407
▁disappoin	-8408
▁depending	-8409
▁retail	-8410
▁flagship	-8411
▁Confederate	-8412
▁obv	-8413
▁bulk	-8414
▁earning	-8415
▁genetic	-8416
▁distinctive	-8417
▁Bureau	-8418
▁bowling	-8419
▁gang	-8420
▁explains	-8421
no	-8422
▁ranks	-8423
▁recip	-8424
▁bronze	-8425
▁Oklah	-8426
▁restricted	-8427
▁03	-8428
▁frust	-8429
▁fallen	-8430
▁ideal	-8431
▁notice	-8432
▁comparison	-8433
bl	-8434
rep	-8435
▁Lov	-8436
▁excav	-8437
orer	-8438
▁demonstrated	-8439
cho	-8440
▁explain	-8441
▁ranging	-8442
▁earn	-8443
▁poems	-8444
▁condem	-8445
▁115	-8446
▁Kal	-8447
▁Cher	-8448
▁controls	-8449
▁inhabitants	-8450
cru	-8451
▁draf	-8452
▁threw	-8453
▁arrive	-8454
▁context	-8455
orph	-8456
▁inland	-8457
▁riders	-8458
▁Switzer	-8459
▁Sin	-8460
storm	-8461
▁Murphy	-8462
▁practices	-8463
nik	-8464
ectic	-8465
mented	-8466
▁Mrs	-8467
▁sisters	-8468
▁kW	-8469
omber	-8470
▁quiet	-8471
▁wants	-8472
uations	-8473
▁mental	-8474
▁satisf	-8475
▁Wilhelm	-8476
▁loop	-8477
▁electron	-8478
▁Switzerland	-8479
▁conservative	-8480
uki	-8481
rating	-8482
▁wider	-8483
▁faster	-8484
exp	-8485
pan	-8486
▁maneu	-8487
▁shield	-8488
▁Program	-8489
▁gap	-8490
▁exclud	-8491
formation	-8492
▁autob	-8493
▁surge	-8494
▁Econom	-8495
▁Broadway	-8496
▁reaches	-8497
▁spotted	-8498
▁distinguished	-8499
▁Liz	-8500
▁pace	-8501
▁revol	-8502
▁174	-8503
▁plus	-8504
▁vulner	-8505
▁evolved	-8506
▁northward	-8507
equ	-8508
sky	-8509
gate	-8510
ivia	-8511
▁101	-8512
▁1901	-8513
▁Barry	-8514
▁acceler	-8515
▁meat	-8516
anches	-8517
▁Chand	-8518
▁application	-8519
life	-8520
▁synd	-8521
▁Oklahoma	-8522
▁EP	-8523
▁kit	-8524
itting	-8525
▁exhibition	-8526
▁Austrian	-8527
▁millimet	-8528
▁ABC	-8529
▁Mik	-8530
▁nominations	-8531
unc	-8532
▁agency	-8533
▁quarterback	-8534
▁protein	-8535
▁subspecies	-8536
▁satellite	-8537
▁Such	-8538
▁gate	-8539
ocking	-8540
▁Federation	-8541
▁prepare	-8542
▁dominant	-8543
▁households	-8544
ridge	-8545
▁palace	-8546
▁predicted	-8547
ruption	-8548
athy	-8549
▁frame	-8550
▁triple	-8551
otton	-8552
▁Delaware	-8553
▁slaves	-8554
▁storage	-8555
▁Amy	-8556
▁Ped	-8557
▁Original	-8558
bre	-8559
▁1903	-8560
▁obtain	-8561
sequently	-8562
▁tex	-8563
▁1902	-8564
estone	-8565
inations	-8566
▁Lithuan	-8567
▁Tan	-8568
▁abund	-8569
▁printed	-8570
CC	-8571
▁articles	-8572
▁attained	-8573
▁carriers	-8574
▁intellect	-8575
▁repeatedly	-8576
▁fixed	-8577
▁Leslie	-8578
▁allies	-8579
▁predecessor	-8580
oga	-8581
▁spr	-8582
▁stores	-8583
▁surgery	-8584
▁vertical	-8585
▁vs	-8586
▁Perry	-8587
▁peaking	-8588
▁vast	-8589
▁155	-8590
▁yield	-8591
▁philosophy	-8592
ori	-8593
▁vel	-8594
▁signal	-8595
▁strict	-8596
▁adventure	-8597
▁biographer	-8598
▁blocks	-8599
urer	-8600
▁excellent	-8601
▁disagre	-8602
▁Originally	-8603
acked	-8604
▁boss	-8605
anton	-8606
azing	-8607
▁illegal	-8608
▁phenomen	-8609
asts	-8610
▁Baby	-8611
▁Harv	-8612
▁perceived	-8613
▁bombs	-8614
▁choose	-8615
▁seriously	-8616
rine	-8617
rates	-8618
▁Denmark	-8619
▁Rico	-8620
▁Jonathan	-8621
▁remarked	-8622
▁westward	-8623
▁apartment	-8624
oven	-8625
agasc	-8626
▁Tokyo	-8627
▁pretty	-8628
▁waiting	-8629
▁Nik	-8630
▁Ridge	-8631
▁useful	-8632
▁comfort	-8633
▁Rih	-8634
▁circumstances	-8635
fe	-8636
▁Clar	-8637
▁thor	-8638
aughters	-8639
▁Players	-8640
▁curren	-8641
riptions	-8642
▁Atlanta	-8643
▁Baseball	-8644
▁Rihanna	-8645
▁surrend	-8646
▁meetings	-8647
▁battalions	-8648
▁drugs	-8649
▁sket	-8650
▁coinc	-8651
▁dollar	-8652
oned	-8653
▁tight	-8654
adi	-8655
itage	-8656
▁Nixon	-8657
▁layer	-8658
▁Johnny	-8659
▁readers	-8660
▁civilian	-8661
▁Fif	-8662
▁armour	-8663
▁whilst	-8664
ibl	-8665
acon	-8666
▁Abbey	-8667
fish	-8668
imen	-8669
▁Less	-8670
▁phone	-8671
▁Bomb	-8672
▁sick	-8673
▁Bernard	-8674
▁matters	-8675
▁institution	-8676
▁breat	-8677
▁Mother	-8678
▁casting	-8679
▁friendship	-8680
▁strengthened	-8681
▁visiting	-8682
▁gust	-8683
▁tiss	-8684
▁Territ	-8685
▁planets	-8686
▁Campaign	-8687
▁reconnaissance	-8688
▁similarly	-8689
▁retain	-8690
▁chamber	-8691
▁simultaneously	-8692
icate	-8693
▁Edwards	-8694
apolis	-8695
▁legacy	-8696
▁Juan	-8697
▁demanded	-8698
▁alternate	-8699
▁typhoon	-8700
eton	-8701
mingham	-8702
rik	-8703
▁168	-8704
▁Pitts	-8705
▁panel	-8706
▁Arnold	-8707
▁justice	-8708
pha	-8709
▁DS	-8710
▁empt	-8711
▁enlisted	-8712
▁Hann	-8713
▁alive	-8714
▁Ru	-8715
▁insisted	-8716
rus	-8717
rose	-8718
▁Tel	-8719
▁Roll	-8720
▁Railroad	-8721
sk	-8722
onomy	-8723
▁shipping	-8724
avery	-8725
▁Brig	-8726
▁horn	-8727
▁revers	-8728
arant	-8729
▁roots	-8730
▁revenue	-8731
▁promised	-8732
▁Keith	-8733
▁bombing	-8734
▁demands	-8735
estyle	-8736
▁Jimmy	-8737
▁Prize	-8738
▁tack	-8739
▁possess	-8740
arth	-8741
▁lanes	-8742
▁athletes	-8743
▁personally	-8744
▁hook	-8745
▁console	-8746
▁Ral	-8747
▁drivers	-8748
▁Internet	-8749
▁struggled	-8750
▁definition	-8751
entle	-8752
▁mainland	-8753
▁looks	-8754
▁Rachel	-8755
▁portions	-8756
rast	-8757
▁Lex	-8758
▁pione	-8759
aration	-8760
▁conscious	-8761
▁orchestra	-8762
▁audition	-8763
▁Wor	-8764
▁Chel	-8765
▁Madagasc	-8766
abs	-8767
▁Bh	-8768
▁sung	-8769
lus	-8770
▁backed	-8771
▁propag	-8772
▁democr	-8773
▁behaviour	-8774
roph	-8775
▁Yankees	-8776
▁continu	-8777
▁guitarist	-8778
dy	-8779
▁Cra	-8780
▁diver	-8781
▁Wag	-8782
▁jobs	-8783
▁Tracy	-8784
▁guilty	-8785
▁artific	-8786
▁marketing	-8787
TW	-8788
▁armies	-8789
▁demolished	-8790
▁Opp	-8791
▁Inn	-8792
inian	-8793
regation	-8794
▁Birmingham	-8795
▁Soul	-8796
▁dancing	-8797
▁surpass	-8798
▁starring	-8799
▁Furthermore	-8800
▁Pars	-8801
▁ruling	-8802
▁Hur	-8803
▁feels	-8804
▁factory	-8805
▁increases	-8806
acre	-8807
▁Obama	-8808
▁profile	-8809
▁Eventually	-8810
▁Nine	-8811
▁subst	-8812
erk	-8813
uma	-8814
odox	-8815
▁McM	-8816
▁heading	-8817
▁166	-8818
▁Hugh	-8819
▁mining	-8820
▁compens	-8821
▁counties	-8822
lain	-8823
▁Shaw	-8824
▁indu	-8825
azines	-8826
▁theater	-8827
▁Lost	-8828
▁Pil	-8829
▁rub	-8830
▁pages	-8831
▁Universal	-8832
▁essential	-8833
▁Enterprise	-8834
▁believing	-8835
▁organisation	-8836
ghan	-8837
▁Ald	-8838
▁Canter	-8839
▁pursue	-8840
▁McCartney	-8841
▁Rat	-8842
▁punk	-8843
▁bonus	-8844
▁discont	-8845
▁discovers	-8846
▁expression	-8847
▁02	-8848
▁affect	-8849
▁Phoenix	-8850
▁delivery	-8851
tery	-8852
▁Gray	-8853
arr	-8854
inding	-8855
▁multipl	-8856
▁clothing	-8857
din	-8858
▁obst	-8859
▁Hudson	-8860
▁succeed	-8861
▁ports	-8862
▁Baker	-8863
eland	-8864
▁Ton	-8865
▁mobile	-8866
▁Jup	-8867
▁Cost	-8868
▁Vik	-8869
▁Buddh	-8870
▁crest	-8871
▁elevation	-8872
▁Bobby	-8873
▁Bach	-8874
▁Chen	-8875
▁Girls	-8876
▁patron	-8877
▁Connectic	-8878
▁Publ	-8879
▁Wayne	-8880
▁109	-8881
▁Madagascar	-8882
ouver	-8883
▁acou	-8884
▁doubt	-8885
▁secretary	-8886
emen	-8887
▁Comple	-8888
acc	-8889
folk	-8890
▁Pearl	-8891
▁drink	-8892
▁engage	-8893
▁forecast	-8894
▁Connecticut	-8895
LC	-8896
▁kiss	-8897
▁accum	-8898
▁Impact	-8899
▁Defence	-8900
▁Fat	-8901
▁rif	-8902
rov	-8903
▁sq	-8904
▁horiz	-8905
▁cup	-8906
▁stick	-8907
▁altered	-8908
▁overseas	-8909
tario	-8910
▁Mans	-8911
▁Morrison	-8912
▁Iran	-8913
▁Todd	-8914
▁chest	-8915
▁Bosn	-8916
▁mayor	-8917
▁Rights	-8918
▁deterior	-8919
py	-8920
umps	-8921
▁Ontario	-8922
▁Peace	-8923
▁listen	-8924
▁defences	-8925
atern	-8926
▁expand	-8927
▁erected	-8928
▁baby	-8929
ultan	-8930
irty	-8931
▁cancel	-8932
▁settlers	-8933
▁compounds	-8934
cles	-8935
▁bid	-8936
▁renov	-8937
ication	-8938
▁Canterbury	-8939
inces	-8940
▁stress	-8941
▁Karl	-8942
▁Friday	-8943
▁Rub	-8944
shore	-8945
▁Stat	-8946
▁salt	-8947
▁Works	-8948
▁legislature	-8949
grad	-8950
▁musician	-8951
otyp	-8952
▁objective	-8953
iph	-8954
▁Maj	-8955
▁Leonard	-8956
▁Community	-8957
▁raising	-8958
▁highways	-8959
▁decisions	-8960
▁aerial	-8961
warf	-8962
▁disl	-8963
▁Allies	-8964
▁voy	-8965
▁aftermath	-8966
▁concentration	-8967
AC	-8968
▁solar	-8969
▁campaigns	-8970
▁conversion	-8971
ensively	-8972
▁orn	-8973
▁liquid	-8974
▁conspir	-8975
▁soldier	-8976
▁wait	-8977
▁exactly	-8978
▁sitting	-8979
▁indicating	-8980
owed	-8981
asant	-8982
▁hidden	-8983
▁Foreign	-8984
tha	-8985
▁Bi	-8986
▁prove	-8987
▁wealthy	-8988
▁scen	-8989
▁Spart	-8990
▁organised	-8991
▁acknowledged	-8992
▁Cyr	-8993
▁Hold	-8994
▁Lang	-8995
▁Pruss	-8996
▁wrestling	-8997
▁trouble	-8998
▁permitted	-8999
▁dissipated	-9000
▁improvements	-9001
annon	-9002
▁happ	-9003
▁danger	-9004
▁striking	-9005
▁graduated	-9006
▁Manu	-9007
▁Micro	-9008
▁dressed	-9009
▁realized	-9010
▁appropriate	-9011
▁Windows	-9012
▁confron	-9013
▁ski	-9014
▁Diam	-9015
▁Boys	-9016
▁radical	-9017
atropical	-9018
▁execution	-9019
▁Goth	-9020
▁UEFA	-9021
▁Griff	-9022
▁meter	-9023
▁parent	-9024
▁Napoleon	-9025
▁observations	-9026
▁Fel	-9027
irts	-9028
▁Patt	-9029
▁raids	-9030
▁Outstanding	-9031
▁removal	-9032
▁NAS	-9033
▁profit	-9034
▁travels	-9035
bird	-9036
pent	-9037
▁fewer	-9038
▁venue	-9039
▁celebrated	-9040
▁interpretation	-9041
▁encl	-9042
▁aggressive	-9043
▁publications	-9044
oker	-9045
uese	-9046
aments	-9047
▁initiated	-9048
▁Ay	-9049
oons	-9050
rawn	-9051
ifies	-9052
▁turret	-9053
▁theatrical	-9054
▁Kit	-9055
▁chapel	-9056
▁requires	-9057
▁publishing	-9058
▁evacuated	-9059
elli	-9060
▁debt	-9061
▁Season	-9062
ancouver	-9063
▁Gary	-9064
▁jurisd	-9065
▁origins	-9066
▁founding	-9067
▁originated	-9068
EC	-9069
inister	-9070
▁Vancouver	-9071
▁stationed	-9072
▁sharp	-9073
▁explan	-9074
▁Tol	-9075
▁Legend	-9076
▁cannon	-9077
▁Jupiter	-9078
▁establishing	-9079
agg	-9080
▁Da	-9081
▁Sem	-9082
itals	-9083
▁connect	-9084
▁defending	-9085
▁rebellion	-9086
ulous	-9087
▁Edin	-9088
ivation	-9089
▁shorter	-9090
▁considering	-9091
▁announcement	-9092
▁arrangements	-9093
agh	-9094
aro	-9095
▁152	-9096
▁net	-9097
▁Lion	-9098
▁supple	-9099
raction	-9100
▁cutting	-9101
▁Bath	-9102
▁brill	-9103
▁guarant	-9104
▁Pakistan	-9105
▁bones	-9106
▁Mountains	-9107
mund	-9108
▁Gate	-9109
▁Mint	-9110
▁tort	-9111
▁fantasy	-9112
▁Champions	-9113
▁steps	-9114
stan	-9115
▁TNA	-9116
▁Drive	-9117
▁magazines	-9118
▁connecting	-9119
rac	-9120
▁Dall	-9121
▁Laur	-9122
itudes	-9123
▁approaching	-9124
▁hosts	-9125
autical	-9126
▁aspect	-9127
▁donated	-9128
▁extratropical	-9129
▁Cycl	-9130
▁placing	-9131
▁walking	-9132
adier	-9133
▁mush	-9134
▁magic	-9135
▁strategic	-9136
▁lying	-9137
▁Bradman	-9138
▁Portuguese	-9139
▁Champion	-9140
▁insects	-9141
▁ongoing	-9142
▁discussion	-9143
▁Administration	-9144
itively	-9145
ennium	-9146
▁talent	-9147
▁colleagues	-9148
▁lin	-9149
▁memor	-9150
▁edited	-9151
jan	-9152
▁outl	-9153
▁funny	-9154
▁Triple	-9155
▁youngest	-9156
▁closest	-9157
hears	-9158
▁predict	-9159
▁gathered	-9160
▁hypothes	-9161
▁qualified	-9162
▁173	-9163
▁Jar	-9164
▁tubes	-9165
▁battlecru	-9166
▁drag	-9167
▁decide	-9168
▁Trophy	-9169
dess	-9170
▁Our	-9171
ipper	-9172
▁volumes	-9173
rous	-9174
▁forth	-9175
▁Deb	-9176
▁Tit	-9177
▁indicates	-9178
▁landscape	-9179
▁strongest	-9180
▁watershed	-9181
▁withdrawal	-9182
▁1893	-9183
▁Dwight	-9184
▁putting	-9185
▁1860	-9186
▁Alice	-9187
▁angle	-9188
▁glac	-9189
▁Cov	-9190
▁Sig	-9191
ecution	-9192
▁markets	-9193
▁identify	-9194
ti	-9195
▁coup	-9196
▁pale	-9197
▁switch	-9198
▁supplied	-9199
▁rede	-9200
▁circle	-9201
▁Stu	-9202
▁forg	-9203
▁Marvel	-9204
▁exposure	-9205
▁Sak	-9206
▁specimen	-9207
▁anth	-9208
▁1896	-9209
▁gray	-9210
▁collapsed	-9211
▁challenged	-9212
▁caps	-9213
▁merely	-9214
▁Fleming	-9215
▁confront	-9216
▁Reserve	-9217
▁Mem	-9218
imented	-9219
▁density	-9220
▁partial	-9221
▁111	-9222
▁cub	-9223
▁Hampshire	-9224
▁Edinburgh	-9225
▁les	-9226
mi	-9227
▁desert	-9228
▁dubbed	-9229
▁NCAA	-9230
▁shift	-9231
▁visits	-9232
▁Honor	-9233
▁affili	-9234
▁limits	-9235
▁feeding	-9236
▁104	-9237
▁bare	-9238
▁beam	-9239
▁Potter	-9240
▁Mission	-9241
otte	-9242
▁Ship	-9243
▁Those	-9244
▁Oliver	-9245
▁Gene	-9246
▁provision	-9247
▁educational	-9248
▁hydrogen	-9249
▁conventional	-9250
▁Joy	-9251
ova	-9252
▁clin	-9253
▁prize	-9254
▁seized	-9255
▁duo	-9256
earing	-9257
▁Somet	-9258
▁Years	-9259
▁Flying	-9260
cks	-9261
▁spac	-9262
▁bearing	-9263
▁annually	-9264
▁concentrated	-9265
vy	-9266
▁topped	-9267
▁membership	-9268
elta	-9269
soft	-9270
▁Meteor	-9271
▁attending	-9272
▁champions	-9273
▁Isa	-9274
▁1898	-9275
▁corps	-9276
▁plain	-9277
amental	-9278
▁Afghan	-9279
▁parody	-9280
▁assembly	-9281
join	-9282
▁ranges	-9283
adal	-9284
idal	-9285
ested	-9286
▁exha	-9287
irates	-9288
case	-9289
▁Ches	-9290
▁Charts	-9291
▁Anc	-9292
▁Lat	-9293
▁cock	-9294
onium	-9295
▁dogs	-9296
▁navy	-9297
▁offense	-9298
icle	-9299
▁Type	-9300
▁Tob	-9301
▁emphasis	-9302
▁AS	-9303
▁weekly	-9304
▁Natural	-9305
▁171	-9306
▁sad	-9307
▁furn	-9308
▁Begin	-9309
igenous	-9310
▁exercise	-9311
▁productions	-9312
angle	-9313
▁unless	-9314
▁talking	-9315
anner	-9316
▁ticket	-9317
▁investigate	-9318
agger	-9319
▁basin	-9320
▁Pin	-9321
uzzle	-9322
▁grave	-9323
▁trough	-9324
▁Abd	-9325
▁Ralph	-9326
▁legit	-9327
▁Finally	-9328
▁promotional	-9329
▁Lib	-9330
▁Mosc	-9331
athers	-9332
▁anime	-9333
▁bacter	-9334
▁Princip	-9335
hyl	-9336
idae	-9337
▁Beng	-9338
▁Democrats	-9339
▁Personal	-9340
▁Victorian	-9341
da	-9342
aks	-9343
enna	-9344
▁portrayal	-9345
bow	-9346
▁Say	-9347
▁jury	-9348
▁resol	-9349
▁ceased	-9350
▁flooded	-9351
▁fortress	-9352
▁List	-9353
▁Yorkshire	-9354
▁advertising	-9355
ieth	-9356
▁172	-9357
▁bone	-9358
terior	-9359
▁NO	-9360
▁fill	-9361
▁Argentina	-9362
ovi	-9363
pled	-9364
▁bond	-9365
▁Lloyd	-9366
▁regime	-9367
▁birthday	-9368
▁conservation	-9369
ika	-9370
ugg	-9371
▁uncle	-9372
▁persons	-9373
▁350	-9374
▁Len	-9375
▁cruc	-9376
▁Monte	-9377
▁output	-9378
▁employment	-9379
▁Christianity	-9380
AR	-9381
▁sending	-9382
▁attitude	-9383
▁Convention	-9384
▁photographs	-9385
▁Dod	-9386
▁eval	-9387
▁Village	-9388
▁software	-9389
rising	-9390
▁Where	-9391
▁bishop	-9392
▁Brothers	-9393
▁experimental	-9394
IS	-9395
▁hitting	-9396
▁questioned	-9397
▁127	-9398
▁Las	-9399
aders	-9400
ported	-9401
▁Vi	-9402
▁Celt	-9403
▁Jerry	-9404
▁Overall	-9405
▁guide	-9406
▁queen	-9407
▁Chronicle	-9408
▁161	-9409
▁ballad	-9410
▁drinking	-9411
▁scattered	-9412
▁translation	-9413
aux	-9414
otal	-9415
▁underwent	-9416
olly	-9417
roying	-9418
▁provincial	-9419
ean	-9420
hous	-9421
▁mature	-9422
▁unclear	-9423
▁overwhel	-9424
▁Lt	-9425
▁1899	-9426
▁coff	-9427
▁endors	-9428
▁assembled	-9429
ello	-9430
▁aggreg	-9431
▁replied	-9432
▁cousin	-9433
▁brig	-9434
▁papers	-9435
▁Collins	-9436
▁representatives	-9437
phone	-9438
▁swimming	-9439
gie	-9440
▁Books	-9441
iper	-9442
▁commentary	-9443
▁Marge	-9444
▁lawyer	-9445
iffs	-9446
▁cens	-9447
▁proclaim	-9448
▁Pink	-9449
▁coat	-9450
▁outd	-9451
▁imagery	-9452
▁clock	-9453
▁empire	-9454
▁thirteen	-9455
▁Finland	-9456
▁liberal	-9457
▁external	-9458
▁Howe	-9459
▁Maya	-9460
▁Craig	-9461
▁loved	-9462
▁lawsu	-9463
assador	-9464
▁terrain	-9465
▁acoustic	-9466
hammad	-9467
▁comprom	-9468
▁exclusive	-9469
itis	-9470
▁slave	-9471
▁pictures	-9472
▁electricity	-9473
▁streak	-9474
▁duration	-9475
▁monaster	-9476
oys	-9477
onica	-9478
▁Deep	-9479
▁Fund	-9480
▁movies	-9481
ications	-9482
▁daughters	-9483
oa	-9484
angel	-9485
ashes	-9486
▁wire	-9487
▁Turner	-9488
▁devast	-9489
▁accompanying	-9490
▁Om	-9491
▁Apoll	-9492
▁Wii	-9493
▁mac	-9494
▁tenure	-9495
▁arrives	-9496
▁surrendered	-9497
atever	-9498
▁branches	-9499
▁burial	-9500
▁stronger	-9501
▁identical	-9502
▁expert	-9503
▁succession	-9504
ersed	-9505
▁Hardy	-9506
▁Norfolk	-9507
▁Similarly	-9508
▁reverse	-9509
▁Queensland	-9510
▁components	-9511
▁Py	-9512
▁beats	-9513
▁Heritage	-9514
▁Na	-9515
riors	-9516
▁Andre	-9517
▁dread	-9518
▁stere	-9519
▁reducing	-9520
▁Mong	-9521
▁reveal	-9522
▁charter	-9523
▁Adv	-9524
ensed	-9525
▁reinforcements	-9526
▁Ax	-9527
▁Jama	-9528
▁prices	-9529
pler	-9530
▁108	-9531
▁cad	-9532
▁mal	-9533
▁sang	-9534
▁Belgian	-9535
▁Burton	-9536
▁Protest	-9537
▁trading	-9538
▁Dub	-9539
▁Hawaii	-9540
▁Nicholas	-9541
▁Professor	-9542
▁destroying	-9543
▁spaces	-9544
hard	-9545
▁Eug	-9546
▁scr	-9547
▁Prim	-9548
▁competing	-9549
▁169	-9550
▁penet	-9551
▁failing	-9552
▁mechanical	-9553
▁MS	-9554
▁Boat	-9555
ologies	-9556
▁Communist	-9557
▁exclusively	-9558
▁recall	-9559
▁Pam	-9560
▁Bennett	-9561
▁Prop	-9562
▁stops	-9563
▁atomic	-9564
▁Rangers	-9565
aja	-9566
▁isot	-9567
ellation	-9568
▁component	-9569
▁1850	-9570
esty	-9571
▁scar	-9572
▁precipitation	-9573
▁Beaut	-9574
▁Davies	-9575
▁slavery	-9576
▁developers	-9577
igrants	-9578
▁Cricket	-9579
▁Services	-9580
▁traded	-9581
▁Vincent	-9582
▁devices	-9583
▁governments	-9584
▁Meg	-9585
place	-9586
▁Emmy	-9587
▁Credits	-9588
ricts	-9589
▁Catherine	-9590
hu	-9591
abe	-9592
▁banned	-9593
▁fossil	-9594
▁mini	-9595
▁reward	-9596
▁Liberal	-9597
▁Medical	-9598
▁centers	-9599
▁varied	-9600
▁flowers	-9601
ibilities	-9602
▁consistent	-9603
▁artificial	-9604
▁elig	-9605
▁tube	-9606
▁Living	-9607
▁radiation	-9608
▁Sign	-9609
▁Swift	-9610
▁decay	-9611
▁considers	-9612
▁platforms	-9613
▁tip	-9614
▁virus	-9615
▁counterp	-9616
▁Haz	-9617
▁myst	-9618
▁pole	-9619
▁redes	-9620
▁Transportation	-9621
OS	-9622
▁Pap	-9623
▁earthquake	-9624
▁contribution	-9625
▁wish	-9626
▁Training	-9627
▁electrical	-9628
▁polar	-9629
▁Hughes	-9630
oles	-9631
▁Tak	-9632
▁disb	-9633
▁Local	-9634
▁Donald	-9635
▁burned	-9636
pike	-9637
▁Prix	-9638
▁hybr	-9639
▁architectural	-9640
amas	-9641
▁Lock	-9642
▁humor	-9643
▁waste	-9644
▁songwriter	-9645
▁1897	-9646
▁Curt	-9647
▁Look	-9648
▁Malt	-9649
▁dict	-9650
atched	-9651
▁reviewed	-9652
▁Thunder	-9653
▁boilers	-9654
▁Kl	-9655
▁obsc	-9656
▁Yellow	-9657
▁proceeded	-9658
▁understood	-9659
▁Jun	-9660
▁Kap	-9661
▁Guitar	-9662
▁advised	-9663
▁handled	-9664
▁fourteen	-9665
▁frequency	-9666
▁intersects	-9667
imp	-9668
ista	-9669
▁talks	-9670
▁destroyer	-9671
rastructure	-9672
▁profession	-9673
▁improvement	-9674
▁Sle	-9675
▁push	-9676
▁Stri	-9677
▁heir	-9678
▁Market	-9679
▁Harvard	-9680
ethel	-9681
▁Peters	-9682
hin	-9683
▁163	-9684
onald	-9685
▁Glen	-9686
▁texts	-9687
▁amateur	-9688
▁requirements	-9689
acles	-9690
▁Mand	-9691
▁Next	-9692
▁bath	-9693
▁theore	-9694
▁Darwin	-9695
▁samples	-9696
▁conceived	-9697
ags	-9698
▁Dram	-9699
▁Saxon	-9700
▁Swiss	-9701
▁copper	-9702
▁ment	-9703
▁induct	-9704
▁Trail	-9705
▁phrase	-9706
▁Cameron	-9707
▁Moscow	-9708
▁sixteen	-9709
▁referring	-9710
▁investment	-9711
▁Oslo	-9712
▁shares	-9713
▁conflic	-9714
▁Kate	-9715
▁reduction	-9716
uras	-9717
▁Inv	-9718
▁Rab	-9719
illes	-9720
▁worn	-9721
uating	-9722
▁users	-9723
▁airfield	-9724
▁certainly	-9725
▁Pittsburgh	-9726
▁Bak	-9727
▁Dak	-9728
▁ecc	-9729
itarian	-9730
▁Gallery	-9731
▁charity	-9732
iciency	-9733
▁voting	-9734
▁Indonesia	-9735
olen	-9736
ulty	-9737
itely	-9738
▁cleared	-9739
▁weigh	-9740
▁praising	-9741
▁respective	-9742
ioc	-9743
▁Hob	-9744
▁parks	-9745
▁pel	-9746
▁labour	-9747
axy	-9748
▁Tax	-9749
▁lie	-9750
▁flows	-9751
▁Harbor	-9752
▁exceed	-9753
▁tactics	-9754
▁connections	-9755
▁Geoff	-9756
▁therap	-9757
▁photography	-9758
▁Ko	-9759
▁grossing	-9760
▁spoken	-9761
▁toured	-9762
▁qualifying	-9763
gom	-9764
▁Ric	-9765
encing	-9766
▁survival	-9767
erg	-9768
▁Must	-9769
▁constitutional	-9770
▁soph	-9771
etheless	-9772
▁Blu	-9773
▁quad	-9774
ffield	-9775
▁Terry	-9776
▁autumn	-9777
▁continuous	-9778
haw	-9779
▁Craw	-9780
▁ruler	-9781
umble	-9782
▁commanding	-9783
▁106	-9784
▁167	-9785
▁Din	-9786
rehens	-9787
strong	-9788
▁sweet	-9789
▁Antonio	-9790
▁commenced	-9791
embr	-9792
razy	-9793
▁nautical	-9794
▁patients	-9795
▁shoulder	-9796
OT	-9797
ng	-9798
▁taxes	-9799
▁confidence	-9800
▁legislative	-9801
▁Tig	-9802
▁lock	-9803
▁Alaska	-9804
▁tonnes	-9805
imm	-9806
▁121	-9807
▁154	-9808
eding	-9809
▁reorgan	-9810
▁attorney	-9811
▁opportunities	-9812
▁stuff	-9813
▁exists	-9814
▁enthusi	-9815
▁transported	-9816
▁unlik	-9817
▁fisher	-9818
▁Wallace	-9819
▁Broadcast	-9820
▁Mason	-9821
▁signature	-9822
▁fold	-9823
▁blind	-9824
▁camps	-9825
▁uranium	-9826
▁Microsoft	-9827
▁communist	-9828
▁competitive	-9829
▁Lem	-9830
▁hem	-9831
▁recon	-9832
▁translated	-9833
▁Dyn	-9834
▁melody	-9835
▁relocated	-9836
TWC	-9837
▁JTWC	-9838
▁Ali	-9839
ingham	-9840
▁tested	-9841
▁Mayor	-9842
▁Syria	-9843
▁indeed	-9844
▁reinforced	-9845
▁minority	-9846
▁Aftermath	-9847
▁fasc	-9848
▁traveling	-9849
▁nit	-9850
eping	-9851
▁fulf	-9852
▁rocks	-9853
porting	-9854
▁fairly	-9855
▁revolt	-9856
▁revised	-9857
▁commanders	-9858
▁pairs	-9859
▁dece	-9860
cester	-9861
eyer	-9862
▁Kane	-9863
▁noble	-9864
bes	-9865
▁Farm	-9866
▁Sweet	-9867
▁sovereign	-9868
▁Gor	-9869
▁unw	-9870
▁Bald	-9871
▁Ferr	-9872
icated	-9873
▁Still	-9874
▁Upper	-9875
▁manga	-9876
ayan	-9877
expected	-9878
▁explicit	-9879
venth	-9880
▁withdrawn	-9881
▁impression	-9882
▁lad	-9883
ambers	-9884
enesis	-9885
vant	-9886
▁Grace	-9887
▁crops	-9888
▁cartoon	-9889
onian	-9890
▁Sheffield	-9891
▁programming	-9892
avor	-9893
urricanes	-9894
▁extending	-9895
▁Larry	-9896
▁dischar	-9897
▁displaced	-9898
eared	-9899
▁accord	-9900
▁Israeli	-9901
▁experiments	-9902
▁Luke	-9903
▁promin	-9904
▁voices	-9905
▁Officer	-9906
▁principles	-9907
avia	-9908
▁blues	-9909
▁extinct	-9910
mith	-9911
▁1895	-9912
▁Mond	-9913
▁Stef	-9914
▁Stars	-9915
▁Security	-9916
▁magnitude	-9917
▁representation	-9918
▁Thr	-9919
▁Tow	-9920
▁learns	-9921
▁provinces	-9922
andom	-9923
▁fram	-9924
▁hole	-9925
▁uncon	-9926
legraph	-9927
▁Jefferson	-9928
▁characteristic	-9929
▁Rud	-9930
▁distant	-9931
▁prisoner	-9932
wa	-9933
where	-9934
▁moon	-9935
▁enforce	-9936
▁See	-9937
isive	-9938
ussion	-9939
▁culmin	-9940
▁marine	-9941
cott	-9942
▁Emer	-9943
▁summ	-9944
▁Bryan	-9945
▁Exper	-9946
▁GameS	-9947
▁abuse	-9948
▁Dallas	-9949
▁sample	-9950
▁Pictures	-9951
▁interpreted	-9952
asks	-9953
▁nat	-9954
▁lights	-9955
▁Johnston	-9956
▁XI	-9957
hell	-9958
▁Hey	-9959
▁Herald	-9960
▁warfare	-9961
▁Cyrus	-9962
▁Together	-9963
▁RP	-9964
▁Phys	-9965
▁Clarke	-9966
▁relatives	-9967
▁HD	-9968
▁conce	-9969
▁compound	-9970
▁practical	-9971
▁craft	-9972
▁rivalry	-9973
▁approaches	-9974
▁AM	-9975
▁herit	-9976
▁wonder	-9977
▁cuts	-9978
▁Guinea	-9979
▁PS	-9980
▁id	-9981
▁Clay	-9982
▁tomb	-9983
▁Performance	-9984
adesh	-9985
▁Half	-9986
▁Malaysia	-9987
▁Eff	-9988
▁nerv	-9989
▁airing	-9990
▁Ni	-9991
▁burning	-9992
▁shifted	-9993
▁displays	-9994
▁proposals	-9995
▁traditions	-9996
feld	-9997
▁Chile	-9998
▁Defense	-9999
▁carries	-10000
▁rehears	-10001
▁lighting	-10002
▁warnings	-10003
▁multiplayer	-10004
▁Got	-10005
▁Nav	-10006
▁Ori	-10007
aching	-10008
▁Wells	-10009
▁Austin	-10010
▁Orange	-10011
▁restore	-10012
▁girlfriend	-10013
▁victim	-10014
▁graduate	-10015
▁participation	-10016
eto	-10017
▁FBI	-10018
▁sings	-10019
▁myster	-10020
▁rebels	-10021
▁Greater	-10022
▁Parsons	-10023
▁Official	-10024
▁Pic	-10025
▁Past	-10026
▁judg	-10027
▁Quest	-10028
▁blocked	-10029
▁medicine	-10030
▁preparing	-10031
▁transportation	-10032
▁Neil	-10033
▁Owen	-10034
▁skill	-10035
run	-10036
▁scores	-10037
▁Eight	-10038
▁Osc	-10039
▁Chelsea	-10040
umph	-10041
▁absent	-10042
aman	-10043
utton	-10044
▁Falls	-10045
▁conven	-10046
▁valuable	-10047
▁interviews	-10048
asa	-10049
▁cyclones	-10050
▁Formation	-10051
▁Woman	-10052
▁chore	-10053
▁riding	-10054
ationally	-10055
▁protests	-10056
▁wished	-10057
▁Ze	-10058
umped	-10059
▁Rest	-10060
▁filmm	-10061
▁salary	-10062
▁brilliant	-10063
▁thunder	-10064
▁unlikely	-10065
merce	-10066
▁Armstrong	-10067
▁Brazilian	-10068
rooms	-10069
▁McKin	-10070
▁Danish	-10071
▁Classic	-10072
▁Description	-10073
▁Mix	-10074
▁creek	-10075
▁cabinet	-10076
▁recovery	-10077
▁Sega	-10078
▁salv	-10079
▁Beginning	-10080
▁maintaining	-10081
TS	-10082
▁Steel	-10083
▁march	-10084
▁Fisher	-10085
▁Quebec	-10086
uez	-10087
▁Orle	-10088
▁passion	-10089
▁reforms	-10090
▁Greatest	-10091
▁districts	-10092
▁cinema	-10093
▁intervention	-10094
▁ing	-10095
▁Studio	-10096
▁arguing	-10097
▁estimates	-10098
ocity	-10099
▁Priv	-10100
▁Fourth	-10101
▁harbour	-10102
oca	-10103
▁Rena	-10104
▁courses	-10105
▁drummer	-10106
▁AP	-10107
▁Eve	-10108
▁garn	-10109
▁racial	-10110
▁beneath	-10111
▁contend	-10112
▁recurring	-10113
▁grandfather	-10114
▁fest	-10115
▁infl	-10116
▁pier	-10117
▁Actor	-10118
▁Spr	-10119
▁significance	-10120
▁vulnerable	-10121
hum	-10122
rod	-10123
▁aft	-10124
▁petition	-10125
hl	-10126
▁kills	-10127
▁towers	-10128
▁accurate	-10129
▁Som	-10130
▁web	-10131
▁bull	-10132
▁releg	-10133
▁advertis	-10134
▁pap	-10135
▁Liter	-10136
▁diverse	-10137
▁Daw	-10138
▁upset	-10139
▁Rio	-10140
▁Tai	-10141
▁eating	-10142
▁Authority	-10143
▁Cathedral	-10144
▁Ec	-10145
▁Pa	-10146
▁statistics	-10147
▁communications	-10148
MI	-10149
▁Eis	-10150
▁sponsored	-10151
▁Cad	-10152
▁valid	-10153
▁Agency	-10154
▁applications	-10155
▁Ker	-10156
▁Orleans	-10157
▁Constantin	-10158
nt	-10159
▁Kaiser	-10160
bal	-10161
▁clar	-10162
▁Susan	-10163
▁Spirit	-10164
▁numbered	-10165
▁efficient	-10166
rost	-10167
achute	-10168
▁airline	-10169
▁Cultural	-10170
▁Nev	-10171
▁clothes	-10172
▁unexpected	-10173
▁hind	-10174
▁Harold	-10175
▁Utah	-10176
umented	-10177
▁Junior	-10178
▁102	-10179
▁Plant	-10180
▁sacrif	-10181
▁Serbian	-10182
▁decorated	-10183
▁Fu	-10184
▁Cass	-10185
▁Globe	-10186
▁faces	-10187
▁lasting	-10188
▁shallow	-10189
▁essentially	-10190
asm	-10191
▁Link	-10192
▁shock	-10193
▁inclusion	-10194
▁tale	-10195
▁toler	-10196
onge	-10197
▁1861	-10198
▁FIFA	-10199
▁surprised	-10200
▁answer	-10201
▁consolid	-10202
▁CBS	-10203
ource	-10204
▁charted	-10205
▁iP	-10206
▁pm	-10207
ario	-10208
▁mate	-10209
▁steep	-10210
▁gender	-10211
▁1889	-10212
▁mood	-10213
▁emotion	-10214
▁Richmond	-10215
▁liner	-10216
osexual	-10217
ocy	-10218
▁deeply	-10219
abilities	-10220
lete	-10221
▁paras	-10222
▁beaten	-10223
uto	-10224
▁theories	-10225
▁squadrons	-10226
atra	-10227
▁morph	-10228
▁ratio	-10229
▁trick	-10230
▁merged	-10231
beat	-10232
▁1894	-10233
▁invent	-10234
▁manage	-10235
▁Muhammad	-10236
▁Province	-10237
▁Constantine	-10238
▁potentially	-10239
▁fate	-10240
▁summit	-10241
▁Newton	-10242
▁drafted	-10243
▁Republicans	-10244
ATO	-10245
urd	-10246
▁158	-10247
▁Vers	-10248
▁Tyler	-10249
▁screenplay	-10250
▁Pad	-10251
▁Salt	-10252
▁cant	-10253
▁tours	-10254
▁suspic	-10255
▁processes	-10256
ashi	-10257
utor	-10258
erver	-10259
▁Scientology	-10260
▁jet	-10261
▁Sac	-10262
eston	-10263
▁1891	-10264
▁swit	-10265
atical	-10266
▁embr	-10267
▁descent	-10268
▁Gay	-10269
▁Hav	-10270
levard	-10271
▁crimes	-10272
▁dancers	-10273
▁sentence	-10274
aze	-10275
▁demo	-10276
▁Stuart	-10277
▁proportion	-10278
és	-10279
Arthur	-10280
▁segments	-10281
▁civilians	-10282
▁persuaded	-10283
affe	-10284
aters	-10285
▁Mend	-10286
▁dense	-10287
▁Fighter	-10288
▁beating	-10289
▁162	-10290
itious	-10291
▁Panzer	-10292
▁AT	-10293
▁dual	-10294
▁beauty	-10295
▁funded	-10296
▁heritage	-10297
▁CS	-10298
▁113	-10299
▁YouT	-10300
reated	-10301
▁implemented	-10302
▁Minor	-10303
▁Apollo	-10304
▁accommodate	-10305
▁altitude	-10306
illo	-10307
reens	-10308
ucker	-10309
▁YouTube	-10310
▁reactions	-10311
aiden	-10312
▁hills	-10313
▁Product	-10314
▁Yam	-10315
itate	-10316
keeper	-10317
▁colors	-10318
▁Picture	-10319
▁NS	-10320
landers	-10321
▁Orchest	-10322
▁holiday	-10323
▁agriculture	-10324
▁presentation	-10325
▁1000	-10326
▁Buffalo	-10327
▁Sug	-10328
anche	-10329
▁golden	-10330
▁Amendment	-10331
▁structural	-10332
oded	-10333
▁Eth	-10334
▁XII	-10335
▁administer	-10336
▁complained	-10337
▁1892	-10338
▁feared	-10339
▁devoted	-10340
▁Scar	-10341
▁Indonesian	-10342
▁Vl	-10343
▁Kam	-10344
castle	-10345
istent	-10346
▁Cardiff	-10347
▁addressed	-10348
▁columns	-10349
▁evident	-10350
▁sailing	-10351
▁requiring	-10352
▁proof	-10353
ocation	-10354
▁rejoin	-10355
▁Symphony	-10356
▁southeastern	-10357
aha	-10358
▁wine	-10359
▁manip	-10360
▁merc	-10361
▁dwarf	-10362
▁oriented	-10363
aping	-10364
▁Ivan	-10365
▁Sout	-10366
▁breaks	-10367
▁fame	-10368
▁nurs	-10369
▁Conservation	-10370
▁Days	-10371
▁Nord	-10372
▁error	-10373
oda	-10374
▁observation	-10375
▁156	-10376
▁tribe	-10377
▁Without	-10378
▁Electric	-10379
▁followers	-10380
▁mythology	-10381
enson	-10382
▁cards	-10383
▁voyage	-10384
▁Register	-10385
▁Vel	-10386
▁bell	-10387
▁kidn	-10388
▁Danny	-10389
▁Brooks	-10390
▁interaction	-10391
berry	-10392
▁1800	-10393
▁Fact	-10394
▁judges	-10395
▁pregnant	-10396
▁confusion	-10397
▁researchers	-10398
▁Kyle	-10399
▁knee	-10400
▁Hunter	-10401
▁Sox	-10402
▁jurisdiction	-10403
▁pip	-10404
▁boot	-10405
▁gene	-10406
▁Burns	-10407
▁Cavalry	-10408
▁quarters	-10409
asha	-10410
▁Sultan	-10411
▁recept	-10412
▁Section	-10413
▁operates	-10414
usalem	-10415
▁Ground	-10416
▁Nature	-10417
▁suddenly	-10418
▁Full	-10419
▁Until	-10420
▁categories	-10421
▁Gw	-10422
▁pink	-10423
▁opens	-10424
▁commenting	-10425
je	-10426
ospel	-10427
▁Ruth	-10428
▁writings	-10429
▁diplomatic	-10430
▁oblig	-10431
heric	-10432
▁Islamic	-10433
▁intermedi	-10434
mn	-10435
▁Actress	-10436
▁physics	-10437
▁tension	-10438
car	-10439
▁135	-10440
onsin	-10441
rific	-10442
▁Johann	-10443
▁superst	-10444
▁embarked	-10445
▁advancing	-10446
▁sculpture	-10447
▁highlighted	-10448
▁rib	-10449
▁extensively	-10450
▁Metropolitan	-10451
isons	-10452
▁Hope	-10453
▁Walt	-10454
▁rect	-10455
▁sized	-10456
▁thrown	-10457
▁similarities	-10458
owski	-10459
▁ages	-10460
▁fert	-10461
▁Boeing	-10462
▁gaining	-10463
▁studying	-10464
▁Jerusalem	-10465
▁principle	-10466
▁challenges	-10467
hers	-10468
▁Terr	-10469
▁assum	-10470
▁sugar	-10471
minster	-10472
▁CO	-10473
▁ho	-10474
▁bears	-10475
▁Airlines	-10476
▁Pok	-10477
▁Side	-10478
▁Wisc	-10479
▁vari	-10480
▁Executive	-10481
pot	-10482
othy	-10483
boards	-10484
▁Justin	-10485
▁gardens	-10486
fr	-10487
amount	-10488
▁Bible	-10489
▁Reich	-10490
▁153	-10491
▁Abu	-10492
gomery	-10493
▁Trade	-10494
▁manif	-10495
▁equally	-10496
▁lifetime	-10497
▁Montgomery	-10498
▁statements	-10499
eness	-10500
▁drown	-10501
▁neighb	-10502
▁Edition	-10503
▁Typhoon	-10504
▁knocked	-10505
▁sentenced	-10506
▁McN	-10507
▁jack	-10508
▁constitu	-10509
▁infrastructure	-10510
▁fee	-10511
assed	-10512
▁locally	-10513
▁educated	-10514
sts	-10515
born	-10516
▁Legisl	-10517
anted	-10518
ocket	-10519
▁rivals	-10520
▁disturbance	-10521
▁240	-10522
▁Start	-10523
▁Barnes	-10524
▁orange	-10525
▁AA	-10526
▁Based	-10527
▁Titan	-10528
▁tooth	-10529
▁divorce	-10530
▁gift	-10531
▁dealing	-10532
▁boundaries	-10533
▁traditionally	-10534
nels	-10535
thodox	-10536
▁Schum	-10537
▁predators	-10538
▁Env	-10539
▁ties	-10540
▁Wonder	-10541
▁Wisconsin	-10542
▁variation	-10543
▁Prest	-10544
▁priest	-10545
▁Independence	-10546
▁overlook	-10547
▁universal	-10548
▁documented	-10549
▁Crus	-10550
ancellor	-10551
▁explaining	-10552
ye	-10553
▁empty	-10554
▁resolved	-10555
▁Turkey	-10556
▁1888	-10557
▁Attorney	-10558
▁Bes	-10559
▁Rogers	-10560
▁stretch	-10561
enos	-10562
▁amph	-10563
isfact	-10564
▁Miles	-10565
▁rings	-10566
▁receives	-10567
▁spawn	-10568
▁Century	-10569
▁enabled	-10570
▁Grade	-10571
▁sword	-10572
▁recruited	-10573
▁settlements	-10574
arks	-10575
pine	-10576
▁Baron	-10577
▁Control	-10578
▁garnered	-10579
▁Scots	-10580
lington	-10581
▁travelling	-10582
▁Sean	-10583
▁naming	-10584
▁explore	-10585
▁benefits	-10586
▁discontin	-10587
▁commercially	-10588
▁considerably	-10589
oria	-10590
▁1885	-10591
▁tape	-10592
▁helps	-10593
▁tickets	-10594
▁villain	-10595
▁Cemetery	-10596
▁MacArthur	-10597
opp	-10598
quest	-10599
▁Saturn	-10600
▁rescued	-10601
▁mud	-10602
▁options	-10603
ét	-10604
osaurs	-10605
▁crashed	-10606
▁hostile	-10607
▁urg	-10608
▁Aber	-10609
▁Icel	-10610
▁ashore	-10611
▁substitute	-10612
▁tu	-10613
▁Tang	-10614
▁lift	-10615
ulsion	-10616
ometric	-10617
▁involves	-10618
▁weakening	-10619
▁nep	-10620
▁Leaf	-10621
▁Quar	-10622
▁seas	-10623
▁supern	-10624
▁batted	-10625
▁smoke	-10626
▁tasked	-10627
▁disorder	-10628
▁proteins	-10629
ando	-10630
▁Sid	-10631
▁forb	-10632
piece	-10633
▁Gang	-10634
angular	-10635
▁Pierre	-10636
▁concerning	-10637
▁guy	-10638
▁Ages	-10639
▁dying	-10640
▁housed	-10641
▁escorted	-10642
▁Christians	-10643
▁Mall	-10644
unning	-10645
▁doors	-10646
▁assert	-10647
▁Ins	-10648
▁dim	-10649
▁Patri	-10650
▁detect	-10651
▁depicts	-10652
▁MI	-10653
▁inning	-10654
▁obvious	-10655
▁elaborate	-10656
▁Um	-10657
aple	-10658
ovak	-10659
▁Baltic	-10660
▁Iceland	-10661
▁pursuit	-10662
▁volunteers	-10663
iar	-10664
▁borrow	-10665
▁concurrent	-10666
▁Judge	-10667
▁dimin	-10668
▁dinner	-10669
▁imprisoned	-10670
▁circular	-10671
▁gods	-10672
▁Management	-10673
▁authorized	-10674
▁collections	-10675
iko	-10676
▁Fitz	-10677
▁inhib	-10678
▁navig	-10679
▁Spider	-10680
▁Thames	-10681
▁editions	-10682
▁warships	-10683
▁conflicts	-10684
▁competitions	-10685
▁flex	-10686
▁Romney	-10687
▁teammate	-10688
▁innoc	-10689
▁pursued	-10690
▁UC	-10691
▁Athens	-10692
▁Hearts	-10693
▁Barbara	-10694
uters	-10695
▁tempo	-10696
▁revival	-10697
▁1865	-10698
▁Mind	-10699
master	-10700
▁Movie	-10701
▁favourite	-10702
vet	-10703
▁Ta	-10704
edia	-10705
▁spar	-10706
lights	-10707
▁reass	-10708
▁eventual	-10709
▁politicians	-10710
rien	-10711
▁Evil	-10712
▁Pant	-10713
▁beliefs	-10714
▁virtually	-10715
▁Stra	-10716
▁ramp	-10717
▁Aren	-10718
▁urged	-10719
▁chemistry	-10720
▁112	-10721
▁vig	-10722
agers	-10723
▁Tourn	-10724
▁Reagan	-10725
▁Against	-10726
▁Sherman	-10727
▁renewed	-10728
▁opposing	-10729
▁manufacturing	-10730
▁NATO	-10731
▁fron	-10732
▁styl	-10733
▁drain	-10734
▁Comedy	-10735
▁veteran	-10736
▁handling	-10737
▁Kan	-10738
▁Wes	-10739
▁abroad	-10740
▁Representatives	-10741
▁Code	-10742
▁Zone	-10743
▁chase	-10744
▁census	-10745
▁mixture	-10746
▁Nancy	-10747
▁velocity	-10748
▁Toy	-10749
▁Winn	-10750
▁handle	-10751
▁stones	-10752
▁Regional	-10753
▁portrait	-10754
▁examination	-10755
▁Ted	-10756
▁universities	-10757
▁Bask	-10758
▁epic	-10759
uction	-10760
▁suspected	-10761
lon	-10762
▁131	-10763
▁Flore	-10764
rene	-10765
▁nut	-10766
backs	-10767
▁Flow	-10768
▁Hunt	-10769
▁unve	-10770
▁Fight	-10771
▁cable	-10772
ublin	-10773
▁Meth	-10774
▁medals	-10775
▁stolen	-10776
▁participants	-10777
▁Vic	-10778
▁Tribune	-10779
▁Amb	-10780
▁pill	-10781
▁Sonic	-10782
▁trailer	-10783
▁gh	-10784
wright	-10785
▁colours	-10786
▁rushing	-10787
▁congress	-10788
▁promoting	-10789
▁remembered	-10790
▁laps	-10791
▁promise	-10792
▁thereby	-10793
▁rendered	-10794
▁organisms	-10795
ME	-10796
▁Fish	-10797
▁Nova	-10798
▁inherited	-10799
rh	-10800
lane	-10801
▁145	-10802
▁Report	-10803
▁pitcher	-10804
▁taste	-10805
▁verte	-10806
▁cattle	-10807
▁convey	-10808
▁sharks	-10809
▁conj	-10810
▁spur	-10811
▁analog	-10812
izer	-10813
▁Ref	-10814
▁leaf	-10815
▁Krist	-10816
▁apply	-10817
isition	-10818
onation	-10819
▁Any	-10820
▁Stein	-10821
▁Branch	-10822
▁Portugal	-10823
▁capturing	-10824
▁117	-10825
▁Had	-10826
▁comics	-10827
▁Newcastle	-10828
gow	-10829
rift	-10830
seud	-10831
▁159	-10832
▁Invest	-10833
▁trapped	-10834
▁interven	-10835
▁decreased	-10836
arest	-10837
▁Face	-10838
▁Fern	-10839
▁tissue	-10840
▁costume	-10841
▁tracked	-10842
▁bombardment	-10843
ulus	-10844
▁Constantinople	-10845
▁Nas	-10846
▁Crow	-10847
▁hopes	-10848
▁inhab	-10849
▁Ernest	-10850
▁positively	-10851
▁compositions	-10852
▁Und	-10853
inery	-10854
▁accidentally	-10855
▁ol	-10856
▁Beh	-10857
▁invaded	-10858
▁CP	-10859
▁tel	-10860
ellar	-10861
▁prototype	-10862
▁celebration	-10863
HS	-10864
▁metric	-10865
oids	-10866
▁blend	-10867
▁Personnel	-10868
▁prox	-10869
▁Draft	-10870
▁juven	-10871
▁confirm	-10872
urst	-10873
▁Pete	-10874
▁vital	-10875
▁warned	-10876
▁tornado	-10877
▁Charlotte	-10878
▁occasional	-10879
▁450	-10880
▁maps	-10881
▁links	-10882
▁fra	-10883
ridor	-10884
▁loud	-10885
▁Magic	-10886
▁Heavyweight	-10887
▁118	-10888
▁José	-10889
anim	-10890
▁Bert	-10891
▁hoping	-10892
▁anticipated	-10893
▁Joint	-10894
▁Bright	-10895
▁upcoming	-10896
▁Laboratory	-10897
▁Heb	-10898
▁1864	-10899
▁Merced	-10900
▁Affairs	-10901
▁Liberty	-10902
▁boyfriend	-10903
▁variations	-10904
▁Environment	-10905
limin	-10906
▁thro	-10907
▁Cornwall	-10908
uri	-10909
avan	-10910
rible	-10911
▁rains	-10912
▁Others	-10913
▁goddess	-10914
▁avo	-10915
otion	-10916
ampton	-10917
▁Chapel	-10918
▁bomber	-10919
▁batteries	-10920
▁Chad	-10921
▁Poly	-10922
▁dozen	-10923
▁laboratory	-10924
▁provisions	-10925
OC	-10926
▁genu	-10927
enburg	-10928
igious	-10929
▁marking	-10930
▁sinking	-10931
▁accessible	-10932
▁guests	-10933
▁impressive	-10934
▁separation	-10935
eff	-10936
▁114	-10937
▁Youth	-10938
▁Voice	-10939
▁Freedom	-10940
tes	-10941
colm	-10942
▁Filming	-10943
▁horizont	-10944
▁nickname	-10945
▁dependent	-10946
▁biological	-10947
anne	-10948
▁laugh	-10949
▁easier	-10950
▁scandal	-10951
iga	-10952
erts	-10953
▁Sud	-10954
▁politician	-10955
▁sor	-10956
▁Glas	-10957
▁supports	-10958
▁parliamentary	-10959
roe	-10960
▁ib	-10961
▁fires	-10962
▁indigenous	-10963
▁rever	-10964
▁avoided	-10965
▁Neb	-10966
▁nose	-10967
▁Leices	-10968
restrial	-10969
▁Friends	-10970
ilda	-10971
artime	-10972
▁afford	-10973
▁threats	-10974
ardo	-10975
▁Bud	-10976
▁Pul	-10977
▁cow	-10978
▁Winds	-10979
▁random	-10980
▁progressed	-10981
aco	-10982
▁Tu	-10983
▁dust	-10984
▁Chester	-10985
▁Marines	-10986
▁Armenian	-10987
▁deputy	-10988
▁formula	-10989
▁biography	-10990
▁consumption	-10991
▁restrictions	-10992
icking	-10993
▁Kenneth	-10994
▁Members	-10995
▁corporate	-10996
rior	-10997
▁Agu	-10998
▁lighter	-10999
▁volcanic	-11000
▁fed	-11001
▁eld	-11002
▁Cryst	-11003
▁truly	-11004
▁Malcolm	-11005
hill	-11006
▁liver	-11007
▁Protestant	-11008
▁Meteorological	-11009
▁Oscar	-11010
▁imposed	-11011
osph	-11012
ught	-11013
▁Case	-11014
▁rugby	-11015
▁Energy	-11016
▁mixing	-11017
▁Orchestra	-11018
▁occurring	-11019
▁particles	-11020
▁sav	-11021
▁Vick	-11022
▁Pedro	-11023
▁usage	-11024
▁Chamberlain	-11025
cliff	-11026
▁Cena	-11027
▁Duch	-11028
▁fier	-11029
▁trunk	-11030
▁produces	-11031
▁Tru	-11032
agles	-11033
eling	-11034
▁Bapt	-11035
▁fles	-11036
▁Bears	-11037
▁toxic	-11038
▁noticed	-11039
▁murdered	-11040
▁evacuation	-11041
held	-11042
▁Skin	-11043
▁cash	-11044
▁Lower	-11045
▁dreadn	-11046
ailing	-11047
▁Isaac	-11048
▁license	-11049
▁Boulevard	-11050
▁customers	-11051
▁Beth	-11052
▁contracts	-11053
▁defenders	-11054
▁Il	-11055
▁enh	-11056
▁Cinc	-11057
▁Dublin	-11058
orted	-11059
▁acre	-11060
ielder	-11061
▁DJ	-11062
isan	-11063
▁ERA	-11064
▁Tree	-11065
▁exile	-11066
▁wound	-11067
changed	-11068
oples	-11069
ocal	-11070
▁1862	-11071
▁Chair	-11072
▁Sic	-11073
▁Cinem	-11074
▁lawsuit	-11075
▁cathedral	-11076
▁Zero	-11077
▁Athletic	-11078
ptic	-11079
▁relation	-11080
fly	-11081
amics	-11082
▁Peng	-11083
▁grap	-11084
▁wake	-11085
▁choir	-11086
▁Cyclone	-11087
▁Room	-11088
▁intent	-11089
▁speculation	-11090
▁killer	-11091
▁nephew	-11092
gé	-11093
▁XX	-11094
action	-11095
▁Antar	-11096
▁debris	-11097
▁ordinary	-11098
▁engineers	-11099
NC	-11100
▁hence	-11101
▁stall	-11102
▁plates	-11103
▁LP	-11104
▁Saf	-11105
▁Term	-11106
▁angry	-11107
point	-11108
▁Eddie	-11109
▁Action	-11110
▁Career	-11111
▁Bradley	-11112
▁depicting	-11113
▁aside	-11114
▁eastward	-11115
▁disappointed	-11116
▁Guild	-11117
▁timber	-11118
icken	-11119
▁prest	-11120
▁developments	-11121
▁intellectual	-11122
▁MV	-11123
▁Fil	-11124
▁kilog	-11125
▁Glee	-11126
▁ignored	-11127
▁decrease	-11128
▁encounters	-11129
▁industries	-11130
▁Continental	-11131
▁threatening	-11132
▁Break	-11133
▁lyrical	-11134
▁conquest	-11135
▁Tournament	-11136
▁Gabri	-11137
▁throwing	-11138
ulum	-11139
enberg	-11140
▁Metro	-11141
izz	-11142
▁cam	-11143
▁Serbia	-11144
▁Archbishop	-11145
▁complicated	-11146
▁territorial	-11147
eps	-11148
overed	-11149
▁mechanism	-11150
▁undertaken	-11151
quer	-11152
▁abb	-11153
▁mol	-11154
▁Alberta	-11155
▁Cincinn	-11156
▁thunderstorm	-11157
▁revolutionary	-11158
▁Saw	-11159
▁Traff	-11160
▁Altern	-11161
▁vicinity	-11162
gett	-11163
▁Take	-11164
▁Watch	-11165
▁mounts	-11166
mo	-11167
▁elite	-11168
▁strikes	-11169
▁touchdowns	-11170
▁convicted	-11171
▁une	-11172
emble	-11173
▁Bark	-11174
▁exhibit	-11175
▁humanity	-11176
▁championships	-11177
auc	-11178
aneous	-11179
entieth	-11180
▁focuses	-11181
▁conversation	-11182
▁107	-11183
▁Has	-11184
▁Tommy	-11185
▁confident	-11186
▁Collection	-11187
▁Springfield	-11188
osion	-11189
▁remin	-11190
umbered	-11191
▁lacking	-11192
▁mammals	-11193
▁contacted	-11194
▁inaugural	-11195
▁Gon	-11196
▁Micha	-11197
▁fab	-11198
▁therm	-11199
▁Future	-11200
▁entert	-11201
▁farmers	-11202
▁preserve	-11203
▁realistic	-11204
▁suspension	-11205
▁Than	-11206
heimer	-11207
▁Gates	-11208
▁gif	-11209
▁ward	-11210
▁Place	-11211
▁Villa	-11212
▁constantly	-11213
▁RO	-11214
racks	-11215
rogen	-11216
▁Shah	-11217
▁boost	-11218
▁Gibral	-11219
▁Muslims	-11220
▁Joan	-11221
▁arose	-11222
▁ferry	-11223
▁metre	-11224
▁infection	-11225
▁Yugoslavia	-11226
▁helicopter	-11227
▁breast	-11228
itime	-11229
▁Studies	-11230
▁diamond	-11231
idia	-11232
▁157	-11233
▁voters	-11234
▁Marshal	-11235
ovic	-11236
▁stim	-11237
liminary	-11238
▁feathers	-11239
▁collaborated	-11240
▁predominantly	-11241
oba	-11242
▁1840	-11243
▁facil	-11244
▁posts	-11245
▁stern	-11246
▁tools	-11247
▁thorough	-11248
encer	-11249
▁Malta	-11250
▁Canu	-11251
▁Slav	-11252
▁Shiva	-11253
▁Wagner	-11254
▁desper	-11255
▁asserted	-11256
iked	-11257
icing	-11258
▁Jake	-11259
▁Mang	-11260
hanced	-11261
▁patient	-11262
▁absorbed	-11263
▁Gibraltar	-11264
▁Ent	-11265
▁Cand	-11266
▁Maine	-11267
mont	-11268
▁castles	-11269
▁centered	-11270
▁releasing	-11271
etary	-11272
▁Shep	-11273
▁holes	-11274
osy	-11275
▁Pas	-11276
▁grows	-11277
▁infer	-11278
▁Cincinnati	-11279
▁mos	-11280
▁por	-11281
quiry	-11282
▁Taiwan	-11283
▁removing	-11284
▁peninsula	-11285
▁220	-11286
▁Parks	-11287
▁illustrated	-11288
▁Vo	-11289
▁Sex	-11290
▁mit	-11291
▁Rear	-11292
▁Ancient	-11293
▁Angelou	-11294
▁Friedrich	-11295
▁explanation	-11296
oirs	-11297
▁tune	-11298
rolled	-11299
▁knows	-11300
▁Comics	-11301
▁speeds	-11302
▁sustain	-11303
oting	-11304
▁user	-11305
ortion	-11306
▁Bulgar	-11307
▁apolog	-11308
itol	-11309
▁Hood	-11310
▁Robin	-11311
▁compiled	-11312
▁Luft	-11313
▁breeds	-11314
▁canceled	-11315
onial	-11316
▁bowl	-11317
leb	-11318
▁Ord	-11319
▁Reed	-11320
▁Tint	-11321
▁penn	-11322
▁antib	-11323
▁photo	-11324
▁resid	-11325
▁retrie	-11326
▁relieved	-11327
▁Waters	-11328
▁Normandy	-11329
▁situations	-11330
▁independently	-11331
▁AL	-11332
itic	-11333
ellers	-11334
▁enorm	-11335
▁chrom	-11336
alg	-11337
hou	-11338
auge	-11339
▁Lords	-11340
regular	-11341
▁roadway	-11342
▁Uk	-11343
▁isn	-11344
odium	-11345
▁1887	-11346
DI	-11347
▁LS	-11348
▁da	-11349
gans	-11350
▁978	-11351
ubble	-11352
▁Hull	-11353
▁Maced	-11354
▁Vegas	-11355
▁lover	-11356
▁Shield	-11357
▁pleased	-11358
Hg	-11359
asury	-11360
iture	-11361
▁Bulg	-11362
issioned	-11363
▁Alliance	-11364
▁offshore	-11365
▁Mi	-11366
▁Camb	-11367
▁Olivia	-11368
▁layers	-11369
▁marched	-11370
▁Chet	-11371
▁Round	-11372
▁sheep	-11373
▁clergy	-11374
▁Afghanistan	-11375
▁Hom	-11376
▁locomotives	-11377
hart	-11378
▁1863	-11379
▁VIII	-11380
▁incom	-11381
▁Madison	-11382
▁viewing	-11383
▁outstanding	-11384
▁perc	-11385
▁couldn	-11386
▁Twitter	-11387
▁recruit	-11388
assy	-11389
ipher	-11390
▁Burke	-11391
▁arena	-11392
▁genres	-11393
▁paying	-11394
▁Conservative	-11395
▁126	-11396
▁132	-11397
▁1886	-11398
▁Edmund	-11399
▁expanding	-11400
ocol	-11401
▁pig	-11402
▁closure	-11403
▁prosper	-11404
▁varying	-11405
▁Technology	-11406
cha	-11407
▁Pay	-11408
▁Gregory	-11409
▁Leeds	-11410
▁Former	-11411
▁colored	-11412
umberland	-11413
▁Schumacher	-11414
akh	-11415
occ	-11416
▁119	-11417
▁disappeared	-11418
atsu	-11419
▁Revolutionary	-11420
▁cu	-11421
▁mild	-11422
overty	-11423
▁suggestion	-11424
▁regulations	-11425
rels	-11426
▁Poké	-11427
▁reporting	-11428
▁JNA	-11429
▁Kid	-11430
▁aest	-11431
▁mask	-11432
▁celebrate	-11433
▁atop	-11434
▁Orton	-11435
▁armoured	-11436
ieg	-11437
▁hybrid	-11438
▁fungus	-11439
▁Brooklyn	-11440
▁sentiment	-11441
instein	-11442
▁Mercury	-11443
▁inducted	-11444
▁conspiracy	-11445
▁bapt	-11446
ennial	-11447
ischer	-11448
▁blast	-11449
▁backst	-11450
▁Princeton	-11451
▁Pros	-11452
▁Julian	-11453
▁butter	-11454
▁faculty	-11455
▁attraction	-11456
lem	-11457
▁lib	-11458
ribution	-11459
▁McKinley	-11460
omed	-11461
ework	-11462
found	-11463
ritic	-11464
▁Dennis	-11465
▁romance	-11466
▁reporter	-11467
▁Cer	-11468
▁Hubb	-11469
▁Mann	-11470
▁Mult	-11471
▁flour	-11472
▁dropping	-11473
▁nevertheless	-11474
imony	-11475
music	-11476
▁Browns	-11477
▁Kon	-11478
izard	-11479
onnie	-11480
▁blamed	-11481
▁witnesses	-11482
ulates	-11483
▁Tigers	-11484
▁conced	-11485
▁submer	-11486
▁Els	-11487
▁Cort	-11488
▁Rush	-11489
▁Serge	-11490
▁Organization	-11491
leted	-11492
▁swept	-11493
▁Nation	-11494
▁fundamental	-11495
▁Dud	-11496
▁Helen	-11497
▁remote	-11498
▁companion	-11499
▁publicity	-11500
▁Leo	-11501
▁eagle	-11502
▁repris	-11503
▁stored	-11504
▁organic	-11505
▁MLB	-11506
▁Nathan	-11507
▁parking	-11508
▁whatever	-11509
▁submarines	-11510
▁spir	-11511
▁Brand	-11512
▁Historical	-11513
▁positioned	-11514
▁patri	-11515
▁retreated	-11516
▁mad	-11517
▁fant	-11518
▁annex	-11519
▁verses	-11520
▁Musical	-11521
▁stability	-11522
etta	-11523
▁Month	-11524
▁focusing	-11525
▁progressive	-11526
▁fortifications	-11527
▁1884	-11528
▁inHg	-11529
▁oxid	-11530
▁fract	-11531
▁shelter	-11532
▁targeted	-11533
▁condemned	-11534
▁NASA	-11535
▁Hubbard	-11536
▁Fly	-11537
ensis	-11538
▁Soph	-11539
▁Barcel	-11540
▁Glasgow	-11541
▁wrap	-11542
▁Talk	-11543
▁noise	-11544
▁Salv	-11545
acular	-11546
▁Steam	-11547
▁flown	-11548
▁monit	-11549
▁gentle	-11550
▁irregular	-11551
▁corresponding	-11552
▁tent	-11553
▁Tests	-11554
▁curve	-11555
▁Canucks	-11556
▁disbanded	-11557
▁resignation	-11558
▁Eld	-11559
▁fossils	-11560
iah	-11561
▁asc	-11562
mates	-11563
▁Isle	-11564
▁lung	-11565
▁Father	-11566
▁Political	-11567
▁Aub	-11568
▁drunk	-11569
▁confused	-11570
▁detected	-11571
▁mail	-11572
▁winners	-11573
▁convince	-11574
▁telephone	-11575
▁torpedoes	-11576
▁challenging	-11577
acht	-11578
▁Devil	-11579
▁Opera	-11580
▁magnetic	-11581
▁preceding	-11582
▁Isab	-11583
▁swing	-11584
▁cruise	-11585
▁rebounds	-11586
▁roster	-11587
▁machines	-11588
▁mentions	-11589
▁Coal	-11590
▁Fifth	-11591
▁Smack	-11592
▁quoted	-11593
▁Phillies	-11594
▁Kaz	-11595
▁Ghost	-11596
▁brings	-11597
▁Holland	-11598
▁Montana	-11599
▁rice	-11600
▁studios	-11601
▁insurance	-11602
▁NW	-11603
▁worse	-11604
▁calculated	-11605
én	-11606
▁Stal	-11607
▁Solar	-11608
▁fault	-11609
▁melod	-11610
▁solely	-11611
▁concepts	-11612
▁directing	-11613
inated	-11614
▁Herbert	-11615
▁Theodore	-11616
▁creature	-11617
▁terminal	-11618
▁diversity	-11619
▁regiments	-11620
▁BCE	-11621
▁Percy	-11622
▁tourist	-11623
enz	-11624
mans	-11625
▁Kill	-11626
▁Nass	-11627
▁migr	-11628
▁Inside	-11629
▁darker	-11630
▁Millennium	-11631
auded	-11632
▁thanks	-11633
▁judicial	-11634
▁rotation	-11635
▁Westminster	-11636
▁Morning	-11637
▁Oil	-11638
▁1877	-11639
▁Chem	-11640
▁Insp	-11641
ishops	-11642
usters	-11643
▁Burg	-11644
▁nice	-11645
▁Tintin	-11646
▁triumph	-11647
▁historically	-11648
▁151	-11649
icles	-11650
▁hide	-11651
▁Celtic	-11652
▁favored	-11653
▁Adventure	-11654
▁CEO	-11655
arded	-11656
▁examined	-11657
▁scholarship	-11658
oom	-11659
wing	-11660
▁aqu	-11661
▁jersey	-11662
▁Mercedes	-11663
▁103	-11664
▁Chang	-11665
utter	-11666
▁bore	-11667
▁Denver	-11668
▁myself	-11669
ré	-11670
bel	-11671
▁Hus	-11672
▁1876	-11673
▁Vern	-11674
▁Basketball	-11675
▁Kin	-11676
▁cha	-11677
▁Epis	-11678
onso	-11679
igger	-11680
overy	-11681
▁gear	-11682
▁zero	-11683
olia	-11684
▁Lud	-11685
amine	-11686
▁Cond	-11687
▁steadily	-11688
▁prompting	-11689
▁battlefield	-11690
▁138	-11691
▁Austro	-11692
▁config	-11693
▁wartime	-11694
▁acclaimed	-11695
iors	-11696
hentic	-11697
▁Albany	-11698
▁messages	-11699
bie	-11700
▁sulf	-11701
▁trio	-11702
▁balls	-11703
▁walked	-11704
▁rounded	-11705
gus	-11706
▁cotton	-11707
▁sharing	-11708
▁measuring	-11709
▁monastery	-11710
▁Poe	-11711
▁jew	-11712
▁spacecraft	-11713
▁reconstruction	-11714
ewise	-11715
▁Glou	-11716
▁Yard	-11717
▁Ronald	-11718
▁Strong	-11719
▁screens	-11720
▁Additional	-11721
▁af	-11722
▁connects	-11723
▁elevated	-11724
▁Bulgarian	-11725
▁Cany	-11726
▁guards	-11727
▁agencies	-11728
▁eligible	-11729
var	-11730
▁ghost	-11731
▁gusts	-11732
▁agrees	-11733
▁Theater	-11734
cour	-11735
omon	-11736
▁116	-11737
▁Rus	-11738
avian	-11739
▁troop	-11740
▁curved	-11741
▁themed	-11742
▁routing	-11743
▁decisive	-11744
▁commitment	-11745
▁distinction	-11746
hend	-11747
▁Tir	-11748
roscop	-11749
▁Ottawa	-11750
▁presents	-11751
▁Pick	-11752
▁Athen	-11753
▁motif	-11754
▁Carlos	-11755
▁Gothic	-11756
▁Current	-11757
▁refuses	-11758
▁accomplished	-11759
▁EC	-11760
qual	-11761
▁Nevada	-11762
▁clouds	-11763
▁opined	-11764
gary	-11765
lude	-11766
▁Aer	-11767
▁hyper	-11768
▁postp	-11769
▁Rivers	-11770
▁radius	-11771
▁revenge	-11772
▁conducting	-11773
▁Cou	-11774
▁Cox	-11775
▁Expl	-11776
▁kids	-11777
▁masc	-11778
assing	-11779
▁cemetery	-11780
▁exterior	-11781
▁arguments	-11782
▁incidents	-11783
zes	-11784
atty	-11785
ishn	-11786
▁Sri	-11787
▁walks	-11788
▁physically	-11789
gon	-11790
▁Ce	-11791
▁Pokémon	-11792
▁Barcelona	-11793
▁Territory	-11794
▁proclaimed	-11795
cell	-11796
▁linear	-11797
▁Michaels	-11798
▁creatures	-11799
▁kilometers	-11800
asp	-11801
uka	-11802
ampa	-11803
▁129	-11804
▁230	-11805
▁tap	-11806
▁echo	-11807
▁flower	-11808
▁consequence	-11809
▁participating	-11810
ahl	-11811
▁1830	-11812
▁comed	-11813
▁encomp	-11814
▁integrated	-11815
hall	-11816
▁122	-11817
lined	-11818
▁hosp	-11819
▁Squad	-11820
▁tough	-11821
▁134	-11822
▁1875	-11823
▁loose	-11824
▁finest	-11825
▁venues	-11826
▁indirect	-11827
▁Cardinals	-11828
opard	-11829
▁rebel	-11830
▁width	-11831
▁Paraly	-11832
▁centimet	-11833
ju	-11834
inge	-11835
▁RI	-11836
▁fo	-11837
▁Abra	-11838
▁Enix	-11839
lett	-11840
▁Berm	-11841
omical	-11842
▁chann	-11843
istical	-11844
▁theaters	-11845
▁complimented	-11846
bach	-11847
flow	-11848
aults	-11849
▁Chuck	-11850
▁spell	-11851
▁intend	-11852
▁runner	-11853
▁properly	-11854
▁ceremonies	-11855
reeks	-11856
▁milk	-11857
▁lesser	-11858
▁ritual	-11859
▁enhanced	-11860
▁demographic	-11861
ding	-11862
itars	-11863
▁Drake	-11864
▁Milan	-11865
▁spots	-11866
▁poster	-11867
▁prince	-11868
▁extends	-11869
▁Churchill	-11870
▁contribute	-11871
▁lakes	-11872
▁scout	-11873
▁telesc	-11874
▁Parkway	-11875
▁reminisc	-11876
▁deliberately	-11877
▁touc	-11878
▁Colin	-11879
▁bowled	-11880
▁peoples	-11881
▁Bris	-11882
▁varies	-11883
▁Raymond	-11884
▁mansion	-11885
▁preparations	-11886
ettes	-11887
ighed	-11888
▁cosm	-11889
acking	-11890
alling	-11891
▁Foster	-11892
▁remake	-11893
▁borough	-11894
▁heavier	-11895
▁martial	-11896
eda	-11897
▁Hok	-11898
▁1883	-11899
▁Derby	-11900
▁insuff	-11901
▁Esc	-11902
▁RBI	-11903
arthy	-11904
▁Mega	-11905
▁Metac	-11906
▁harsh	-11907
▁weakness	-11908
▁instructions	-11909
▁Barn	-11910
▁Emma	-11911
▁canon	-11912
▁contrad	-11913
▁Operations	-11914
▁southwestern	-11915
▁Caes	-11916
season	-11917
▁onwards	-11918
▁Romanian	-11919
▁ministers	-11920
▁transformed	-11921
▁intermediate	-11922
unge	-11923
rians	-11924
▁Wings	-11925
▁Sor	-11926
Music	-11927
▁1881	-11928
▁Marl	-11929
▁Verm	-11930
▁updated	-11931
▁playable	-11932
▁possessed	-11933
▁continental	-11934
rob	-11935
▁Manuel	-11936
▁coaches	-11937
inter	-11938
▁achievements	-11939
Down	-11940
▁Jose	-11941
▁hurt	-11942
▁rook	-11943
arians	-11944
▁Circle	-11945
▁SmackDown	-11946
▁sensitive	-11947
▁initiative	-11948
▁Pel	-11949
▁Ran	-11950
ashire	-11951
▁Sciences	-11952
▁airborne	-11953
▁prospect	-11954
▁Occ	-11955
▁logo	-11956
▁rider	-11957
▁outcome	-11958
AP	-11959
nda	-11960
▁Venice	-11961
▁propaganda	-11962
▁transmission	-11963
▁Led	-11964
▁aided	-11965
▁Northwest	-11966
▁homosexual	-11967
ni	-11968
▁Jamaica	-11969
▁Middles	-11970
▁Computer	-11971
▁consideration	-11972
zed	-11973
▁yd	-11974
▁fru	-11975
▁Pack	-11976
▁optim	-11977
▁Hispan	-11978
▁allied	-11979
▁variable	-11980
▁critically	-11981
▁Bour	-11982
▁Brah	-11983
▁Belie	-11984
▁disabled	-11985
▁Richardson	-11986
▁vegetation	-11987
▁autobiography	-11988
▁consciousness	-11989
▁Duc	-11990
▁RNA	-11991
herent	-11992
▁Paralymp	-11993
▁orchestral	-11994
▁1869	-11995
▁Diamond	-11996
▁deposits	-11997
▁emerging	-11998
▁tourists	-11999
▁Rosen	-12000
▁Powell	-12001
▁estimate	-12002
▁depiction	-12003
▁exercises	-12004
▁Nad	-12005
▁Blair	-12006
▁Duncan	-12007
▁monster	-12008
▁Lancashire	-12009
elin	-12010
▁moist	-12011
▁spite	-12012
▁Calgary	-12013
ironments	-12014
▁Composition	-12015
▁unh	-12016
izers	-12017
▁Body	-12018
▁landmark	-12019
▁Henderson	-12020
▁permanently	-12021
ubs	-12022
▁Unit	-12023
alties	-12024
▁Arena	-12025
▁unanim	-12026
▁worker	-12027
▁routine	-12028
▁punishment	-12029
▁consistently	-12030
cont	-12031
▁Sad	-12032
▁1866	-12033
▁Hein	-12034
▁comprising	-12035
▁northeastern	-12036
▁Ga	-12037
acer	-12038
▁wit	-12039
▁grid	-12040
▁latest	-12041
▁borders	-12042
▁presidency	-12043
▁Ferdin	-12044
orf	-12045
aton	-12046
▁Brid	-12047
▁Delta	-12048
▁Floyd	-12049
▁Isles	-12050
▁Total	-12051
▁staged	-12052
▁Weather	-12053
▁assassination	-12054
▁Voy	-12055
▁managing	-12056
▁delegates	-12057
▁searching	-12058
▁journalists	-12059
▁subtropical	-12060
eries	-12061
▁ascend	-12062
▁payment	-12063
▁sailors	-12064
▁damaging	-12065
▁municipal	-12066
▁performers	-12067
▁achievement	-12068
▁environments	-12069
vor	-12070
iffer	-12071
▁Alam	-12072
▁Speed	-12073
▁honors	-12074
▁summon	-12075
▁doctrine	-12076
▁belonging	-12077
▁revealing	-12078
lake	-12079
▁witnessed	-12080
rang	-12081
▁Syn	-12082
works	-12083
▁mysterious	-12084
▁bin	-12085
▁marg	-12086
riages	-12087
▁encourage	-12088
▁128	-12089
▁Mills	-12090
▁Using	-12091
▁honey	-12092
▁psychiat	-12093
▁archaeological	-12094
▁input	-12095
▁priority	-12096
▁reluctant	-12097
▁complement	-12098
RS	-12099
bu	-12100
▁dock	-12101
▁Canyon	-12102
▁Contem	-12103
▁Crawford	-12104
▁philosopher	-12105
▁epit	-12106
▁Range	-12107
▁Schol	-12108
▁phenomenon	-12109
▁preventing	-12110
▁reh	-12111
▁amphib	-12112
▁Springs	-12113
▁Leicester	-12114
▁dispatched	-12115
▁unsuccessfully	-12116
▁Seb	-12117
▁odd	-12118
▁marsh	-12119
▁Archae	-12120
▁Frances	-12121
Brien	-12122
▁Ellen	-12123
▁argue	-12124
▁enlar	-12125
▁gates	-12126
atorial	-12127
▁silent	-12128
▁venture	-12129
▁actively	-12130
▁Herm	-12131
▁versus	-12132
▁hypothesis	-12133
▁Rav	-12134
▁Wis	-12135
▁pref	-12136
▁lengths	-12137
▁Veronica	-12138
▁belonged	-12139
▁coaching	-12140
▁switched	-12141
▁Rodrig	-12142
▁confer	-12143
assic	-12144
▁Grove	-12145
▁750	-12146
▁finance	-12147
▁frigate	-12148
▁strange	-12149
GM	-12150
▁seal	-12151
▁anarch	-12152
▁ceiling	-12153
▁poverty	-12154
▁disputed	-12155
▁Palestine	-12156
▁executives	-12157
▁distinguish	-12158
▁124	-12159
▁Arc	-12160
▁Planet	-12161
▁Crystal	-12162
▁eighteen	-12163
▁awareness	-12164
▁listening	-12165
▁scientist	-12166
▁corruption	-12167
▁Hi	-12168
▁Tas	-12169
actic	-12170
▁Fischer	-12171
▁introduce	-12172
anka	-12173
▁Nam	-12174
▁Tucker	-12175
▁Conserv	-12176
▁mechanics	-12177
▁directions	-12178
▁Headquarters	-12179
▁contributing	-12180
alia	-12181
▁1873	-12182
▁Medic	-12183
▁shaft	-12184
▁exploration	-12185
▁expectations	-12186
ikes	-12187
▁oct	-12188
adows	-12189
iating	-12190
▁ion	-12191
▁1882	-12192
▁Assist	-12193
▁procedure	-12194
▁Mut	-12195
▁Wel	-12196
ijing	-12197
▁1871	-12198
▁Carn	-12199
▁adjust	-12200
▁Telegraph	-12201
▁internationally	-12202
▁Fun	-12203
▁molecular	-12204
▁formations	-12205
pin	-12206
▁icon	-12207
▁Region	-12208
▁whales	-12209
▁rational	-12210
▁naturally	-12211
▁surpassed	-12212
Tunes	-12213
▁Cloud	-12214
▁metals	-12215
▁objectives	-12216
▁1867	-12217
▁Food	-12218
▁Punk	-12219
▁gest	-12220
▁mbar	-12221
▁vamp	-12222
▁Films	-12223
▁carved	-12224
▁guitars	-12225
▁leagues	-12226
▁mystery	-12227
▁Flanders	-12228
▁advocated	-12229
▁improving	-12230
atar	-12231
▁root	-12232
rington	-12233
▁Truman	-12234
abad	-12235
rium	-12236
▁intr	-12237
▁saving	-12238
▁tribut	-12239
▁desired	-12240
eches	-12241
odied	-12242
▁Marqu	-12243
▁sheet	-12244
▁privile	-12245
▁shipped	-12246
chi	-12247
▁reop	-12248
istocr	-12249
▁accus	-12250
▁Kepler	-12251
▁Commons	-12252
▁submerged	-12253
▁dimensional	-12254
LA	-12255
usty	-12256
▁plum	-12257
▁pseud	-12258
▁Intellig	-12259
▁abundant	-12260
▁discussing	-12261
▁processing	-12262
vik	-12263
▁abst	-12264
▁requirement	-12265
▁overwhelming	-12266
▁staying	-12267
ogg	-12268
core	-12269
▁Seas	-12270
▁tasks	-12271
▁remind	-12272
▁temples	-12273
▁acceptance	-12274
olan	-12275
▁Kil	-12276
▁1878	-12277
▁Pine	-12278
▁crucial	-12279
▁Mile	-12280
▁cubic	-12281
▁reson	-12282
▁unrel	-12283
▁Dudley	-12284
▁Standard	-12285
▁associate	-12286
▁horsepower	-12287
▁UB	-12288
nery	-12289
▁Alt	-12290
ierra	-12291
▁mant	-12292
▁Deputy	-12293
▁Beijing	-12294
▁convert	-12295
▁Why	-12296
asaki	-12297
▁Shin	-12298
angered	-12299
▁partners	-12300
zig	-12301
▁True	-12302
▁Watson	-12303
▁Masters	-12304
▁explored	-12305
chw	-12306
asia	-12307
▁Anat	-12308
▁estates	-12309
▁comprised	-12310
▁Ply	-12311
erness	-12312
▁nervous	-12313
▁McCarthy	-12314
▁blockade	-12315
▁speculated	-12316
umi	-12317
usive	-12318
▁dive	-12319
▁genes	-12320
▁Desert	-12321
▁Commerc	-12322
▁channels	-12323
▁keyboard	-12324
▁opinions	-12325
▁refugees	-12326
▁composers	-12327
gor	-12328
▁SA	-12329
▁liv	-12330
▁cameo	-12331
▁Newman	-12332
▁Trinity	-12333
▁collecting	-12334
rews	-12335
▁Bea	-12336
asses	-12337
▁adequ	-12338
amation	-12339
▁resemble	-12340
▁authentic	-12341
▁fragments	-12342
appa	-12343
▁Adela	-12344
▁Exped	-12345
▁loaded	-12346
▁navigation	-12347
▁eleph	-12348
▁suffer	-12349
isations	-12350
▁undertook	-12351
▁Gibson	-12352
▁iTunes	-12353
▁immigrants	-12354
eded	-12355
▁Luftw	-12356
HC	-12357
▁jaw	-12358
▁averaged	-12359
▁habitats	-12360
▁turbines	-12361
▁percussion	-12362
▁pump	-12363
▁Professional	-12364
▁137	-12365
immer	-12366
▁seeds	-12367
▁Guadal	-12368
kh	-12369
lex	-12370
▁Raid	-12371
▁republic	-12372
▁complaints	-12373
▁compromise	-12374
▁manufactured	-12375
▁202	-12376
utely	-12377
thlete	-12378
▁whale	-12379
▁genera	-12380
▁posthum	-12381
rehensive	-12382
▁Clif	-12383
▁ants	-12384
▁Alpha	-12385
▁assets	-12386
▁homeless	-12387
▁networks	-12388
arus	-12389
suing	-12390
▁Mail	-12391
▁craf	-12392
▁Eagle	-12393
▁Malay	-12394
▁photos	-12395
▁rushed	-12396
▁ov	-12397
▁haz	-12398
▁Culture	-12399
▁discour	-12400
▁consequences	-12401
▁Aqu	-12402
▁Meyer	-12403
▁bench	-12404
▁femin	-12405
▁faction	-12406
▁manages	-12407
▁coastline	-12408
▁underwater	-12409
▁Surv	-12410
▁bars	-12411
▁gauge	-12412
▁absolute	-12413
▁dissolved	-12414
▁Metacritic	-12415
▁Wellington	-12416
▁Ib	-12417
▁Berg	-12418
▁Hass	-12419
▁Angle	-12420
▁Colomb	-12421
▁symbols	-12422
▁eruption	-12423
▁reconstruct	-12424
▁psychological	-12425
ilogy	-12426
▁lesb	-12427
ulture	-12428
▁Mobile	-12429
▁fabric	-12430
▁honorary	-12431
▁Luftwaffe	-12432
▁Rif	-12433
▁Tib	-12434
▁Aaron	-12435
▁repet	-12436
▁stair	-12437
▁Luther	-12438
▁Bermuda	-12439
boat	-12440
▁Syl	-12441
▁Shelley	-12442
▁lengthy	-12443
▁Trav	-12444
▁Appro	-12445
▁Psych	-12446
▁ineff	-12447
▁relied	-12448
▁Baptist	-12449
▁consensus	-12450
rection	-12451
▁lemurs	-12452
▁variant	-12453
▁ultimate	-12454
▁sic	-12455
▁Vlad	-12456
▁loyalty	-12457
▁Bass	-12458
▁adds	-12459
employ	-12460
▁Method	-12461
▁Monroe	-12462
ographed	-12463
▁ensuing	-12464
▁singers	-12465
▁aristocr	-12466
oves	-12467
▁fears	-12468
▁summar	-12469
▁signals	-12470
IV	-12471
▁Mak	-12472
iggins	-12473
▁improv	-12474
▁Monster	-12475
▁landings	-12476
▁reserves	-12477
▁unveiled	-12478
aba	-12479
amped	-12480
▁Want	-12481
isting	-12482
mother	-12483
▁eldest	-12484
▁intact	-12485
▁phosph	-12486
▁qualities	-12487
▁1872	-12488
▁cave	-12489
▁assessment	-12490
▁disappoint	-12491
ilera	-12492
▁1868	-12493
▁fraud	-12494
▁Selena	-12495
▁Machine	-12496
▁Aguilera	-12497
▁teachers	-12498
▁Notable	-12499
▁contempor	-12500
inqu	-12501
▁RPG	-12502
▁Mick	-12503
▁Timber	-12504
▁doctors	-12505
▁defenses	-12506
▁ambassador	-12507
orig	-12508
▁Otto	-12509
▁unre	-12510
▁flesh	-12511
▁rocket	-12512
▁millions	-12513
▁Engineering	-12514
▁interactions	-12515
▁battlecruisers	-12516
▁Urban	-12517
▁harvest	-12518
▁emotions	-12519
▁spectators	-12520
avil	-12521
▁Cut	-12522
▁Mull	-12523
▁Various	-12524
▁delight	-12525
▁grossed	-12526
▁printing	-12527
▁literally	-12528
child	-12529
▁duck	-12530
▁Choice	-12531
▁Wolver	-12532
▁pounder	-12533
▁Henri	-12534
▁owing	-12535
▁tradem	-12536
▁comparing	-12537
▁twentieth	-12538
isk	-12539
▁buff	-12540
alysis	-12541
▁essay	-12542
▁anthem	-12543
▁weighed	-12544
▁costumes	-12545
▁songwriting	-12546
▁Marx	-12547
▁amid	-12548
▁brut	-12549
▁clip	-12550
▁sear	-12551
▁Flames	-12552
▁lifted	-12553
▁enormous	-12554
▁Woods	-12555
▁Cabinet	-12556
rays	-12557
▁Pon	-12558
grade	-12559
licted	-12560
▁Ellis	-12561
▁Female	-12562
▁explosive	-12563
▁Dakota	-12564
▁bacteria	-12565
▁engaging	-12566
unar	-12567
ipping	-12568
▁dealt	-12569
▁trips	-12570
through	-12571
▁batsman	-12572
▁revived	-12573
▁SH	-12574
imity	-12575
▁rally	-12576
▁patrols	-12577
▁appealed	-12578
▁instructed	-12579
▁Renaissance	-12580
otypes	-12581
igrated	-12582
▁stabil	-12583
▁Genesis	-12584
▁intelligent	-12585
▁politically	-12586
▁insufficient	-12587
▁Hil	-12588
▁Leigh	-12589
▁Stage	-12590
▁deals	-12591
endar	-12592
▁strings	-12593
▁relating	-12594
▁tensions	-12595
▁Expedition	-12596
▁instrumentation	-12597
GB	-12598
▁MVP	-12599
▁cro	-12600
▁Money	-12601
▁telev	-12602
▁reader	-12603
▁stroke	-12604
▁Newport	-12605
▁Soviets	-12606
▁enrolled	-12607
stown	-12608
▁stom	-12609
▁interf	-12610
▁suited	-12611
▁graphic	-12612
▁Chandler	-12613
▁diseases	-12614
▁horizontal	-12615
▁cats	-12616
monton	-12617
▁WWF	-12618
▁raw	-12619
▁ups	-12620
▁metall	-12621
▁Maxwell	-12622
▁Phillips	-12623
▁hurricanes	-12624
▁Fa	-12625
▁sin	-12626
▁Plat	-12627
▁Curtis	-12628
▁Adelaide	-12629
▁Geoffrey	-12630
▁vocalist	-12631
iki	-12632
omys	-12633
▁Riley	-12634
▁Heaven	-12635
▁bitter	-12636
▁Barrett	-12637
▁referee	-12638
keley	-12639
▁Nept	-12640
▁widow	-12641
▁slower	-12642
BO	-12643
rip	-12644
▁anx	-12645
▁Cool	-12646
▁Butler	-12647
▁termed	-12648
▁chapters	-12649
▁subordin	-12650
▁reminiscent	-12651
orge	-12652
▁Chan	-12653
▁Hanc	-12654
▁perf	-12655
▁Wrest	-12656
▁Ferdinand	-12657
▁exhibited	-12658
▁intersections	-12659
iary	-12660
▁digit	-12661
▁Surrey	-12662
▁Knights	-12663
▁missile	-12664
▁mushroom	-12665
▁allegations	-12666
▁declaration	-12667
ido	-12668
anus	-12669
arma	-12670
▁clan	-12671
utonium	-12672
auna	-12673
▁Essex	-12674
▁wishes	-12675
▁incomple	-12676
▁Therefore	-12677
ugs	-12678
ouch	-12679
▁etc	-12680
▁counsel	-12681
▁involve	-12682
▁mistake	-12683
▁overcome	-12684
▁discipline	-12685
opol	-12686
▁Poll	-12687
▁hier	-12688
▁incred	-12689
▁tactical	-12690
▁mathematics	-12691
ulk	-12692
otto	-12693
▁Abraham	-12694
▁Capital	-12695
▁Spencer	-12696
▁Plymouth	-12697
▁extraordin	-12698
aku	-12699
▁Madrid	-12700
▁Romans	-12701
▁GameSpot	-12702
▁disliked	-12703
▁sacrifice	-12704
eta	-12705
▁Fellow	-12706
▁gallery	-12707
▁cultures	-12708
cht	-12709
▁shirt	-12710
▁Combat	-12711
▁Prison	-12712
▁athletic	-12713
▁quantities	-12714
▁Blake	-12715
▁joins	-12716
▁Gonz	-12717
▁Lore	-12718
▁interference	-12719
bery	-12720
▁subd	-12721
▁modest	-12722
▁Movement	-12723
▁proceeds	-12724
▁thickness	-12725
▁CM	-12726
edar	-12727
▁Nak	-12728
▁hunt	-12729
▁expense	-12730
▁transit	-12731
▁syndrome	-12732
ebe	-12733
oric	-12734
▁Fur	-12735
▁Burger	-12736
▁Marcus	-12737
elia	-12738
▁123	-12739
▁Kerr	-12740
▁Bosnia	-12741
▁fights	-12742
▁caliber	-12743
▁circles	-12744
▁Resident	-12745
▁nicknamed	-12746
ht	-12747
atem	-12748
▁gam	-12749
▁Sche	-12750
▁supporter	-12751
▁Contemporary	-12752
yc	-12753
uits	-12754
▁Lamb	-12755
▁Adrian	-12756
▁Screen	-12757
▁Daniels	-12758
▁Hancock	-12759
▁machinery	-12760
▁migration	-12761
RC	-12762
▁assign	-12763
▁nomine	-12764
▁panels	-12765
▁spores	-12766
▁imported	-12767
▁Brigadier	-12768
▁Relations	-12769
▁locomotive	-12770
dam	-12771
▁141	-12772
heads	-12773
▁rifle	-12774
▁repaired	-12775
▁interviewed	-12776
▁Come	-12777
▁Spit	-12778
▁Right	-12779
▁gaming	-12780
▁washed	-12781
▁Aviation	-12782
▁frog	-12783
▁fatal	-12784
▁Florence	-12785
▁resur	-12786
▁fare	-12787
▁hung	-12788
▁Tales	-12789
▁Fergus	-12790
▁bankrupt	-12791
▁shopping	-12792
▁molecules	-12793
▁commentators	-12794
▁Hond	-12795
▁Shan	-12796
▁joke	-12797
▁custody	-12798
▁unaware	-12799
▁proximity	-12800
▁Publishing	-12801
agi	-12802
iden	-12803
▁fluid	-12804
▁continent	-12805
▁Rah	-12806
▁Jeremy	-12807
▁finger	-12808
▁MC	-12809
▁Kes	-12810
▁Garc	-12811
▁Baldwin	-12812
▁currency	-12813
▁Admiralty	-12814
▁mes	-12815
▁shar	-12816
▁weld	-12817
otilla	-12818
▁Heath	-12819
imer	-12820
pect	-12821
urers	-12822
kinson	-12823
▁Norse	-12824
▁Usher	-12825
▁curves	-12826
▁Reading	-12827
▁redesign	-12828
▁pronounced	-12829
igo	-12830
▁Dj	-12831
▁NL	-12832
▁fir	-12833
▁Hergé	-12834
▁Vienna	-12835
▁Manning	-12836
▁Preston	-12837
▁Agricult	-12838
▁Arkansas	-12839
▁Jennifer	-12840
cock	-12841
▁Ltd	-12842
▁Drum	-12843
▁Nobel	-12844
▁allocated	-12845
yan	-12846
olith	-12847
▁beer	-12848
▁Flood	-12849
▁Contin	-12850
▁Tasman	-12851
▁Twenty	-12852
▁Article	-12853
▁Romania	-12854
▁acquire	-12855
▁rulers	-12856
▁Banksia	-12857
▁knowing	-12858
▁contested	-12859
▁successive	-12860
▁View	-12861
▁Metal	-12862
▁relay	-12863
athetic	-12864
▁floors	-12865
▁Stories	-12866
▁undergo	-12867
▁separately	-12868
▁puzz	-12869
itects	-12870
▁betray	-12871
▁demanding	-12872
istle	-12873
▁reef	-12874
▁aviation	-12875
▁memories	-12876
▁populated	-12877
urbs	-12878
▁Lead	-12879
▁Leban	-12880
▁woods	-12881
▁McDonald	-12882
xide	-12883
▁Mom	-12884
elfth	-12885
▁hect	-12886
▁maneuver	-12887
▁Architect	-12888
▁gathering	-12889
▁discussions	-12890
▁preliminary	-12891
nal	-12892
rint	-12893
cious	-12894
ungle	-12895
▁1879	-12896
▁Sans	-12897
▁Wool	-12898
▁riot	-12899
▁disgu	-12900
▁hatch	-12901
agons	-12902
▁publish	-12903
▁northwestern	-12904
▁Kem	-12905
▁Brew	-12906
▁Minogue	-12907
▁Newfound	-12908
▁comparable	-12909
▁interrupted	-12910
▁mim	-12911
▁zones	-12912
▁scrapped	-12913
▁cylinder	-12914
▁regardless	-12915
▁JG	-12916
alid	-12917
▁Pent	-12918
▁bills	-12919
▁farms	-12920
▁proud	-12921
▁McCain	-12922
▁screening	-12923
▁Electronic	-12924
▁photographer	-12925
star	-12926
▁Idol	-12927
▁dawn	-12928
▁sect	-12929
icular	-12930
▁Bowie	-12931
▁Orthodox	-12932
▁demonstrate	-12933
▁Chin	-12934
▁Chase	-12935
▁cease	-12936
▁Skinner	-12937
▁advances	-12938
▁discontinued	-12939
yd	-12940
▁Bengal	-12941
▁damages	-12942
▁Allmusic	-12943
▁Hawaiian	-12944
▁massacre	-12945
▁installation	-12946
esses	-12947
lings	-12948
▁editing	-12949
▁tourism	-12950
▁nineteenth	-12951
▁Adri	-12952
▁golf	-12953
▁chlor	-12954
▁paved	-12955
▁dynamic	-12956
▁Edmonton	-12957
▁editorial	-12958
eward	-12959
▁Capitol	-12960
▁Lie	-12961
▁ally	-12962
▁halted	-12963
▁Character	-12964
▁Wa	-12965
▁bol	-12966
▁tong	-12967
ashing	-12968
▁sporting	-12969
▁Lancaster	-12970
▁Industrial	-12971
▁Tall	-12972
▁Sponge	-12973
▁subsidi	-12974
▁Newfoundland	-12975
wind	-12976
arted	-12977
osity	-12978
▁Perth	-12979
▁cylind	-12980
▁gravity	-12981
▁licensed	-12982
▁regained	-12983
▁Single	-12984
▁therapy	-12985
▁seemingly	-12986
▁neighbouring	-12987
nut	-12988
▁Esp	-12989
▁Suff	-12990
▁chord	-12991
▁subsc	-12992
istence	-12993
▁harbor	-12994
▁subtle	-12995
▁uprising	-12996
▁sew	-12997
▁Shar	-12998
▁Wald	-12999
▁opted	-13000
▁unrest	-13001
▁crowned	-13002
▁projected	-13003
▁Suz	-13004
▁busy	-13005
▁Turks	-13006
▁grain	-13007
▁Senior	-13008
▁citizen	-13009
ologically	-13010
▁contracted	-13011
▁administered	-13012
iang	-13013
▁Fab	-13014
▁Shadow	-13015
▁lessons	-13016
▁disputes	-13017
▁descended	-13018
▁protecting	-13019
▁Equ	-13020
aston	-13021
stand	-13022
▁Ports	-13023
▁creates	-13024
▁Beautiful	-13025
▁deployment	-13026
▁functional	-13027
▁instruction	-13028
▁anger	-13029
▁masses	-13030
▁openly	-13031
▁descendants	-13032
urse	-13033
▁trem	-13034
▁barely	-13035
▁Circuit	-13036
▁privately	-13037
lia	-13038
wig	-13039
▁Hat	-13040
▁lip	-13041
▁Winc	-13042
▁regist	-13043
▁accomplish	-13044
▁Motor	-13045
▁coloured	-13046
▁cooperation	-13047
pit	-13048
▁Bent	-13049
▁totally	-13050
▁Senators	-13051
▁captivity	-13052
▁northwestward	-13053
ovsky	-13054
▁overh	-13055
▁deeper	-13056
▁symmet	-13057
▁jumping	-13058
▁volcano	-13059
▁Buddhist	-13060
▁corridor	-13061
ramid	-13062
▁honest	-13063
▁atmospheric	-13064
▁Mol	-13065
onnell	-13066
▁Janet	-13067
▁Logan	-13068
▁fluor	-13069
▁perpet	-13070
▁Mounted	-13071
▁farming	-13072
▁outdoor	-13073
▁Caroline	-13074
▁generals	-13075
▁collision	-13076
▁Laf	-13077
anian	-13078
▁misc	-13079
aceous	-13080
▁Louise	-13081
▁planes	-13082
▁rapper	-13083
▁delegation	-13084
▁necessarily	-13085
▁Gaz	-13086
▁lux	-13087
▁file	-13088
▁chess	-13089
▁lacks	-13090
▁delays	-13091
▁orient	-13092
▁steady	-13093
▁invented	-13094
▁ambitious	-13095
▁ibn	-13096
rosse	-13097
▁gamb	-13098
▁Motion	-13099
▁Adventures	-13100
front	-13101
guard	-13102
isphere	-13103
▁coalition	-13104
▁Protection	-13105
ikh	-13106
▁Task	-13107
▁Tiger	-13108
▁reiss	-13109
▁suburb	-13110
▁conting	-13111
▁Generation	-13112
blem	-13113
▁gran	-13114
ervers	-13115
▁eject	-13116
▁nests	-13117
▁quit	-13118
▁greet	-13119
▁Sierra	-13120
▁Nashville	-13121
▁developer	-13122
▁Chop	-13123
▁Crom	-13124
▁Make	-13125
▁cream	-13126
achelor	-13127
▁mutual	-13128
▁fatalities	-13129
▁Productions	-13130
imir	-13131
icity	-13132
▁Trad	-13133
▁roller	-13134
▁tracking	-13135
▁declaring	-13136
▁excessive	-13137
▁Bot	-13138
▁joy	-13139
▁oak	-13140
▁Bear	-13141
▁jokes	-13142
▁membr	-13143
AL	-13144
tage	-13145
▁Put	-13146
▁Lynch	-13147
▁Store	-13148
▁presum	-13149
▁trophy	-13150
how	-13151
▁270	-13152
▁Sep	-13153
▁Buch	-13154
▁AllMusic	-13155
rez	-13156
▁teammates	-13157
issa	-13158
▁Emily	-13159
▁Plaza	-13160
▁Online	-13161
▁Palmer	-13162
▁Commissioner	-13163
zac	-13164
▁146	-13165
▁Hous	-13166
▁lava	-13167
▁Shank	-13168
▁copyr	-13169
▁Observ	-13170
▁Airborne	-13171
▁prohibited	-13172
▁Hoff	-13173
▁calm	-13174
▁shops	-13175
▁divine	-13176
▁Bri	-13177
▁Kens	-13178
▁keen	-13179
▁Apart	-13180
graduate	-13181
▁Parachute	-13182
▁struggling	-13183
▁Num	-13184
▁sixty	-13185
▁unemploy	-13186
▁recognize	-13187
▁Consequently	-13188
lend	-13189
▁Tab	-13190
▁Spin	-13191
▁decomp	-13192
▁honours	-13193
▁kitchen	-13194
▁operator	-13195
▁Paramount	-13196
▁aggregate	-13197
▁pregnancy	-13198
isans	-13199
ficial	-13200
▁gains	-13201
▁Damage	-13202
▁Harper	-13203
▁inject	-13204
▁Garfield	-13205
▁realizes	-13206
eria	-13207
oths	-13208
▁puts	-13209
▁Busch	-13210
▁Drama	-13211
▁shadow	-13212
▁Nothing	-13213
▁generate	-13214
▁Sib	-13215
entric	-13216
▁cabin	-13217
▁Maurice	-13218
▁eliminate	-13219
▁Maxim	-13220
▁ironcl	-13221
ogs	-13222
hand	-13223
▁Yet	-13224
opsis	-13225
▁Chall	-13226
▁backup	-13227
▁Chairman	-13228
▁storylines	-13229
▁CC	-13230
anto	-13231
▁Bod	-13232
▁Devon	-13233
▁edges	-13234
▁findings	-13235
▁disappear	-13236
▁merchants	-13237
nolds	-13238
▁Hait	-13239
elfare	-13240
▁trigg	-13241
▁operas	-13242
▁attractive	-13243
▁dug	-13244
▁nam	-13245
▁Pall	-13246
▁acquisition	-13247
▁.3	-13248
▁Pi	-13249
▁Jen	-13250
▁pine	-13251
lessly	-13252
▁draws	-13253
▁reserved	-13254
oning	-13255
ayette	-13256
▁arbit	-13257
▁Regard	-13258
▁Griffin	-13259
▁auction	-13260
▁surfaces	-13261
▁memorable	-13262
▁unusually	-13263
edge	-13264
▁1874	-13265
▁Rams	-13266
▁metap	-13267
▁Arctic	-13268
▁Chancellor	-13269
▁remarkable	-13270
Pa	-13271
▁149	-13272
▁1848	-13273
▁Myst	-13274
▁Glass	-13275
▁ridic	-13276
letcher	-13277
▁Panama	-13278
▁experts	-13279
▁streams	-13280
▁reversed	-13281
▁incomplete	-13282
▁conjunction	-13283
▁proceedings	-13284
▁FM	-13285
▁Cann	-13286
▁unpop	-13287
▁scenario	-13288
▁adaptations	-13289
▁CN	-13290
▁Mk	-13291
yers	-13292
▁Large	-13293
▁Franco	-13294
▁decomm	-13295
▁grants	-13296
▁caution	-13297
▁electro	-13298
▁package	-13299
▁perfectly	-13300
legiate	-13301
▁Survey	-13302
▁sketch	-13303
ripp	-13304
▁Kub	-13305
▁freed	-13306
▁ruins	-13307
▁Finnish	-13308
▁chances	-13309
▁impress	-13310
▁secular	-13311
▁substance	-13312
▁restaurants	-13313
▁hur	-13314
▁minim	-13315
▁tennis	-13316
▁metropolitan	-13317
▁sufficiently	-13318
very	-13319
▁keeps	-13320
▁Starting	-13321
▁motorway	-13322
abet	-13323
list	-13324
raid	-13325
▁Moz	-13326
▁clay	-13327
▁princ	-13328
▁SpongeB	-13329
▁Gust	-13330
ophical	-13331
▁Windsor	-13332
▁Michelle	-13333
▁Bott	-13334
▁lobby	-13335
▁Holmes	-13336
▁pedest	-13337
▁Armenia	-13338
▁worried	-13339
▁veterans	-13340
▁lifestyle	-13341
ndum	-13342
▁Carr	-13343
▁soap	-13344
▁Serbs	-13345
▁modes	-13346
▁resort	-13347
▁Jacques	-13348
▁Junction	-13349
▁Lindwall	-13350
▁assessed	-13351
▁detached	-13352
▁floating	-13353
▁allegedly	-13354
▁Ky	-13355
▁shed	-13356
▁transc	-13357
▁transp	-13358
▁emphasized	-13359
lew	-13360
▁.2	-13361
▁Heat	-13362
▁pray	-13363
▁Number	-13364
▁Tunnel	-13365
▁diving	-13366
▁tunnels	-13367
▁progression	-13368
▁topic	-13369
▁Formula	-13370
▁festivals	-13371
▁Soft	-13372
▁Trip	-13373
taining	-13374
▁hiding	-13375
▁Koreans	-13376
▁demonstration	-13377
▁210	-13378
▁Jur	-13379
▁Too	-13380
▁spo	-13381
▁tum	-13382
▁dors	-13383
▁Arabic	-13384
▁muzzle	-13385
▁nights	-13386
▁Solomon	-13387
▁erosion	-13388
▁loading	-13389
▁manifest	-13390
▁incorporates	-13391
aurus	-13392
ushes	-13393
▁Edwin	-13394
uxili	-13395
▁Bron	-13396
▁Guatem	-13397
▁Advance	-13398
▁climbing	-13399
▁speeches	-13400
▁plutonium	-13401
ho	-13402
agic	-13403
▁Starr	-13404
rozen	-13405
▁Phant	-13406
▁Randy	-13407
▁Monday	-13408
▁monitor	-13409
▁Stanford	-13410
▁attachment	-13411
▁Hip	-13412
▁rays	-13413
olades	-13414
rolling	-13415
▁Claire	-13416
▁floods	-13417
▁Berkeley	-13418
▁supplement	-13419
asi	-13420
ocene	-13421
▁Dian	-13422
▁Doug	-13423
▁Valent	-13424
inguished	-13425
▁Superman	-13426
▁Booth	-13427
▁escal	-13428
▁errors	-13429
▁amendment	-13430
▁diagnosed	-13431
bus	-13432
▁Spy	-13433
▁trap	-13434
▁Gerald	-13435
▁ranged	-13436
▁tended	-13437
▁Presley	-13438
▁centres	-13439
▁upgrade	-13440
▁investigated	-13441
iti	-13442
pes	-13443
pow	-13444
▁flee	-13445
▁param	-13446
▁Martha	-13447
▁overth	-13448
▁internet	-13449
▁pleasure	-13450
▁prosecut	-13451
▁appreciated	-13452
▁modifications	-13453
enne	-13454
orus	-13455
▁Spiel	-13456
▁Reform	-13457
▁consul	-13458
iability	-13459
▁warrant	-13460
▁introducing	-13461
▁EU	-13462
ivic	-13463
umar	-13464
▁sty	-13465
▁Bast	-13466
▁Luis	-13467
▁Guards	-13468
▁Legion	-13469
▁merger	-13470
▁counteratt	-13471
irk	-13472
▁Gy	-13473
▁Mam	-13474
▁Anti	-13475
▁haul	-13476
▁naked	-13477
▁Pierce	-13478
▁cameras	-13479
▁consent	-13480
▁inhabited	-13481
▁unst	-13482
▁Cuban	-13483
▁mobil	-13484
▁overd	-13485
▁lineup	-13486
▁generations	-13487
▁144	-13488
▁crust	-13489
▁notion	-13490
▁securing	-13491
▁comfortable	-13492
ugu	-13493
▁Sold	-13494
▁ease	-13495
official	-13496
▁Gabriel	-13497
▁Jennings	-13498
▁Rhodesia	-13499
pat	-13500
▁Sue	-13501
penter	-13502
▁Recre	-13503
▁hamlet	-13504
▁nearest	-13505
▁Augustus	-13506
▁Bulgaria	-13507
▁confined	-13508
▁thoughts	-13509
▁Broadcasting	-13510
▁Yok	-13511
▁1851	-13512
▁Manor	-13513
▁enable	-13514
▁incons	-13515
▁stance	-13516
▁thrust	-13517
▁qualify	-13518
▁Soundtrack	-13519
▁strengthening	-13520
ema	-13521
otus	-13522
ylum	-13523
▁Aur	-13524
▁metab	-13525
▁synth	-13526
▁Finals	-13527
▁organs	-13528
▁Chapman	-13529
▁Commercial	-13530
iche	-13531
▁fox	-13532
▁bonds	-13533
▁inver	-13534
▁reads	-13535
▁pushing	-13536
imination	-13537
▁Sr	-13538
▁Wake	-13539
▁Delhi	-13540
▁Irving	-13541
▁Turnpike	-13542
▁maintains	-13543
mate	-13544
birds	-13545
▁Hawk	-13546
▁item	-13547
▁electoral	-13548
di	-13549
ulu	-13550
▁Price	-13551
▁revel	-13552
▁Illust	-13553
▁Collect	-13554
▁Warwick	-13555
▁stripped	-13556
raine	-13557
▁artif	-13558
overning	-13559
▁colleges	-13560
▁waterline	-13561
▁Gran	-13562
▁outs	-13563
▁muscle	-13564
▁doubles	-13565
▁speaker	-13566
aude	-13567
▁Kiss	-13568
rators	-13569
▁embarr	-13570
▁elderly	-13571
▁SpongeBob	-13572
stad	-13573
▁Wid	-13574
▁Holl	-13575
▁butt	-13576
▁compat	-13577
▁monkey	-13578
▁Hopkins	-13579
▁grandson	-13580
▁graduating	-13581
tz	-13582
iop	-13583
▁IC	-13584
▁Cec	-13585
▁Cos	-13586
▁ampl	-13587
houses	-13588
▁flags	-13589
▁Mirror	-13590
▁Jeffrey	-13591
▁Glenn	-13592
▁Hayes	-13593
▁monks	-13594
▁ensemble	-13595
▁Subsequently	-13596
iots	-13597
▁Prepar	-13598
▁Things	-13599
▁enthusiastic	-13600
bing	-13601
▁Marath	-13602
istically	-13603
hero	-13604
ichi	-13605
ocaust	-13606
veloped	-13607
▁filter	-13608
▁preval	-13609
▁sacred	-13610
▁successes	-13611
▁legitimate	-13612
erek	-13613
▁Berry	-13614
▁Tyr	-13615
atoes	-13616
▁Sword	-13617
▁brigades	-13618
▁carefully	-13619
▁HM	-13620
▁Kath	-13621
▁cere	-13622
▁Edgar	-13623
▁stepped	-13624
SA	-13625
holm	-13626
odon	-13627
▁phyl	-13628
▁layout	-13629
▁rookie	-13630
▁Borough	-13631
▁barrier	-13632
▁courage	-13633
▁escapes	-13634
▁Fletcher	-13635
asse	-13636
mill	-13637
▁Schw	-13638
▁tool	-13639
▁Crime	-13640
▁laying	-13641
▁Manager	-13642
▁Reviews	-13643
▁monthly	-13644
▁infected	-13645
▁sexually	-13646
▁Spielberg	-13647
▁incorporate	-13648
▁entertaining	-13649
inus	-13650
▁Rup	-13651
avour	-13652
▁Laura	-13653
▁restr	-13654
▁witch	-13655
▁eleventh	-13656
▁exceeded	-13657
▁Southampton	-13658
▁compensation	-13659
▁Squ	-13660
▁ump	-13661
▁Ober	-13662
▁Belle	-13663
▁Kenny	-13664
osystem	-13665
▁Sunder	-13666
▁wounds	-13667
▁exhaust	-13668
▁honored	-13669
▁darkness	-13670
mel	-13671
anan	-13672
▁280	-13673
▁satir	-13674
▁Brandon	-13675
▁genuine	-13676
▁readily	-13677
▁frontier	-13678
▁promising	-13679
▁knock	-13680
▁schem	-13681
▁Patton	-13682
▁Saints	-13683
▁Pirates	-13684
▁defeats	-13685
▁healthy	-13686
▁definitely	-13687
nan	-13688
▁sus	-13689
enhower	-13690
▁pressed	-13691
▁soci	-13692
▁Bangl	-13693
▁Bolton	-13694
▁mistaken	-13695
▁monarchy	-13696
▁invitation	-13697
▁consequently	-13698
▁ber	-13699
▁Cave	-13700
▁rely	-13701
▁Venus	-13702
ountain	-13703
▁Global	-13704
len	-13705
▁Fac	-13706
rieved	-13707
▁fusion	-13708
▁midnight	-13709
▁maneuvers	-13710
mat	-13711
▁NOK	-13712
erals	-13713
▁Made	-13714
▁Basin	-13715
▁Easter	-13716
▁slowed	-13717
▁missiles	-13718
isle	-13719
umni	-13720
▁coc	-13721
▁diary	-13722
▁drives	-13723
▁thirds	-13724
▁spawned	-13725
▁fragment	-13726
▁Artillery	-13727
lesi	-13728
▁ESP	-13729
rified	-13730
▁locate	-13731
▁pupils	-13732
▁Hendrix	-13733
▁concludes	-13734
▁sophistic	-13735
▁unpopular	-13736
oshi	-13737
▁148	-13738
▁Lut	-13739
▁Prin	-13740
▁tram	-13741
▁Porter	-13742
▁submit	-13743
▁profits	-13744
▁employee	-13745
▁reflects	-13746
▁Principal	-13747
▁disappointment	-13748
▁identification	-13749
▁Pra	-13750
hurst	-13751
▁Goeb	-13752
▁bend	-13753
▁Crane	-13754
▁Rugby	-13755
▁reper	-13756
▁Gardens	-13757
vo	-13758
cut	-13759
ymn	-13760
▁fib	-13761
▁Rocky	-13762
▁Truth	-13763
▁Artist	-13764
▁Member	-13765
▁blacks	-13766
▁magical	-13767
▁negotiated	-13768
▁destination	-13769
▁inscription	-13770
▁measurements	-13771
▁corp	-13772
▁immun	-13773
▁retros	-13774
▁convinc	-13775
▁exciting	-13776
▁Lightning	-13777
▁competitors	-13778
▁136	-13779
oints	-13780
▁Hess	-13781
▁refit	-13782
▁Leader	-13783
▁coffee	-13784
▁constr	-13785
▁heroes	-13786
▁traits	-13787
▁celebrity	-13788
▁northbound	-13789
icus	-13790
imid	-13791
▁duet	-13792
▁mirror	-13793
▁Treasury	-13794
▁computers	-13795
▁Eisenhower	-13796
▁controlling	-13797
DA	-13798
▁tide	-13799
osphere	-13800
▁assume	-13801
mons	-13802
▁sel	-13803
▁Rare	-13804
▁Lakes	-13805
▁fever	-13806
▁Stefani	-13807
▁dispers	-13808
▁consumed	-13809
▁Argentine	-13810
▁assignment	-13811
▁Lay	-13812
▁colonel	-13813
▁affecting	-13814
PS	-13815
igon	-13816
▁McA	-13817
osely	-13818
▁Warsaw	-13819
▁physician	-13820
ibal	-13821
oline	-13822
alogue	-13823
ictions	-13824
▁accuracy	-13825
▁automatic	-13826
▁testimony	-13827
▁Gas	-13828
canal	-13829
neath	-13830
▁AIDS	-13831
▁Lucy	-13832
▁posed	-13833
▁Sebast	-13834
▁choosing	-13835
▁neighboring	-13836
▁predecessors	-13837
▁133	-13838
▁forts	-13839
▁lined	-13840
▁Hammer	-13841
▁arcade	-13842
▁distances	-13843
▁struggles	-13844
▁evolutionary	-13845
anz	-13846
▁Almost	-13847
▁Sussex	-13848
▁deciding	-13849
▁procedures	-13850
▁capabilities	-13851
lies	-13852
▁370	-13853
andin	-13854
▁Gone	-13855
▁Wals	-13856
▁Powers	-13857
▁topics	-13858
▁freight	-13859
▁Ferguson	-13860
Ne	-13861
▁Rhode	-13862
tershire	-13863
▁unnamed	-13864
isor	-13865
▁sink	-13866
ophone	-13867
▁Willis	-13868
▁Britney	-13869
▁drainage	-13870
omes	-13871
▁acids	-13872
▁wouldn	-13873
▁realize	-13874
▁Columbus	-13875
▁relevant	-13876
▁Guadalcanal	-13877
▁es	-13878
▁oral	-13879
▁besie	-13880
▁stomach	-13881
▁Reynolds	-13882
▁dorm	-13883
▁smart	-13884
▁Morton	-13885
▁regret	-13886
▁preceded	-13887
▁unt	-13888
▁jail	-13889
▁lion	-13890
▁rush	-13891
▁fairy	-13892
▁SE	-13893
▁demon	-13894
▁spare	-13895
▁Castro	-13896
▁herald	-13897
▁Universe	-13898
▁momentum	-13899
▁volunteer	-13900
irs	-13901
uchi	-13902
▁Doc	-13903
▁abd	-13904
▁psy	-13905
adequ	-13906
olics	-13907
pling	-13908
changes	-13909
▁Variety	-13910
▁requests	-13911
▁illustrations	-13912
▁IU	-13913
irate	-13914
▁Fear	-13915
▁seiz	-13916
▁antiqu	-13917
▁choices	-13918
▁leather	-13919
▁hardware	-13920
▁respected	-13921
odia	-13922
▁Gam	-13923
▁Hyd	-13924
▁carn	-13925
▁Annie	-13926
▁blown	-13927
▁tribal	-13928
▁feminist	-13929
▁settings	-13930
▁suburban	-13931
▁Hutch	-13932
▁Places	-13933
▁Russians	-13934
▁advocate	-13935
▁nobility	-13936
VA	-13937
▁CG	-13938
ilia	-13939
▁Ess	-13940
uates	-13941
▁Rice	-13942
▁Munich	-13943
▁kicked	-13944
▁enhance	-13945
▁speakers	-13946
▁warriors	-13947
▁dimensions	-13948
inite	-13949
▁bold	-13950
▁Citiz	-13951
▁burst	-13952
▁incorrect	-13953
▁limitations	-13954
zo	-13955
▁hin	-13956
▁Beyond	-13957
▁Calvin	-13958
▁Greeks	-13959
▁bassist	-13960
rimination	-13961
▁Lithuania	-13962
▁governing	-13963
gs	-13964
▁Site	-13965
▁Hanna	-13966
▁abolished	-13967
RT	-13968
zi	-13969
▁Vul	-13970
▁tea	-13971
▁Flag	-13972
writer	-13973
▁teenage	-13974
▁twelfth	-13975
▁anywhere	-13976
▁resembles	-13977
▁SN	-13978
tegr	-13979
▁toss	-13980
▁Rever	-13981
▁illeg	-13982
▁painter	-13983
▁suspect	-13984
▁endorsed	-13985
▁absolutely	-13986
▁referendum	-13987
▁underneath	-13988
▁enforcement	-13989
▁tab	-13990
▁Municip	-13991
▁wanting	-13992
▁conquered	-13993
igu	-13994
oop	-13995
▁ecl	-13996
▁vit	-13997
versely	-13998
▁crystal	-13999
▁Intelligence	-14000
dict	-14001
▁Nebr	-14002
▁Spect	-14003
▁bread	-14004
▁Batter	-14005
▁Popular	-14006
▁precise	-14007
▁comprises	-14008
▁Lithuanian	-14009
dan	-14010
beit	-14011
▁lease	-14012
▁lemur	-14013
▁Eighth	-14014
▁repeat	-14015
▁thriller	-14016
▁accordance	-14017
▁congregation	-14018
eli	-14019
post	-14020
archy	-14021
ocese	-14022
▁Stop	-14023
▁Ultimately	-14024
▁nationally	-14025
▁municipality	-14026
brook	-14027
▁Boyd	-14028
▁Dawn	-14029
▁ware	-14030
▁namely	-14031
▁AF	-14032
▁260	-14033
▁Franz	-14034
▁proven	-14035
▁Hammond	-14036
▁maturity	-14037
▁skeleton	-14038
DP	-14039
▁Cu	-14040
▁depr	-14041
isbury	-14042
▁Eugene	-14043
▁prayer	-14044
▁renown	-14045
▁commerce	-14046
▁secretly	-14047
▁Catholics	-14048
▁underlying	-14049
▁Distinguished	-14050
CO	-14051
quet	-14052
▁Bav	-14053
▁Rhys	-14054
▁presc	-14055
▁fortified	-14056
▁imprisonment	-14057
▁extraordinary	-14058
▁jam	-14059
▁que	-14060
▁Derek	-14061
▁nickel	-14062
nor	-14063
▁142	-14064
lance	-14065
▁Mumb	-14066
▁Page	-14067
▁fees	-14068
▁Rather	-14069
▁extant	-14070
▁Quarter	-14071
▁Ps	-14072
▁1859	-14073
▁Ming	-14074
▁Style	-14075
▁dorsal	-14076
▁rumors	-14077
▁safely	-14078
▁innovative	-14079
▁specialized	-14080
iott	-14081
ovich	-14082
▁seize	-14083
▁coupled	-14084
▁Southeast	-14085
▁negotiate	-14086
▁extinction	-14087
▁Lois	-14088
▁locked	-14089
▁customs	-14090
▁substantially	-14091
▁Yu	-14092
elic	-14093
▁Nab	-14094
▁Lear	-14095
▁wool	-14096
▁Britt	-14097
itating	-14098
▁totaled	-14099
▁Robertson	-14100
▁keyboards	-14101
▁aug	-14102
▁Gren	-14103
▁Roads	-14104
▁genius	-14105
▁scales	-14106
▁united	-14107
▁enacted	-14108
▁plastic	-14109
▁Ultimate	-14110
▁limestone	-14111
vae	-14112
cycl	-14113
soon	-14114
▁judgment	-14115
▁specialist	-14116
oub	-14117
ishi	-14118
▁Ost	-14119
▁Pun	-14120
ainted	-14121
▁Remix	-14122
▁Sport	-14123
▁gifts	-14124
▁scope	-14125
▁albeit	-14126
▁Associated	-14127
mitt	-14128
irmed	-14129
▁Comic	-14130
▁atoms	-14131
▁export	-14132
▁hanging	-14133
▁retaining	-14134
▁subsidiary	-14135
▁millimetres	-14136
▁nationalist	-14137
ipel	-14138
iolet	-14139
▁Hast	-14140
▁Blaine	-14141
▁Wander	-14142
▁chains	-14143
▁Nebraska	-14144
▁conviction	-14145
▁efficiency	-14146
jud	-14147
▁Shack	-14148
▁compact	-14149
▁preview	-14150
▁copyright	-14151
▁hospitals	-14152
▁trademark	-14153
comm	-14154
▁Cant	-14155
▁Canber	-14156
▁rewrit	-14157
▁societies	-14158
neum	-14159
▁pian	-14160
▁runway	-14161
▁catalog	-14162
▁Taxonomy	-14163
▁pointing	-14164
▁deriv	-14165
▁eaten	-14166
▁fitting	-14167
▁Sunderland	-14168
HA	-14169
▁Was	-14170
▁1845	-14171
▁fart	-14172
▁pige	-14173
▁Joyce	-14174
▁micro	-14175
▁patch	-14176
▁Fraser	-14177
▁inadequ	-14178
ED	-14179
▁anat	-14180
▁Gross	-14181
▁array	-14182
▁realm	-14183
▁crowds	-14184
▁Outside	-14185
▁murders	-14186
▁investigations	-14187
▁139	-14188
abling	-14189
▁divide	-14190
▁sphere	-14191
▁throat	-14192
▁welcom	-14193
▁deceased	-14194
▁factions	-14195
▁designers	-14196
▁southbound	-14197
▁preservation	-14198
▁comprehensive	-14199
lides	-14200
▁Balk	-14201
▁Quinn	-14202
agonists	-14203
▁Wrestle	-14204
▁summary	-14205
▁Gameplay	-14206
▁Salisbury	-14207
▁Ned	-14208
▁sou	-14209
inely	-14210
▁Dart	-14211
▁axis	-14212
▁guided	-14213
▁Brighton	-14214
▁pla	-14215
▁fake	-14216
▁garage	-14217
▁occupy	-14218
▁thinks	-14219
▁Scouting	-14220
▁introduces	-14221
▁perception	-14222
bage	-14223
▁rod	-14224
▁Fant	-14225
▁Joel	-14226
▁Reds	-14227
▁stunt	-14228
▁Double	-14229
▁achieving	-14230
▁helicopters	-14231
▁Arms	-14232
▁Mine	-14233
▁bout	-14234
▁Jenna	-14235
▁Linda	-14236
▁Willie	-14237
▁inflicted	-14238
▁sexuality	-14239
▁confronted	-14240
onom	-14241
oton	-14242
▁1200	-14243
▁cliff	-14244
▁Critic	-14245
▁Lesser	-14246
▁domain	-14247
▁contrary	-14248
ounce	-14249
▁Stalin	-14250
▁servants	-14251
▁breakdown	-14252
▁Timberlake	-14253
▁intercepted	-14254
▁HIV	-14255
gence	-14256
▁RIAA	-14257
▁inex	-14258
▁facts	-14259
▁volunt	-14260
▁freshman	-14261
▁merchand	-14262
▁realised	-14263
▁Holocaust	-14264
▁Fan	-14265
▁Wed	-14266
▁relax	-14267
▁dragon	-14268
▁inquiry	-14269
▁resolve	-14270
▁seventeen	-14271
▁highlights	-14272
▁Dry	-14273
▁Sed	-14274
▁vow	-14275
▁rape	-14276
▁permit	-14277
▁athlete	-14278
▁tendency	-14279
▁Dominican	-14280
essa	-14281
▁Hig	-14282
outed	-14283
▁Axis	-14284
▁blank	-14285
▁Racing	-14286
▁infant	-14287
▁scorer	-14288
▁Arabian	-14289
apa	-14290
elest	-14291
▁Woll	-14292
▁alert	-14293
▁Buenos	-14294
▁Whitney	-14295
▁monsters	-14296
▁pitching	-14297
▁protective	-14298
▁prosecution	-14299
ovo	-14300
▁Exam	-14301
▁Swan	-14302
▁excited	-14303
▁effectiveness	-14304
adic	-14305
▁Dre	-14306
▁Norton	-14307
▁Torres	-14308
▁tender	-14309
▁solutions	-14310
▁Portsmouth	-14311
▁availability	-14312
▁decommissioned	-14313
▁Shen	-14314
▁vacc	-14315
▁Karen	-14316
▁grace	-14317
▁mouse	-14318
▁admired	-14319
▁matched	-14320
▁contents	-14321
▁synthesis	-14322
▁Pred	-14323
orters	-14324
rically	-14325
▁Scotia	-14326
▁cement	-14327
▁rolling	-14328
▁drawings	-14329
▁Von	-14330
▁dome	-14331
▁amino	-14332
▁ballot	-14333
▁pocket	-14334
gun	-14335
iji	-14336
▁Doll	-14337
spring	-14338
▁basement	-14339
▁activated	-14340
▁ancestors	-14341
▁....	-14342
▁lesbian	-14343
▁substit	-14344
▁monuments	-14345
▁barb	-14346
▁blog	-14347
aulted	-14348
▁Dayton	-14349
▁unders	-14350
▁Aircraft	-14351
▁Petersburg	-14352
▁collective	-14353
▁Amaz	-14354
▁Diet	-14355
▁gram	-14356
▁Shawn	-14357
▁Metall	-14358
▁Elliott	-14359
oft	-14360
▁depends	-14361
▁Nonetheless	-14362
▁Euro	-14363
▁wors	-14364
▁Forbes	-14365
▁Besides	-14366
▁suburbs	-14367
▁adoption	-14368
▁performer	-14369
▁placement	-14370
▁endangered	-14371
▁Wend	-14372
▁Sicily	-14373
▁homage	-14374
▁skiing	-14375
▁Ferrari	-14376
▁amazing	-14377
▁careers	-14378
▁Information	-14379
▁citizenship	-14380
ittees	-14381
▁Bailey	-14382
sa	-14383
acco	-14384
▁Chi	-14385
▁hell	-14386
agonal	-14387
▁Durham	-14388
▁Webber	-14389
▁Scandin	-14390
▁Monument	-14391
▁stopping	-14392
▁concluding	-14393
▁HV	-14394
▁Raf	-14395
▁rer	-14396
▁rode	-14397
▁Omaha	-14398
▁spont	-14399
▁barracks	-14400
▁regulation	-14401
▁mathematical	-14402
▁ank	-14403
itory	-14404
▁1820	-14405
▁Coul	-14406
▁Pend	-14407
▁Lodge	-14408
▁Galile	-14409
▁underm	-14410
▁Economic	-14411
▁BM	-14412
▁SMS	-14413
▁Humph	-14414
▁Singh	-14415
▁meteor	-14416
▁favoured	-14417
▁varieties	-14418
auer	-14419
▁147	-14420
▁Gav	-14421
▁Kot	-14422
▁ESPN	-14423
▁Hugo	-14424
▁mere	-14425
▁annoy	-14426
▁alumin	-14427
▁insect	-14428
▁denomin	-14429
▁runners	-14430
▁visuals	-14431
▁reliable	-14432
▁Engineers	-14433
▁Volt	-14434
▁motivated	-14435
▁countryside	-14436
cope	-14437
ente	-14438
▁Resp	-14439
▁ears	-14440
▁Strait	-14441
▁worlds	-14442
▁bishops	-14443
▁Historian	-14444
▁commended	-14445
▁dinosaurs	-14446
▁departments	-14447
zym	-14448
▁Dy	-14449
▁fut	-14450
▁gren	-14451
▁goalkeeper	-14452
▁Block	-14453
▁Given	-14454
▁McMah	-14455
▁Model	-14456
▁botan	-14457
▁semif	-14458
▁Anders	-14459
uxiliary	-14460
▁unhappy	-14461
▁colleague	-14462
▁organisations	-14463
cat	-14464
▁Lope	-14465
esters	-14466
▁Train	-14467
▁solve	-14468
▁worksh	-14469
▁Gardner	-14470
▁millimeter	-14471
▁receiver	-14472
▁seasonal	-14473
▁oz	-14474
▁slot	-14475
▁Austen	-14476
▁subsid	-14477
▁puzzles	-14478
▁governed	-14479
▁reconcil	-14480
▁democracy	-14481
▁satisfied	-14482
▁reflecting	-14483
▁Pitt	-14484
▁dign	-14485
iblings	-14486
▁binding	-14487
▁watches	-14488
▁Moreover	-14489
▁dominance	-14490
▁Philippine	-14491
▁installment	-14492
nam	-14493
▁Bog	-14494
adoes	-14495
▁Birth	-14496
▁Maple	-14497
▁Mumbai	-14498
▁Bahamas	-14499
▁Assistant	-14500
▁specified	-14501
▁accelerated	-14502
olo	-14503
▁Cros	-14504
retion	-14505
▁stuck	-14506
▁Caesar	-14507
▁talked	-14508
▁fortune	-14509
▁inherit	-14510
▁rehabil	-14511
▁eccentric	-14512
▁je	-14513
rock	-14514
▁cheap	-14515
▁Monica	-14516
▁phases	-14517
▁Canberra	-14518
▁woodland	-14519
▁diagnosis	-14520
▁correspondence	-14521
PC	-14522
nae	-14523
▁IX	-14524
audi	-14525
osal	-14526
armed	-14527
▁fails	-14528
▁Prussia	-14529
▁borrowed	-14530
▁averaging	-14531
▁observers	-14532
▁terrestrial	-14533
rav	-14534
inate	-14535
luence	-14536
▁Angela	-14537
▁Ruther	-14538
▁Democrat	-14539
▁explicitly	-14540
▁incorporating	-14541
fold	-14542
▁Ana	-14543
▁1854	-14544
▁cott	-14545
estock	-14546
▁lingu	-14547
▁theor	-14548
▁goaltend	-14549
▁maritime	-14550
iasm	-14551
ithm	-14552
▁guid	-14553
▁Lopez	-14554
▁Priest	-14555
▁exagger	-14556
▁silence	-14557
▁isotopes	-14558
▁persisted	-14559
▁Lag	-14560
▁sid	-14561
iatus	-14562
sover	-14563
▁1857	-14564
▁Rovers	-14565
▁clever	-14566
unciation	-14567
▁activist	-14568
▁funk	-14569
▁Snake	-14570
▁juvenile	-14571
▁siblings	-14572
▁frustrated	-14573
▁businessman	-14574
elda	-14575
▁Giant	-14576
▁downed	-14577
▁leaked	-14578
▁Concord	-14579
▁exhibits	-14580
onde	-14581
▁Lav	-14582
▁Lil	-14583
▁NME	-14584
▁Sha	-14585
▁stip	-14586
▁Pearson	-14587
▁cluster	-14588
▁ensured	-14589
▁remarks	-14590
▁charting	-14591
▁performs	-14592
▁detachment	-14593
lass	-14594
▁Kos	-14595
▁ram	-14596
▁MacL	-14597
▁Wong	-14598
▁evol	-14599
▁Aires	-14600
▁Plate	-14601
▁backd	-14602
▁valued	-14603
▁boarding	-14604
▁Distribution	-14605
▁configuration	-14606
agedy	-14607
▁morale	-14608
▁precurs	-14609
▁conductor	-14610
▁ecosystem	-14611
▁shortened	-14612
▁Myc	-14613
▁cler	-14614
▁Diana	-14615
▁Syrian	-14616
▁orbits	-14617
▁Hamburg	-14618
▁Recreation	-14619
▁presenting	-14620
DT	-14621
▁FC	-14622
▁ps	-14623
▁lod	-14624
arity	-14625
▁Wilm	-14626
▁Oppen	-14627
▁anthrop	-14628
▁sounded	-14629
iri	-14630
▁Sau	-14631
ctive	-14632
▁Tell	-14633
▁Wang	-14634
▁buses	-14635
▁steal	-14636
▁mineral	-14637
▁disagreed	-14638
▁Kann	-14639
▁boom	-14640
▁erup	-14641
▁Eagles	-14642
▁trilogy	-14643
▁avoiding	-14644
▁intentions	-14645
▁cit	-14646
ishna	-14647
▁Jazz	-14648
▁Tampa	-14649
▁Newark	-14650
▁Duchess	-14651
▁variants	-14652
▁Pix	-14653
avity	-14654
ovakia	-14655
▁drift	-14656
▁Joshua	-14657
▁aliens	-14658
▁slopes	-14659
▁Engineer	-14660
▁expelled	-14661
the	-14662
oufl	-14663
xter	-14664
▁Smy	-14665
▁Ster	-14666
▁mast	-14667
cliffe	-14668
▁unity	-14669
iblical	-14670
▁Volume	-14671
▁anchor	-14672
▁median	-14673
▁develops	-14674
▁immigration	-14675
▁descriptions	-14676
▁northeastward	-14677
ovan	-14678
rina	-14679
▁tyr	-14680
▁tier	-14681
aunton	-14682
▁Lions	-14683
▁reunited	-14684
▁née	-14685
▁trump	-14686
▁Holden	-14687
▁immune	-14688
▁Playing	-14689
▁orbital	-14690
▁poisoning	-14691
▁determination	-14692
ride	-14693
▁Jesse	-14694
▁lowered	-14695
▁steering	-14696
▁Aven	-14697
▁Pont	-14698
▁sanct	-14699
▁regain	-14700
▁Neither	-14701
▁outlets	-14702
▁portrays	-14703
▁bure	-14704
▁Beast	-14705
▁Compton	-14706
▁screened	-14707
▁afterward	-14708
▁Cyp	-14709
▁bicy	-14710
▁imper	-14711
▁rises	-14712
▁scripts	-14713
▁organize	-14714
▁persuade	-14715
▁satisfact	-14716
▁foundations	-14717
▁Kay	-14718
▁hipp	-14719
▁mall	-14720
▁depot	-14721
▁saves	-14722
▁Hallow	-14723
▁Destiny	-14724
▁doubled	-14725
▁retiring	-14726
▁superhero	-14727
▁prominence	-14728
▁Ré	-14729
▁Creat	-14730
▁accent	-14731
▁bowler	-14732
▁larvae	-14733
▁strain	-14734
▁cinemat	-14735
▁Zh	-14736
▁Lac	-14737
▁rav	-14738
▁Pand	-14739
▁lean	-14740
▁Adult	-14741
▁frigates	-14742
▁overhaul	-14743
▁shelters	-14744
▁inability	-14745
▁attributes	-14746
▁Environmental	-14747
▁Rhine	-14748
▁drops	-14749
itational	-14750
▁chambers	-14751
▁primitive	-14752
▁adventures	-14753
▁continuously	-14754
grim	-14755
▁Shir	-14756
▁Savage	-14757
▁bigger	-14758
▁freely	-14759
▁tailed	-14760
▁Concert	-14761
isch	-14762
riet	-14763
enary	-14764
▁Core	-14765
▁Hannah	-14766
▁dreams	-14767
▁Knowles	-14768
▁narrowly	-14769
▁Azer	-14770
▁Cruz	-14771
▁Wick	-14772
▁inev	-14773
▁Armed	-14774
▁Ashley	-14775
▁judged	-14776
▁welcome	-14777
▁peaceful	-14778
▁symbolic	-14779
▁fus	-14780
idity	-14781
swick	-14782
▁Kang	-14783
ailand	-14784
astical	-14785
▁Immedi	-14786
onscious	-14787
▁smallest	-14788
▁Bangladesh	-14789
ifax	-14790
▁Bun	-14791
olesc	-14792
ubles	-14793
▁Duck	-14794
▁thank	-14795
▁Yang	-14796
▁Claud	-14797
▁roofs	-14798
▁tales	-14799
▁Writers	-14800
▁enlarged	-14801
▁graduation	-14802
empl	-14803
phan	-14804
▁Ivy	-14805
▁Hers	-14806
▁Male	-14807
▁Dover	-14808
▁cheer	-14809
▁Schools	-14810
▁linking	-14811
ighthouse	-14812
▁Adriatic	-14813
▁overtime	-14814
▁manuscripts	-14815
▁breakthrough	-14816
iev	-14817
aird	-14818
zens	-14819
▁Gat	-14820
throp	-14821
▁1858	-14822
▁Berk	-14823
▁Gaza	-14824
▁Prev	-14825
▁acute	-14826
▁conve	-14827
▁Dodgers	-14828
▁Kingston	-14829
▁accommodation	-14830
roft	-14831
▁dio	-14832
▁Dale	-14833
▁vibr	-14834
▁Allan	-14835
▁Bened	-14836
▁deton	-14837
▁trails	-14838
▁Retrieved	-14839
▁abolition	-14840
ilis	-14841
▁ost	-14842
▁Palm	-14843
▁dish	-14844
▁veto	-14845
▁tract	-14846
▁excluded	-14847
▁responses	-14848
▁Wu	-14849
enez	-14850
acker	-14851
▁Conv	-14852
▁Falk	-14853
▁Have	-14854
▁plag	-14855
▁loves	-14856
▁Moving	-14857
▁Philos	-14858
▁tongue	-14859
▁commands	-14860
[...]
